<pad>
<eos>
<unk>
。
的
，
我
你
了
？
是
在
他
我们
不
和
她
！
有
就
吗
好
说
都
知道
…
他们
会
什么
这
人
对
一个
很
吧
也
去
把
要
想
但
上
如果
来
到
做
让
、
—
不是
给
没有
那
可以
-
能
啊
个
你们
这个
着
还
被
因为
得
...
它
中
过
现在
没
自己
里
为
可能
但是
“
从
”
已经
就是
将
呢
告诉
这样
不会
怎么
而
需要
事
觉得
与
这些
所以
像
不能
时候
跟
只是
时
当
多
看
听
：
走
这里
为什么
）
（
更
问题
并
别
再
用
又
喜欢
地
哦
工作
下
这么
们
应该
那个
孩子
开始
可
东西
认为
谁
年
公司
我要
先生
找
一些
点
真的
后
还是
一起
所有
当然
不@@
一样
希望
·
等
死
嗯
中国
还有
那么
看到
一@@
最
美国
该
时间
那些
只
不过
或
发现
嘿
大
大@@
前
向
新
的话
叫
找到
一直
才
地方
比
以
,
出
带
帮
不想
为了
发生
一下
所
于
这种
者
事情
快
今天
起来
一
准备
"
朋友
小@@
其他
.
性
吃
一定
我会
相信
钱
出来
必须
它们
任何
这是
想要
不要
或者
很多
太
呃
爱
一切
然后
提供
您
离开
么
妈妈
噢
其
月
研究
有人
进行
小
非常
生活
拿
国家
却
一次
之前
打
世界
回来
而且
这儿
天
哪
子
一点
真
明白
一种
两个
只有
车
看看
请
使
谢谢
感觉
杀
正在
抱歉
见
住
重要
也许
家
政府
那里
以为
成为
以及
得到
人们
计划
无@@
；
过去
担心
通过
我@@
有点
最后
人@@
问
那样
情况
意思
电话
来说
女人
经济
有@@
之后
如何
内
帮助
多@@
伙计
肯定
开
及
干
医生
已
斯
以前
之
头
过来
关于
由
作为
之@@
决定
些
可是
我能
关系
使用
成
包括
手
最好
不错
号
完全
行
中@@
出去
父亲
出现
写
安全
继续
市场
小时
影响
上@@
认识
先
爸爸
选择
酒店
怎么样
买
记得
对于
嗨
正
听到
别人
男人
当时
无法
儿子
了解
等等
机会
是不是
进
没事
名字
站
两@@
水
不用
真是
有些
不同
啦
总是
起
许多
好像
高@@
拉@@
警察
高
看起来
高兴
日
哪里
几个
如此
德
特
要求
能够
今晚
原因
拉
是否
表示
接受
另
我来
系统
之间
大家
看见
结果
心@@
这@@
方式
岁
回
发展
甚至
其中
化
唯一
方法
多少
自@@
银行
她们
上帝
或许
不管
改变
长
同时
你好
花
马@@
穿
学校
打@@
克
斯@@
枪
每个
5
组织
大学
三@@
确定
路
那@@
因此
尔
3
技术
并且
总统
女孩
掉
错
心
阿@@
2
区
清楚
生
水@@
说话
开@@
地@@
回家
处理
调查
没@@
整个
明天
哪儿
下来
天@@
结束
保护
出@@
1
一位
信息
服务
下@@
弄
道
放
是因为
10
话
不到
新@@
本
名
房间
存在
地区
愿意
曾
卡@@
怎样
发@@
跑
一天
呀
参加
恩
》
《
企业
只要
成功
利
方面
特@@
注意
机
间
加@@
学
可@@
打电话
对不起
那儿
支持
快点
听说
要是
送
活动
控制
房子
门
器
感到
里面
主要
马上
兄弟
处
妈
老@@
真正
力
好@@
城市
尽管
全@@
则
最近
拥有
永远
女儿
会@@
努力
宝贝
到底
来自
玩
中心
带来
安@@
晚上
社会
行为
称
保证
重@@
分析
别@@
法
办法
特别
书
报告
行动
气
英国
有关
没错
派
以后
家伙
进入
达
其实
几乎
巴@@
长@@
拜托
见到
亲爱
比赛
身上
能力
利@@
好好
获得
西@@
根本
分@@
设计
像是
?
照片
妻子
回去
目标
过@@
失去
队
太@@
即使
至少
有没有
学生
证明
解决
真@@
考虑
场
完成
手@@
忙
完
不了
变得
喝
似乎
嘛
海@@
6
干嘛
解释
4
容易
实际上
个人
刚刚
德@@
每
家庭
母亲
因
变成
20
故事
表现
卡
投资
联系
回到
马
只能
线
罗@@
尼
免费
生@@
这次
部
式
内@@
日本
才能
衣服
生命
管理
由于
看着
离
确实
电影
就要
坐
干什么
之一
每天
光
谈
交易
危险
倒
最大
麻烦
一家
动
如
利用
那种
医院
进去
人类
父母
部分
谈谈
简单
目前
丈夫
前@@
人员
全球
未来
十@@
办公室
一名
克@@
病
建议
受到
俩
打算
待
条
发
律师
布@@
咱们
理解
面
不行
刚
同样
相@@
同意
刚才
来@@
狗
老
从来
政治
虽然
没什么
证据
至
呆
直接
度
很快
仍然
挺
别的
本@@
产生
进来
外@@
保持
治疗
够
消息
成@@
时@@
任务
格
正@@
产品
白@@
几@@
然而
尔@@
显示
酒
四@@
曾经
仍
分
物
更好
三个
法律
重新
头@@
量
导致
约
美@@
害怕
一份
不再
结婚
机构
睡
外
过程
哈@@
位
增长
员
西
声
奥@@
欧洲
国际
公@@
记录
球
一场
严重
另外
造成
检查
他@@
受
放在
受@@
有个
信
美元
小心
还要
女士
搞
救
加
一件
维@@
有时
战争
小姐
金@@
同@@
环境
一张
其他人
讲
数据
儿
飞机
用@@
作
突然
项目
根据
早上
药
意味着
州
最终
种
伤害
而@@
提出
声音
7
其它
市
身
历史
国
抓
死亡
自由
游戏
一条
血
政策
卖
科@@
这件
尸体
承认
体
风@@
下去
上面
先@@
8
权
转@@
对@@
不好
明显
增加
喂
得@@
坏
此
作用
船
......
格@@
比@@
教
去年
懂
连
回@@
光@@
顿
分钟
尼@@
非
•
价值
价格
而已
里@@
附近
要@@
看上去
山
案子
通常
负责
神
金
科
想法
一旦
法@@
管
身体
汽车
长官
令
具有
事件
脸
这一
尤其
经常
一年
建立
开心
语
动物
纳
手机
花@@
经历
主@@
坐在
12
家@@
健康
教育
留下
运动
查
今年
漂亮
所有人
代表
当@@
森
入
昨晚
啥
皮@@
学习
片
眼睛
伤
文
30
合作
错误
约会
怎么办
奇怪
基@@
米
波@@
文件
意义
更加
放弃
或是
早
家里
神@@
难
有趣
秘密
活
指
远
文化
城
比较
放@@
会议
变@@
再@@
口
年轻
他妈的
一只
块
南@@
变
夫
交@@
件
万@@
显然
车@@
接
少
除了
合@@
我刚
行@@
咖啡
允许
电@@
他会
黑@@
提@@
红@@
音乐
打开
为@@
所@@
纽约
家人
样子
门@@
/
事实
风险
那边
第一次
求
比如
爱@@
超过
靠
威胁
每次
外面
再见
迪
如@@
意识
停
食物
应
收@@
赢
达@@
床
安排
日@@
流@@
讨论
压力
享受
拒绝
帮忙
拍
讨厌
美
想@@
一项
拿到
9
忘
全部
血@@
传统
五@@
藏
印度
女
以来
部门
房
网络
装
早餐
能@@
二@@
客房
局
店
反应
还好
从没
武器
加入
不该
笑
收到
火
地球
重
艾@@
次
直到
往
包
动@@
想象
不断
同
室
绝对
病人
数
萨@@
看@@
疯
山@@
位置
定
紧张
任何人
混蛋
型
糟糕
其@@
范围
无
后面
选
女性
有时候
将会
夫人
该死
凶手
主义
主意
双@@
便
试图
后来
聪明
反@@
林
方
理论
力量
监狱
阻止
低
以@@
客户
亚@@
普@@
必要
新闻
太好了
画
提高
正常
雷@@
鱼
伊@@
主
圣@@
足够
明@@
文@@
火@@
后@@
英里
位于
不得不
相关
回答
完美
百@@
气@@
死@@
飞@@
每@@
案
很大
世纪
实现
约翰
越来越
精神
否则
作@@
额
走@@
电脑
起@@
奇
电视
据
一般
不好意思
半@@
期
脚
事@@
做出
风
客人
最@@
做到
塔
机@@
哈
娜
很@@
大量
抓住
率
委员会
设备
罗
空@@
贝@@
岛
报道
坚持
换
看来
大多数
活着
手术
点@@
员工
业
台
表明
科学
跳
目的
情
布
边
痛苦
规定
图
总
调@@
入@@
眼
理由
接下来
姆
纳@@
类
词
可爱
更@@
莫@@
关心
按
想到
反对
网站
发誓
:
在@@
15
标准
照顾
怎么回事
牌
女@@
这位
原@@
派对
国@@
说@@
意
变化
性@@
生产
品
博士
寻找
随着
东@@
费
深@@
接@@
多久
巨大
总@@
怀疑
猜
基
亚
感谢
装@@
当地
停止
塞@@
本来
自
引起
层
法国
测试
各种
万
整@@
昨天
热
事实上
开玩笑
平@@
表演
从@@
小孩
热@@
身@@
读
快@@
古@@
一部分
空间
算
水平
口@@
再次
媒体
流
单@@
命
的确
快乐
应用
11
第
资金
德国
而是
开枪
年@@
专家
面@@
公园
想想
制
进@@
减少
你@@
参与
感
杰克
皮
犯
官员
几天
满
老板
偷
干@@
令人
S@@
博@@
喔
正确
私人
无论
名@@
和@@
米@@
通@@
六@@
收入
超@@
失@@
内容
属于
面前
学@@
价
关注
谋杀
梅@@
酒吧
唱
达到
出口
创造
定@@
上去
军
即
迪@@
安
不够
低@@
50
失败
身份
遇到
奥巴马
集团
色
哪个
某些
体@@
休息
条件
伦敦
取
伯@@
星期
较
值得
训练
节
攻击
责任
关
经过
结@@
开车
难@@
面对
权利
人士
强
再说
林@@
投资者
介绍
近
消失
不然
塔@@
板
制造
头发
象
尝试
有效
自然
投@@
协议
帕@@
放松
区域
剂
吉@@
身边
组
说明
男孩
腿
来到
欢迎
张
勒
直@@
基金
相当
越
瓦@@
街
十分
细胞
诺
业务
洛@@
落
大部分
领域
疯狂
兹
而言
俄罗斯
菜
方@@
连@@
托@@
方向
大概
餐厅
子@@
需求
清@@
哇
工
怪
情@@
C@@
持续
教授
措施
时代
第一个
信任
危机
曼
埃@@
状态
留在
鬼
满@@
泰@@
成员
刀
韦斯特
战
霍@@
A@@
海
非@@
晚餐
军队
差
忘记
报
旅行
类似
袭击
保@@
语言
替
全
表
破坏
兰
冲@@
距离
信@@
河
空
丢
终于
照
赛
假
做@@
听见
'
正是
来看
设施
到达
程度
票
值
几年
宣布
且
既然
受害者
程序
沙@@
老师
因素
第一@@
留
北@@
病@@
复杂
期间
困难
日子
戴
课
不仅
指出
份
穿着
首先
命令
生气
吸引
星
面临
离@@
基础
节目
用户
状况
货
蒂
排@@
费@@
功能
意见
传@@
艺术
答案
机场
再也
速度
肉
远@@
时期
用来
贷款
适合
关键
贝斯特
眼@@
确保
兰@@
观点
恢复
行业
理@@
明
睡觉
是从
越@@
班
资料
改革
军@@
毁
很棒
那天
例如
如今
石@@
路@@
及其
一半
字
看过
数@@
某个
形成
法庭
诺@@
根
界
立@@
需
子弹
症
除非
久
下面
执行
探员
实在
资产
言
结构
油@@
太太
通知
莉
办
婚礼
简直
力@@
广告
现场
精@@
受伤
建筑
改@@
核@@
商
论
杯
可不
人民
托
真相
冰@@
撒谎
雷
麦@@
仅
爸
礼物
级
油
路上
幸运
树
别说
若
感受
洗@@
付
未
模式
食品
苏@@
使得
公寓
原来
复@@
调
应@@
冷静
形
充满
道@@
人生
为何
亿美元
那时
姑娘
带@@
冰箱
警告
伟大
犯罪
!
三
晚
妹妹
八@@
旧
老婆
真实
数字
张@@
可怕
制度
理
仅仅
这事
强@@
提
亲@@
生物
断
大约
稳定
师
从未
法官
科学家
儿童
承诺
没法
观察
痛
钥匙
视
民@@
常@@
生意
开发
梦
克斯
没关系
哭
100
竞争
限制
接近
工具
角色
记者
到处
独立
省
活@@
黄@@
飞
可不是
小子
实@@
经验
可怜
骨
销售
莱@@
化@@
杀死
取@@
罪
差不多
独@@
只@@
搞定
作品
思想
推@@
关@@
证
骗
基本
多年
福@@
该@@
王
每年
这边
答应
年代
款
早就
信号
成本
线索
扔
落@@
极@@
怕
哥哥
通
表@@
多么
用于
转
兴趣
胡@@
挂
美丽
互联网
习惯
棒
士
一会儿
采取
专@@
资源
团队
歌
2@@
商业
铁@@
这项
嘴
大脑
M@@
意大利
随@@
专业
吃@@
俱乐部
毒品
难道
实验室
波
座
游@@
挑战
购买
举行
然
西方
送@@
图@@
各位
赢得
不可
撞
见@@
占
兵
包@@
丝
脑@@
破
剩下
灯
各@@
之中
普
索@@
周围
少@@
轻@@
朝
鲁@@
3@@
选举
盘
木@@
教堂
质
听@@
尽
移动
华@@
一块
党
舞
道歉
放下
跟着
下降
国内
贸易
闭嘴
坐下
战@@
世
申请
黑
食
苹果
处于
香港
下午
长期
预@@
楼
乱
邀请
估计
见面
交给
意@@
领导
温@@
鸟
假@@
效果
蒙@@
认真
还@@
避免
威@@
归@@
现实
北京
密@@
一边
报纸
一步
亚洲
杀人
确认
留@@
千@@
乐
停@@
上次
指@@
特殊
书@@
现代
态度
样
石油
未@@
意外
土地
采用
名单
糖
翻@@
猫
网
梦想
工@@
杂志
奇@@
瑞@@
税
爆炸
有着
白
电
o@@
实验
妮
任
段
婚姻
丽
药物
斯特
偷@@
异@@
一遍
事儿
对此
i@@
虫
角
汉@@
弟弟
希@@
警方
试@@
轮
以色列
针对
陪
只会
舒适
脱@@
乔治
在于
石
凯@@
毛@@
曼@@
自杀
食@@
提到
记忆
打扰
第一
刺激
教@@
第二@@
乔@@
植物
言@@
国王
这场
劳@@
欠
40
规则
只不过
a
被@@
同事
土@@
架
原谅
疾病
带走
灵魂
管@@
失望
不必
感情
P@@
人物
毛
弄@@
心脏
时刻
这家
内部
合适
声@@
描述
英雄
制@@
沉@@
换@@
经
情绪
卖@@
亲
洛杉矶
降低
依然
满足
实施
茶
坐@@
安静
具
弗@@
合
切@@
南
交
买@@
华盛顿
不知
巴
屁股
萨
普通
逼
工厂
炸弹
形式
一辆
报@@
自我
幸福
债务
失踪
很难
应当
官
数量
女朋友
洛
防@@
我家
找个
七@@
我爱你
进一步
不少
地点
好多
请@@
恨
造@@
取得
展示
支付
领@@
毒@@
太棒了
球@@
查@@
损失
英语
味
解@@
四个
选@@
B@@
小组
有所
养@@
伊
找@@
出发
王@@
尽@@
奥
问@@
19@@
副
修@@
服
要么
破@@
此@@
)
写@@
跳@@
太阳
利益
发布
杀手
迅速
倒@@
考@@
首@@
(
色@@
跳舞
指控
分子
产
两年
各
午餐
提醒
冷@@
文章
不如
抗@@
鞋
吓
吃饭
列@@
费用
事业
跟踪
早@@
试试
建设
何@@
呼吸
敌人
紧@@
既
伦
酒@@
24
舒服
草
一把
史
学院
取消
赛@@
公平
好处
发表
库
共同
士兵
联邦
消费者
赫@@
随便
权力
记
两
T@@
圈
首席
家族
学会
25
公开
饼
杰@@
乐@@
绝@@
配有
年轻人
记住
出生
并非
着@@
集
养
所说
短@@
工人
史@@
策略
一生
减@@
人口
微@@
药@@
大型
男
方案
病毒
进展
垃圾
对方
美国@@
阿
龙
立
逮捕
乱@@
课程
地址
做好
一周
试
体系
联盟
要说
e@@
旁边
恐怕
玛@@
肉@@
恩@@
地位
周末
软件
酸
穿过
运
基于
就@@
强大
洗
物质
差点
压@@
上升
很少
不让
知识
元
正式
警@@
收
必@@
干净
击@@
救@@
18
断@@
纸
退@@
套房
步
班@@
什么样
表达
资本
接触
反
哪@@
感染
共@@
职业
发出
引@@
均
底
投票
老兄
思考
机器
伯
牛
佩@@
版
消@@
套
前面
材料
全国
啤酒
停下
列
工程
能量
等待
响
什
商店
桑@@
愿
谈话
合同
星@@
经@@
某种
快速
遗憾
实际
在家
产@@
动作
带到
单
就算
称为
施@@
质量
英@@
公众
降@@
不敢相信
华
不介意
私@@
演
吸@@
料
物@@
盖@@
于@@
愚蠢
李@@
愉快
彼此
程
月份
细节
野@@
离婚
群
商@@
字@@
恐惧
尊重
团
令人@@
公路
节@@
保险
风格
上班
夜
增@@
红
刚@@
按照
行驶
塞
康@@
弹@@
美好
于是
躺
立刻
解
长大
结论
根@@
相同
雪@@
求@@
从而
加油
搬
一会
冲
居然
干吗
个@@
4@@
阶段
预测
压
愤怒
所谓
客
喝酒
最新
状
姐姐
厉害
高速
害
现象
射
最高
经营
靠近
医疗
白痴
老爸
伦@@
往@@
两次
证人
基地
术
事故
错过
代@@
端
即将
迷@@
部队
禁止
上来
常常
似的
单独
开放
弹
不幸
引发
杜@@
车里
兴奋
怀孕
关闭
载
分享
案件
音
世@@
哥
权@@
一句
请求
举
中间
滑@@
思@@
谢
相对
素
代
16
庆祝
本书
傻
记@@
手段
心里
找出
竞选
和平
吻
讲@@
全都
拿走
本文
大卫
这份
厨房
罗马
相
箱
制作
对待
假设
非洲
笔
拯救
冒险
基因
哥们
瓦
近@@
一群
院
招@@
建
乔
工业
领导人
之类
音@@
去@@
镇
一段
金融
试验
暴力
脚@@
颜色
牛@@
一致
黑暗
婴儿
释放
患者
战斗
上周
他人
接到
猪
警官
除
之外
禁@@
敢
期待
最佳
结
科技
监视
影
从不
烟@@
床上
丽@@
能源
配@@
聚会
转移
现金
调整
宗教
想起
英寸
周@@
巴黎
不仅仅
守@@
模型
究竟
了@@
例
浪费
味道
举@@
不得
势
著
存@@
到@@
抽@@
c@@
探讨
登
往往
冲突
因@@
这点
谈论
项
房@@
细@@
形@@
司机
戴@@
股票
男@@
没人
有意思
追踪
集中
墙
耶
超级
暗@@
拖@@
寻求
护@@
卷
奖
对付
桌子
正如
男朋友
t@@
抱
太多
主席
章
维
彻底
男性
思
品牌
规模
盯
存
欧@@
视频
运@@
河@@
草@@
高级
锁
本身
追@@
假装
借
接着
演员
爱情
d@@
第三@@
生日
打击
二
厂
反正
希腊
混@@
神经
全世界
聚@@
同性恋
送到
经理
松@@
原则
恶心
货@@
带上
瑞
射@@
系
我国
指纹
火车
西班牙
万美元
击
修
货币
谷歌
闻
有用
视@@
胜利
母@@
左右
两天
职
望
00
性感
富@@
排
看法
但@@
蛋糕
菲@@
算@@
清
债券
瞧
乌@@
妇女
目
顺@@
地上
墨西哥
属
抱怨
伤@@
说法
重大
散@@
角度
s@@
惊@@
拍@@
好人
一杯
还会
枪@@
知
实
蛋
点儿
搞@@
不见
去过
对象
监管
蒂@@
信心
半
印象
投入
第@@
迟到
良好
牙
不久
衣
索
於
博物馆
自从
吉
商品
急
洞
平
卡车
条@@
以上
14
叫@@
倍
类型
九@@
脑袋
轻松
建@@
60
碰
茨
一系列
掌握
缺乏
谈判
收购
不在乎
水果
说服
卢@@
第二
空气
居民
优势
评估
常
联@@
宇宙
随时
逃@@
号码
等@@
赶@@
搜索
即便
方便
照@@
计算
道路
切
桥
伊朗
冷
－
社区
沃@@
不停
官方
财富
检测
玩@@
馆
支@@
新鲜
计
绑架
网上
长时间
小说
印@@
说谎
一片
出售
教练
醒
苦@@
迈克尔
恶@@
默@@
一套
供@@
鱼@@
好事
作出
特征
耳@@
高中
不管怎样
尽快
汤姆
登@@
边@@
灵@@
连接
短
年龄
著名
袋
p@@
饿
竟然
简@@
友
欧盟
自身
输
死去
深
台湾
完@@
明星
女士们
左@@
陈@@
神秘
约@@
足
夜@@
湖
叶
手上
杂@@
处@@
战略
演出
合理
韩国
多谢
森林
相比
族
亮
感激
我该
装置
运行
体验
背景
难过
顾客
烂
达成
青@@
命运
宝宝
顶
满意
一段时间
证实
–
初@@
惊讶
17
源
烟
堂
鼓励
收拾
库@@
更为
人会
批准
画@@
标@@
琳
强烈
邮件
不敢
盖
丝@@
外国
年前
还给
玛丽
辛@@
天气
1@@
维持
堡
供
饭
加上
曲
丁
血液
黑人
改善
一座
佛@@
东
网@@
云
将军
创新
心理
a@@
拿@@
参@@
尔斯
交流
祈祷
法院
雅@@
旅游
皮肤
窗户
算是
结合
雨
上床
符合
假如
尽力
加拿大
蓝@@
暂时
叫做
5@@
为此
出色
隐@@
产业
疼
巧克力
秒
声称
息
500
激动
慢慢
可能性
液
相反
阿富汗
插@@
立即
针
作者
供应
平衡
读@@
F@@
声明
彼得
乐意
邻居
政@@
某人
搭档
讲话
福
阿尔@@
母
电子
便@@
公共
喷@@
工资
批评
紧
不住
联合
自动
预计
别动
面包
周
我本
u@@
死者
不安
i
积极
足@@
访问
喝@@
云@@
伊拉克
2010
分手
念
藏@@
高速公路
民主
偏@@
勒@@
已@@
国会
股
埃及
保罗
做些
唔
D@@
G@@
利润
农@@
拍摄
明确
具体
一部
#
包含
地狱
感@@
境
弗兰克
朝鲜
特大
派@@
惹
g@@
三年
计@@
毕业
起诉
向@@
建造
叔叔
利率
容
上海
绿@@
制定
线@@
密码
背@@
国际@@
秀
生存
傻瓜
奶奶
档案
并@@
集@@
安装
感兴趣
累
没见
惩罚
牺牲
议员
收集
做法
船@@
移民
R@@
封@@
甲@@
熊
放到
旧@@
树@@
在乎
瓶
不去
熟悉
表面
旅馆
加强
致@@
启动
2008
民
13
协会
没用
伤口
浴缸
赚
不愿
对手
搞砸
好消息
做爱
s
抢
穆@@
大街
混乱
散
地图
任@@
观
玛
优秀
广泛
组成
菲
欣赏
双方
戒指
推动
单位
这会
陷入
公里
微波炉
道德
问问
度过
把手
冰
卫星
十年
核
革命
社会@@
时光
贵
屋
下次
甘@@
骨@@
台@@
去世
尤@@
19
莎
o
背后
事物
游
马克
大人
演@@
学家
信仰
给予
卡尔
你家
有事
手里
环@@
纸@@
麦克
探@@
评价
200
一间
仔细
军事
概念
烧
坦@@
舞会
辆
不算
多数
怀@@
帮@@
适应
练习
果
就行了
无聊
顾问
评论
惊喜
红色
停下来
步@@
财政
户
朝@@
观众
重点
圆@@
戏
消费
预算
涉及
自由@@
知@@
穿@@
当中
扩大
财@@
作家
症状
..
能否
领
担忧
好极了
造
L@@
嫌犯
污染
命@@
非法
飞行
形象
浴室
难以
k@@
与@@
脸上
一支
别管
持
毫无
期望
划@@
手指
乐队
提升
软@@
判断
头上
亿
E@@
躲
成熟
检@@
迈克
公布
量@@
暴@@
;
停车
副@@
丹
公共@@
话@@
尼亚
清理
从来不
土
页
癌症
主人
治
赶紧
金属
障碍
签
依@@
倾向
天堂
显得
爬
归
趋势
到来
尼克
早期
广@@
听听
操作
受欢迎
罗斯
厕所
洋@@
校@@
中国@@
更大
原
摆@@
骄傲
两种
县
录像
冠军
应对
当前
迹象
告@@
绿色
凭
摆脱
推出
阴@@
n@@
两位
遭到
镜
易@@
预期
兴@@
大楼
准
承受
代价
天使
无辜
森@@
无烟
鸡
毒
就让
冒
削减
亲自
后果
成长
巴西
理想
英尺
疯子
期@@
一人
折磨
果@@
t
维尔
善@@
很漂亮
紧急
抓@@
横@@
几分钟
互@@
威尔
市长
加州
回报
礼
社交
慢
质@@
哥@@
雪
强调
标志
潜在
有钱
糟
承担
准确
吸血鬼
碎
帽子
正好
业@@
成立
止@@
寄@@
博
一个月
机制
逐渐
受害人
澳大利亚
开门
夫@@
海军
心情
轮@@
部长
右@@
罪犯
谈@@
餐
急@@
改
季
7@@
喜@@
球队
录
木
以下
分开
卧室
钱@@
鬼@@
没想到
几次
传
审判
将来
士@@
早晨
婊子
80
前往
渴望
算了
语@@
海滩
指望
做过
促进
笨蛋
证@@
这座
人家
咬
编@@
in@@
杀@@
玻璃
展@@
抗议
耶稣
想着
保留
它会
艰难
升@@
干得
速
话题
在场
咱
几周
队伍
总之
地震
严格
否认
灵
经济@@
脑
追
退出
居@@
演讲
选手
便宜
考试
联合国
逃
首次
停车场
守
报警
指责
居
情报
南部
仅@@
逃跑
运用
无关
城@@
却是
好了吗
计算机
21
投
监控
助@@
过度
c
顺利
N@@
休@@
碰到
的@@
财产
街上
合法
借@@
欧元
饮料
5%
刺
显@@
主题
痛@@
粉
裤子
大陆
膜
抢劫
若@@
巴基斯坦
丰富
付出
四
某
香
总理
刺@@
组@@
某@@
聊
狂@@
制造商
观@@
痕迹
餐馆
石头
不止
销
仪式
全面
热情
互相
现@@
视为
爆发
恐怖
搜查
脱
香@@
巨@@
最初
魔@@
000
一对
基本上
护士
汇@@
提议
蒙
义
角@@
优@@
职位
上校
白人
太空
l@@
可惜
汉
统治
机器人
耶和华
W@@
人群
印
确信
注意力
湖@@
威
见过
不可@@
退
老鼠
好看
农场
熟
老大
出于
动力
动机
丹@@
遗@@
临@@
交通
醒来
人来
一面
我妈
你别
法案
娅
上学
扎@@
一颗
走进
追求
肯
醉
错@@
宝
景
待@@
发射
教师
入住
2009
核心
注射
世上
规@@
带有
按@@
负@@
狂
终@@
两人
来源
椅子
团体
道理
干掉
无论如何
指数
成人
杀害
营
坏@@
默
衣@@
浪漫
齐
谢@@
18@@
转变
90
模@@
顶@@
泡
租@@
据说
定义
议会
说真的
超
好玩
车上
瑟
直
间@@
句
闪@@
不起
搭@@
有助于
此外
认@@
诗
导@@
龙@@
北
一点点
剑
警
至@@
影@@
特定
脖子
额外
致
什@@
反映
牙@@
教学
配备
擅长
跑@@
留下来
剩
朗
多次
不太
摩@@
队长
武@@
总部
航@@
埋
看不到
例子
谈过
平均
伙伴
回忆
富有
不足
咨询
区别
内心
目@@
从事
歌@@
遍
9@@
星球
酷
务@@
注
中有
勇敢
房地产
采访
曲@@
客@@
露
雨@@
公民
遭受
手下
补@@
扮演
恭喜
夏天
克拉克
孤独
莉@@
诊断
永@@
麻@@
喊
退休
诉讼
间谍
海洋
培养
吹
好奇
领袖
摇@@
设置
烦
b@@
特点
防止
弗
戈@@
游客
首
6@@
觉
设
担任
完整
静@@
睡@@
撒
高度
头儿
阅读
宝@@
备@@
次@@
告
亨利
表情
负
m@@
严@@
沿着
A
义@@
捕@@
以外
发挥
H@@
流行
介意
小时候
距
那家伙
候选人
输@@
铁
警探
天才
收益
露@@
本周
勇气
说出
比尔
吹@@
苦
重复
主管
圣诞节
弱
住手
支
滚
神父
将要
硬@@
容@@
嫁给
市@@
平台
魅力
标
传播
卷@@
玩笑
公主
被捕
跟@@
广场
在线
胸@@
资格
圣
宽@@
撒@@
蓝色
臭
那位
晚安
盛@@
邪恶
透@@
舞@@
做点
精神@@
透
夜晚
古
哪些
咖啡机
进步
耐@@
相处
千
I@@
教训
五年
不像
主义者
队员
侧
等到
这张
有权
积@@
别忘了
睡着
逊
民主党
贵@@
隐藏
民族
灾难
尾
浮@@
丁@@
远离
鼻子
70
专门
室内
矿@@
白色
银@@
f@@
之内
一台
孤@@
中央
以便
伤心
崩溃
比例
迹
生长
之下
社
一本
医学
沙
贴
回应
不肯
牛奶
援助
省@@
成就
丹尼
狼
账户
全是
独特
教会
警局
魔法
发明
温
蠢
当作
耍
透露
度@@
h@@
脑子
鸡蛋
人数
当局
所在
踢
胜
玩具
百
素@@
奇迹
友好
展开
纯@@
孔
莫
图书馆
规矩
折@@
查理
乳@@
暗示
稀@@
叶@@
或@@
男子
信用卡
宠物
牧师
罢了
幻想
耶@@
游泳池
导弹
承@@
决@@
物品
菌
测@@
不准
船上
此事
詹姆斯
万一
舒@@
化学
抛弃
唐@@
失
磨@@
泰勒
争取
故意
自行车
莱
解雇
依赖
服@@
花费
极
聊天
江@@
然@@
月@@
背
不来
刀@@
异常
须
拆@@
号@@
想过
m
燃料
笑话
刑
剧
荣幸
阳光
劲
试着
尴尬
炎
挺@@
普遍
背叛
天呐
技巧
营业
偶尔
幅
特工
虚@@
兵@@
说得对
怪物
码
做个
遭遇
对话
e
整天
图片
农业
骗子
尽量
校
王子
帕
固定
推
一分钟
上涨
蛇
地下
拖
现
鼓@@
运气
姆@@
零@@
触@@
智慧
年纪
脸@@
居住
相似
五个
同一个
地板
杆
汁
移@@
情感
箱子
唱歌
账
主任
签@@
办@@
后悔
一辈子
般
激烈
行政
天空
客气
女生
关掉
民众
夏@@
检察官
海外
父
经济学家
城里
耳朵
凝@@
港
忍受
本地
湾
」
翻
灰@@
他来
提前
论文
「
营@@
区@@
展
破产
获
各国
羊@@
总会
操
登记
论@@
克里斯
资
培训
大规模
残@@
组合
走开
过于
雇
盒子
笔@@
韦@@
美味
做事
执行官
尊敬
打赌
好吃
黑色
态
每周
春@@
汤
税@@
骑
争论
地面
群@@
朗@@
指导
微笑
持@@
ar@@
粗@@
游泳
众@@
放开
良@@
险
有限公司
邦
回事
收费
羊
争议
敏感
底@@
舞台
分别
利亚
呼@@
安全@@
驾驶
街道
凯特
微
窗
欧元区
两张
采@@
举办
事务
交换
共和党
布朗
与此同时
明年
旁
当事人
在我看来
一堆
欢@@
大声
我敢
r@@
清醒
芝加哥
戈
d
创建
相互
资@@
人才
艺术家
古老
简
32
练
前进
动手
摧毁
人民币
巧
打破
参观
二十@@
沙发
协助
上午
服务@@
农民
妓女
文明
新兴
齐@@
创@@
有过
余@@
餐@@
割@@
世界@@
佬
题
依靠
略@@
麦
吐
技能
由@@
直升机
谎言
路线
患
元@@
哪怕
便利
密
手中
指定
斯坦
末
滚@@
电池
re@@
午饭
备
宣传
支出
p
临时
小伙子
违反
扫@@
儿@@
详细
使@@
上市
打个
债
谨慎
突@@
探索
l
运动员
2011
安娜
小镇
体内
免@@
嫉妒
诚@@
上述
嘘
自信
酸@@
保安
尿@@
成绩
持有
咯
国家@@
唱@@
含@@
规划
百万
立场
埃
实践
赶
谷
一根
乐观
保存
]
给@@
享用
住@@
贼
[
当初
选民
骨头
娶
智@@
22
三天
荒@@
上车
花园
五
精彩
数学
300
构成
牵@@
致命
质疑
扎
搬@@
效率
雅
迷人
大道
夫妇
执@@
楼上
飞船
随后
务
按摩
隆
随
街区
配
争@@
送给
保
贾@@
矛盾
沿
判@@
y@@
针@@
票@@
这条
中国政府
不清
黄金
松
升
类@@
球员
别碰
套@@
谋@@
贡献
气候
机关
说实话
2000
购物
排除
敬@@
运输
千万
比利
辞职
小型
维护
犯@@
神奇
可靠
烧@@
赌
年级
舱
典型
头脑
注册
本人
爱尔兰
接入
8@@
充分
途径
钻@@
参议员
受不了
山姆
臭@@
延@@
当成
一个@@
周一
好莱坞
杰
老天
保险@@
季度
抢@@
那晚
此次
支票
2007
斗争
独自
心中
运作
圆
阵@@
肌肉
围@@
临床
片@@
那条
北部
女王
摘要
治@@
如同
想念
咱俩
在内
大会
职责
欺骗
行李
谋杀案
借口
环
斗@@
肯@@
每人
董事会
对抗
剧@@
打败
留给
沙漠
一笔
获@@
国外
饼干
坏人
佛
补充
氏
狗@@
艺
一声
抽
课@@
鼠
口袋
迈@@
探
怀
整理
炸@@
占@@
暴露
妮@@
差异
卫@@
大小
帝国
车子
同一
撞@@
柯@@
梦@@
出版
原本
时尚
变态
边缘
S
擦
众
深刻
玩意
男友
获取
穆斯林
欧
献@@
众多
纽@@
功@@
村
沃
博客
哼
厚
尽可能
帅
适用
推荐
确@@
闹
据@@
避@@
伴
诚实
出租车
缺@@
幻@@
海岸
首相
犹太人
一篇
谋
称@@
胜@@
园
田
第二个
恶魔
摸
梅
空中
发行
双
磅
45
作业
及时
损害
新闻@@
泥@@
干活
签名
堆
公
附@@
正要
傻@@
我查
小女孩
猛@@
政治@@
第三
裙子
刚好
一顿
日期
闲@@
单身
引擎
度假
电梯
钱包
葬礼
贴@@
尖@@
盒
安妮
实行
混
厅
绝
温度
迷
许@@
前景
范@@
上尉
不上
宽敞
电子@@
鞋子
同情
扯
元素
舞蹈
市中心
陪审团
应付
遵守
攻@@
品@@
揍
坎@@
评@@
尿
查看
x
统一
雄@@
编
ro@@
时机
频道
分配
绑
常见
挂@@
里斯
凡
敌
园@@
学者
剪@@
波士顿
医@@
更糟
纪念
助理
我试
娱乐
铁路
工作@@
签署
奈@@
婚@@
述
今早
封
系@@
泡@@
房屋
罪@@
怒
授权
右
信贷
想来
挡
冒@@
仓库
准@@
税收
粉@@
聚
桶
许
特性
下跌
场所
莎拉
恐怖分子
模特
眼镜
车辆
圣诞
富
坚强
股市
肚子
喝一杯
朱@@
版本
一架
遇见
豪华
全新
骂
刻@@
差@@
没想
误@@
23
分析师
家长
装饰
美女
那次
隐瞒
井
充@@
保密
指挥
付钱
同学
得以
编辑
赌@@
乘
心脏病
看不见
悲伤
沉
婚
洛克
礼@@
复苏
搭
文学
忠诚
航
楼@@
al@@
储@@
同志
多个
乘客
异
惨@@
被迫
仪
师@@
腐败
部@@
保守
拿来
晚@@
O@@
女孩子
义务
女友
礼拜
增强
左
装备
南方
宁愿
两周
寻@@
镜头
分离
拜
观看
依
自然@@
en@@
团@@
毕竟
废话
不许
效应
四处
付@@
首都
开支
尾@@
斯特@@
白宫
思维
神经@@
奶@@
哈利
郡
奉@@
艾
交谈
速@@
技术@@
转向
扣
订@@
对面
屏幕
注@@
望@@
除@@
or@@
惊人
淡@@
罗伯特
何时
弱@@
v@@
吸烟
场@@
大床
鼻@@
损伤
陌生人
武装
耐心
g
消除
管理@@
漫@@
鸡@@
含量
服装
十
夺@@
局@@
葡萄酒
威廉
适@@
老人
报复
警长
图像
屋子
鲍@@
微软
连续
混合
野
赶快
动脉
吐@@
必
魔鬼
强迫
b
西部
欲@@
考
现有
之所以
彩@@
商业@@
故@@
重建
肿瘤
屁@@
地下室
返回
宽
粘@@
负担
欲
笑@@
加速
宁
赖@@
昏@@
观念
取代
隆@@
繁@@
我见
部落
影响力
测
弃
监督
硬
倾@@
器官
钢@@
船长
劳
德尔
站@@
喝点
示@@
胆@@
扬
无线
隔@@
数据库
宝贝儿
小小的
巡@@
牢
贝
关联
拜@@
进口
肥@@
代码
俗
善
乘@@
制服
底下
工程师
征@@
条款
困扰
就业
股东
ri@@
三明治
大麻
座位
有限
但愿
灯@@
要死
平静
激@@
审查
案@@
种@@
航班
亿@@
爷爷
溜@@
甜@@
甜心
许可
留言
提起
极了
辩护
限@@
灭
门口
日益
阻@@
手臂
麽
失业
怪@@
35
该国
含
综合
天赋
废@@
爽
缺
托尼
自豪
不明
开口
电话@@
钻石
早上好
一员
犯罪现场
苏联
沮丧
在意
大幅
足球
k
女子
艘
敬
爬@@
群体
城堡
尸
忽视
布什
更新
拔
柜
很小
礼貌
父@@
睡眠
悬@@
败@@
航空
不出
创作
疼痛
足以
另@@
果汁
货物
招
带你去
胶@@
靠@@
一路
截@@
爆@@
无论是
行星
难以置信
智
一刻
太久
屋里
走向
发言人
陛下
腹@@
议
不满
嘉@@
示
真想
斗
拼@@
厚@@
工作人员
正义
鲁
整体
颗
币
C
厌倦
吸
丹尼尔
徒
从前
希
猎@@
坚@@
不可思议
效
金钱
联邦调查局
~
当年
恶
职@@
远远
恋
这部
读者
源@@
播
检验
盘@@
并未
砸
经济体
载@@
名叫
审@@
才@@
息@@
遭
置
er@@
宣称
尚
过得
生病
荷@@
依据
尚未
届
平板电视
吹风机
英格兰
床@@
福利
一整天
传说
官@@
激情
修改
吉姆
竞争对手
下周
闹@@
椅
毁灭
瑟@@
尼尔
年度
擦@@
神圣
样本
n
岸
z@@
吵
黛@@
愿@@
大众
提交
五分钟
始终
愿望
每位
种族
带给
懂得
周二
2012
般的
碎片
尔德
循环
赫
得出
整
好运
宾
伸@@
幼@@
打扮
绝不
扣@@
一眼
赚钱
六个
监@@
沟通
共
走出
酸奶
实话
极端
潮
大厅
显著
挑
喝醉
瓜
翻译
为啥
有罪
六个月
挑@@
出席
战士
眼前
结局
脏
公正
帐
难以@@
健@@
十二@@
告知
清晰
询问
重视
个人@@
亦
央行
烤
胖
收音机
交往
股份
上个月
曾@@
累@@
坏事
定位
扩张
远点
疯@@
价@@
回头
射击
讯
商人
屋顶
保障
第二次
轨道
敲@@
认出
驱@@
勤
板@@
泡沫
拿出
有种
污@@
主动
雇员
锁@@
纵@@
顺便
尚@@
小孩子
携带
牙齿
体现
岩
聊聊
艾伦
很长
完善
议@@
稍微
稿
学到
幕
挖
改进
墨@@
荡
含有
姐妹
融资
1.@@
得知
扫描
租
驻
周五
希尔
止
交通@@
以此
证券
遮@@
通道
周六
情形
闭@@
鹰
理念
哲学
毁掉
烤@@
英镑
深入
码头
血迹
袭
辐射
一百@@
一头
打架
助
走廊
戏@@
位@@
反抗
吸引力
丰盛
惹@@
扶@@
外套
Fi
都@@
0
老公
保险箱
聚集
半个
适当
钟
脆弱
象@@
al
即@@
谱
吊@@
an@@
批@@
辩论
词@@
体育
补偿
通讯
珍@@
掌控
兹@@
降
绝不会
不怎么
标记
绝望
金融@@
吉米
每当
摄@@
四年
风暴
菲尔德
那会
升级
整晚
旨在
27
‘
端@@
识别
墙上
壳
安慰
开展
镇@@
天然气
政
久@@
拜访
拥抱
摩根
苏格兰
乡
先进
心灵
成分
痕
及@@
另一@@
牢@@
物种
篇
舍
最为
史密斯
较@@
丰@@
配合
坦白
录@@
进程
阁下
古怪
地说
器@@
困境
带我去
出发地
胃@@
血管
炒
历@@
营销
双手
泽@@
烦@@
肠
真是太
乡@@
帽
担@@
1000
发动
on@@
健身
这有
支持者
祝
规范
商务
抵押
人质
看出
席
当心
抵达
卫生
分布
缘
农村
弥补
胳膊
一道
镇上
首歌
企图
刻
呼吁
政权
无疑
周日
拉斯
缩@@
一切都是
早点
测量
炸
直觉
设立
亲密
护
操@@
缺陷
稍
束
修复
场景
垂@@
摄像头
繁荣
吃惊
汇率
豪@@
青少年
乡村
作战
出门
股@@
茶@@
宪法
扬@@
桌上
爆
盐
想见
癌
偷走
斯顿
罩
用品
害@@
一瓶
宗
抑制
浪费时间
精
细菌
伯特
打断
关键@@
嘲笑
察
订
耳
代替
想像
打死
争
各个
将@@
理性
利比亚
诗@@
雷斯
两名
短信
贸易@@
各自
指示
掌
这笔
署
负责人
购@@
少数
移
拔@@
细
把@@
粉丝
冲动
取决于
面试
滑
奴隶
段时间
清洁
蛋白
财务
局面
无所谓
早些时候
人人
车祸
阳@@
坏消息
抽烟
磁@@
链
乐趣
堂@@
惠@@
所知
宫
x@@
泽
网络@@
金融危机
凯尔
江
挤@@
控制@@
陶@@
冒犯
今@@
衬衫
诉@@
震惊
没能
主张
大师
抛@@
有空
浓@@
称之为
0.@@
第四@@
of
一番
之处
三次
喜爱
绕
li@@
复制
是@@
吸收
娘
强奸
圣经
走路
见见
酱
饭@@
得了吧
创意
卡特
气体
美联储
D
昂贵
给出
会儿
品质
形势
滴
胡子
始@@
庞大
至今
这才
平等
启@@
假期
柱
进化
决策
薄@@
佐@@
刑@@
华尔街
向前
赌场
肥
其余
楼梯
豆
合并
现状
逃走
播@@
行事
以往
体制
肠@@
&
克莱@@
肺
铺
固@@
极其
歌曲
伴@@
无意
美妙
散步
移植
镜子
骑@@
下班
未能
瑞士
开除
念@@
洗手间
貌
产量
凌晨
顺
蓝
邮@@
东部
侦探
艇
迫使
之地
撕@@
穿越
出血
继@@
青
10@@
狼@@
今日
推进
柔@@
湿@@
禁
军人
马丁
凯文
吸毒
涂@@
阻碍
助手
判决
卫
律
政客
饮食
奎@@
材
锻炼
阵
保姆
峰
辞
高管
分裂
象征
轻易
司
席@@
凉
清单
坦
战场
奥运会
尔顿
姓
街头
剧院
卫生@@
买卖
会面
忽略
饭店
一口
亮@@
放进
诅咒
覆盖
楼下
伯格
像@@
湿
犬
好笑
影片
踢@@
魔
严肃
罐
市场@@
豆@@
人体
猜@@
老实
顾@@
可笑
无障碍
干扰
囚犯
好不好
胶
设有
协调
对比
志@@
吵架
净
洗澡
缓
场合
明智
大选
亡
温暖
略
催@@
周四
都行
雇佣
哟
这方面
桌
多种
玉米
货车
轻
浪
两者
军事@@
接电话
萨姆
他杀
警报
贝尔
逃避
田@@
家具
街@@
东京
访
低于
废
薄
谈到
咱@@
熟@@
Wi
上网
处在
恶化
知不知道
进攻
快要
文字
迈阿密
一处
燃烧
亚当
太平洋
饮@@
叙利亚
我用
出卖
广播
罪行
入侵
娃
戒@@
查尔斯
原始
眼神
说完
ra@@
控@@
目前为止
限
决心
爵士
特色
静
违@@
鹿
寻常
右边
悲剧
情人
an
促使
26
下车
叛@@
托马斯
服务器
纪录
赤@@
j@@
陆@@
党@@
猜测
窝
埋@@
尖叫
忍@@
恋爱
标签
购
....
见鬼
非常感谢
专注
外部
统计
局长
搜@@
老妈
掩护
一趟
俄@@
层@@
末@@
做梦
午@@
只好
周三
精力
边境
酶
历
需@@
2006
岛上
狄@@
荣誉
呆@@
笨
筹@@
城镇
理查德
蔬菜
超越
不怕
干杯
燃@@
w@@
好几个
碳
零
外星人
银
左边
拳
y
甩
冲击
纤维
九
劝
甲
鲜@@
一大
匹配
押
北方
型@@
查查
土耳其
成年人
树林
奶酪
电力
联络
皇家
社@@
排放
走运
运营
拥@@
任命
逼@@
大门
舰
唱片
衰退
戒
相机
每晚
烈@@
唉
大事
合伙人
太晚
已有
炮
空调
缝
生物@@
败
代理
供应商
2005
晚饭
了不起
兼@@
写作
困
股价
活力
软
20@@
换个
领先
体育@@
彩
疗法
汗
输入
吞@@
28
剧本
新娘
玫瑰
面积
占据
古代
肌@@
友谊
指标
跟我来
关门
心理@@
外交
本质
秋@@
经济学
摆
电子邮件
漂@@
忘@@
嫌疑人
平民
本该
佳@@
愈@@
肿
400
补
卖掉
导演
经典
说好
逻辑
寄
慢@@
而来
格雷
浴@@
胸
黄
十分钟
初
祖@@
42
为止
伪@@
帮帮我
俄国
新加坡
科尔
名称
嘴里
缓@@
一艘
具备
挥@@
K@@
全身
伴侣
设计师
地铁
毛病
港口
料@@
察@@
服用
糊@@
虎@@
受够了
府
摩
突破
胃
注定
主权
休
别想
天生
释@@
棒球
el@@
尺
矿
越南
犯人
不动
姐
有力
澡
宣@@
屈@@
挣扎
液@@
减轻
鞋@@
抵@@
桃@@
歌手
社会主义
骑士
黄色
隐私
减
利斯
指挥官
与其
猴子
通胀
包裹
策划
设法
航空公司
阿拉伯
青年
甚@@
包装
功夫
改造
宾@@
裂
飘@@
摄像机
薪水
瞧瞧
廉价
穷@@
过分
刮@@
干预
或者说
添加
1%
打来
玩意儿
呈
重要性
缓慢
r
丑闻
史蒂夫
工会
法规
裁@@
伍
信用
州长
茜
顾
八
英
兔子
回归
昏迷
宁@@
沃尔@@
娃娃
宴会
州际公路
案例
中午
育@@
哈里
引导
虎
勾@@
折
拐@@
拳@@
医
琼斯
上课
浪@@
成果
种子
共享
顿@@
流血
渡@@
荒谬
识@@
之上
功
稳
模拟
药品
踏@@
铺@@
介@@
认可
免
头部
替代
疫苗
这话
不太好
厄@@
形状
扭@@
凡@@
莎@@
势@@
尺寸
尼斯
火箭
南非
基金会
理智
防
咬@@
缺少
T
冻@@
性质
极大
资助
仙@@
劳动
熨斗
牌@@
鬼魂
总有一天
旋转
教徒
谴责
焦@@
脑子里
裔
讽刺
太大
手套
踩
凶器
操纵
鉴于
ma@@
强壮
画面
噩梦
弥@@
客厅
稳@@
发起
奖励
插
个性
放心
此类
字母
诊所
总有
村庄
福特
赞@@
平常
规律
月球
至于
一枪
捉@@
汉堡
米尔
我爸
彻@@
历史@@
恩斯
演奏
广告@@
犯罪@@
六
发作
继承
这句
预定
泰国
J@@
经纪人
吓坏
校长
琴
相应
被告
科学@@
脱离
审讯
灾
共和国
冬天
后者
苏
上司
以至于
就行
展现
琳娜
损
过敏
不利
慈善
下手
这片
围绕
左转
布鲁@@
有利
诊
氧
男生
近期
系列
性能
担保
收回
敲
炉
作证
宫@@
杰夫
研究所
芬@@
举动
杀掉
法官大人
夹@@
掩盖
模仿
别无选择
最低
夹
大多
瞎@@
穷
入口
决
烂@@
几
医师
疑@@
人权
途
性格
审
之际
实力
我俩
腺
虐待
%
别跟我
支撑
易
晕
太快
事要
形容
致力于
伊斯兰
格斯
置@@
势力
小家伙
平时
毕@@
非常@@
偷偷
机械
物体
壮@@
柏林
起床
f
前提
协@@
右转
物理
信念
春天
焦虑
户@@
气氛
这太
井@@
体重
政党
因而
丧失
原理
生产@@
膏
星期五
精确
无可@@
环保
没人会
电视台
汤@@
球场
逃脱
钟@@
17@@
制品
挖@@
前任
逆@@
酒精
29
救援
淘汰
害死
搅@@
流动
驶@@
军方
白天
传递
池
激励
算了吧
节日
酷@@
难受
整整
芯片
脾气
嫌疑犯
坛
填@@
盐@@
警察局
闻到
卡拉
模糊
吉尔
导
短期
译@@
37
夏
B
只想
考验
救护车
阿里
封信
瘤
李
说些
会谈
残忍
克服
活跃
研究者
凶@@
死刑
贫@@
16@@
名义
查克
碎@@
突出
危@@
嘴@@
支援
烦恼
秩序
夫妻
抵抗
柏@@
管道
贱人
创始人
猫@@
不信
切断
幽灵
荷兰
富裕
里克
飞行员
建筑@@
手枪
提取
跌@@
两家
辣
解决问题
ac@@
下载
带回
店里
钉
鲍勃
M
老朋友
侧@@
处境
赶到
也就是说
克莱尔
小丑
这辆
候
诸如
得不到
清除
自私
受过
斯蒂@@
罪名
长得
控
召开
和谐
垫
贪@@
配置
着手
碗
聊@@
刷
欲望
毫无疑问
补贴
面具
午夜
车站
音乐@@
出事
误会
诸@@
V@@
名人
星星
这块
开会
淡
纹
竞@@
金斯
典@@
别提
纹身
完毕
旧金山
3%
志
重组
够@@
尖
高于
引用
击中
恐慌
中学
兴
冠@@
地带
波兰
秀@@
舍@@
友@@
命名
游行
妞
旅客
有意
检
土壤
懂吗
另一方面
奶
疑
潜@@
跨@@
那好
基督教
德里克
盗@@
证词
委@@
护照
洞@@
死定了
无数
随意
10%
会员
搞笑
家庭@@
淋浴
香肠
凭@@
率@@
谎
保护@@
大胆
枪击
稍@@
一组
早已
护理
替@@
市民
求求
葛@@
重新@@
波特
先前
皇@@
香槟
盈利
敏@@
行政@@
ha@@
弃@@
海盗
创伤
当天
英国人
少校
现代化
群岛
植@@
绕@@
凯瑟琳
司法
赤字
再也不会
贫穷
店@@
伴随
日常
裤
诱@@
据我所知
骨折
不吃
善良
它@@
紧缩
说不定
暗
一所
侵犯
立法
一团糟
争吵
信息@@
口气
堆@@
引
毫无@@
遗产
瑞克
专利
尽情
平板
漏
会见
facebook
各地
花钱
辛苦
一无所知
分歧
太阳能
皮特
好点
反而
放过
礼服
隔离
买家
凯
多人
宿@@
就是说
人能
困惑
大使
挤
风味
关上
很酷
拍照
有点儿
危害
档
秘书
坑
google
威士忌
德斯
数据@@
自愿
色彩
预防
凶
商场
运动@@
爱人
续@@
修好
售
莫斯科
逃离
on
带领
应用程序
塑料
弄清楚
伞
分散
er
构建
沙发床
觉@@
使命
割
肝@@
设定
棒极了
股权
臂
地毯
撤@@
阳
一度
封锁
扯@@
com
欢乐
特里
后退
责
幻觉
U@@
券
名为
开着
式@@
沙滩
2%
从中
巧合
紫@@
读书
回复
握
消灭
耗@@
范
菜单
过后
中情局
妇
妨碍
必然
有点像
防御
言论
一代
意愿
发动机
曼哈顿
吵@@
缝@@
包围
德拉
排名
脂肪
际
性爱
通信
泄露
存款
泰
祝贺
美洲
赔偿
匠
覆@@
奖金
新型
一小
合约
抓到
珠@@
超出
古巴
迟@@
斯基
劳动力
解除
几点
尝尝
伍@@
沃尔特
肮脏
识
批
把握
无线电
答@@
铜@@
坡
挑选
昂
电话号码
糖@@
岩石
查出
碳@@
布莱尔
无人
钢琴
生态
至关重要
村@@
穷人
衫
─
今后
辩@@
无需
赋予
迷你
庭
日记
通话
妹
安迪
资本主义
真理
阴谋
仿佛
摸@@
敌@@
此前
煮
ti@@
初步
删除
热爱
得来
震@@
克林顿
泥
码@@
失控
依旧
冠
旅程
闹钟
恰@@
蛋@@
鸟@@
一阵
抗
2.@@
饰
一首
乖乖
小男孩
抹
不论
确切
误
坐牢
崇拜
搞清楚
缩小
肩膀
布莱恩
打扫
这时
边界
猪@@
一副
炮@@
轿车
大厦
百分之@@
第一天
手法
旁@@
目击者
遗传
la@@
决赛
推迟
绳子
隔
缓解
阿曼
一款
一点儿
取出
赢@@
漏@@
不成
咋
囊
埃里克
总裁
看待
讲述
怒@@
销量
勤@@
显
液晶电视
划
地盘
康
投降
终
比如说
可行
严厉
贾
几小时
沿@@
走过
销@@
丢下
更是
会计
格林
潘@@
醉@@
潜力
角落
克莱
兼
占领
搞错
雾
韩@@
一方
机密
身后
事务所
u
优先
兽
周期
坚定
尔曼
集体
人选
协定
屋@@
真不错
裂@@
动物园
吨
祝福
解决方案
优质
发疯
卸@@
赞
这么久
一家人
几十年
刘@@
便是
种植
营地
蠢@@
mo@@
密切
le@@
侮辱
呼
惨
预言
劫@@
罚
’
st@@
家中
振@@
有名
册
气候变化
之旅
心跳
真心
蛋白质
不太@@
十个
巨头
棒@@
美国政府
舌头
降落
今
基础设施
推测
数百@@
认知
奖@@
把戏
救命
终止
发现自己
纯粹
来临
杰西
构@@
童
膝盖
葬
诱惑
一共
扩展
开火
接收
列车
固
赛季
ch@@
商学院
最多
短暂
缠@@
灵感
锅
寒@@
恒星
艺术@@
晓得
祖父
肖恩
放手
法律@@
中尉
他家
伏@@
光明
常规
弟
发送
己
手表
淋@@
用力
获胜
杂种
风景
乔伊
价钱
电影@@
研发
勇@@
半小时
块钱
昆@@
in
圣诞老人
交易@@
伊丽莎白
鲨鱼
落后
事先
仁
说起
银行业
再来
主教
幸@@
照看
谷类
外界
银行家
48
珠宝
喉咙
自我@@
施
荣@@
路易斯
喜
每日
电视@@
当做
晚点
种类
救助
胸部
余
辅助
播放
转换
仿@@
勒斯
名声
状@@
频率
一向
尘@@
总结
拉斯维加斯
煤@@
称呼
脏@@
收获
月亮
筒
脂
银行@@
室友
汽油
精神病
腰
赌博
例@@
来讲
迟
可疑
身材
下滑
孤单
局势
很久
丑
汽车@@
爱上
珍妮
侵@@
答
暂停
罗伊
萨拉
150
巴士
童@@
会议室
呼叫
意图
政治家
解开
趟
测定
智能
co@@
扩@@
挽救
精英
营养
出名
斯科特
治愈
菜@@
8%
管制
籍
赶上
问过
化学@@
硬币
接手
露出
我花
郎
th@@
心理学
王国
阳台
浆
所作所为
挨@@
故障
洪@@
前来
意志
欺@@
世界各地
买下
令@@
录音
陷
军官
按钮
丧@@
合成
极度
腰@@
袋子
亚马逊
延长
泛@@
运转
窗@@
目击
肺@@
条约
例外
裙
撑@@
麻
di@@
以防
布兰@@
释
雇主
候@@
摔@@
气味
孔@@
景@@
仆人
幽默
灰
广
敢肯定
囊@@
昨天晚上
阴影
塞尔
相当于
稍后
不管怎么
P
制造业
普拉斯
住宅
厌恶
求婚
打过
肩@@
天天
太阳@@
康复
性命
清白
琪
超市
分类
战胜
衡量
加工
大不了
董事
一幅
对冲
开启
有机
牛排
辞@@
钓鱼
鼓
2004
企业家
会来
不对劲
效@@
无效
灌@@
海上
预约
季@@
尸@@
析
吃晚饭
吻合
拘留
捐@@
明早
渔@@
精灵
违法
厨师
废物
欧式
贫困
伪造
糖果
好象
整合
碰@@
一层
病例
陷阱
验证
全套
等于
一大@@
三分之一
夺走
民主@@
变革
景点
呈现
基督
染@@
充足
妥协
提示
凉@@
击败
太过
猛
面包@@
掉@@
小偷
枚
赞成
高层
卢
扔掉
氧化@@
流感
难题
祖母
陪@@
农
干涉
寸
壶
大臣
储备
再有
剥@@
扁
I
损坏
芬
出口@@
sa@@
季节
成千上万
灭@@
美金
自助
征
律@@
款@@
添@@
线路
闯入
教室
交易所
优雅
两倍
加大
残酷
津@@
休闲
轮胎
冬@@
本国
竞争力
练@@
被困
请问
鉴定
履行
激素
眼里
加快
弯@@
抱@@
视觉
偶然
墙@@
奋@@
壁
建筑物
旗@@
过夜
庆@@
偿@@
卑@@
唯@@
忙@@
杰克逊
痒
马尔@@
为例
装修
做生意
台上
头痛
指令
不通
齿
lo@@
一时
退后
隧道
完蛋
泳池
符
千年
火灾
似
役
挪@@
说道
at@@
门票
嘴唇
技@@
证书
避开
me@@
天然
序
有何
从此
失陪
温和
起飞
举措
凯西
瓜@@
苏珊
财政@@
伍德
可见
滑雪
糖尿病
体会
定期
拘@@
逐@@
晚会
带子
法语
珠
积
艺术品
巢
星系
怪异
签字
绅士
同伴
诞生
吉他
嘴巴
文斯
旋
詹@@
傻子
瑞典
矮@@
es@@
介入
品种
布莱@@
感冒
篮球
蕾
译
宽恕
瞎
绿
族@@
沟
这来
遥远
韦
仰@@
修理
响@@
灾@@
多大
快去
我想
新来
玩得
美食
垃圾@@
基本@@
半夜
商量
投诉
俗@@
廷
7%
小狗
返@@
志愿者
认同
电台
复仇
暖@@
漫长
西装
起到
新人
注入
阐述
31
怎
步行
爱好
中毒
星期一
现代@@
20%
浅@@
il@@
层面
杂
性别
指甲
融合
摩托车
祸
驾@@
办公桌
这套
住房
夏季
大学生
哭@@
帐篷
根本@@
西亚
队@@
容忍
6%
卧底
夸张
平均@@
一封
屁
打交道
欠@@
狱@@
翅膀
采购
牛仔
开个
联
堪@@
帐户
样@@
点钟
级别
一批
屎
粒子
那场
2003
患有
披萨
皆
翼
主持
统@@
透明
瘦
参考
枯@@
炼@@
里德
ab@@
搜寻
最快
汤米
治理
看吧
京@@
招待
无比
缘@@
巡逻
业绩
洒
赞同
75
七
不下
制裁
技
换成
掌@@
提名
火山
14@@
团结
停留
星期六
键
八个
忘掉
高尔夫
专用
洋
领土
条例
监禁
眼中
那辆
做成
味@@
斑@@
框
洲
办理
岛屿
戴尔
桥@@
浴
祷告
唐
外表
跑步
与众不同
人民@@
卵@@
一号
付费
预订
垮
文化@@
站住
诉
加剧
坚信
报酬
格尔
烈
摘@@
教育@@
闪
丘@@
奔@@
目的地
福德
国债
情愿
吃掉
子女
宾馆
恋@@
战术
迪克
丢掉
全体
霜
15@@
收藏
参议院
宗@@
港@@
完全@@
懒@@
报导
拍卖
做饭
峰会
景观
涨
市区
肖
一同
撑
等不及
蜂@@
反复
尽管如此
千万别
透过
隔壁
点子
发育
培@@
奥斯@@
无所@@
形态
此时
盘子
系统@@
哀@@
汀
内裤
发型
每月
腐@@
蜜蜂
中东
党派
检查一下
消耗
追查
不能@@
婆
泉
发展@@
很久以前
比起
没收
夸@@
惠
黎@@
可悲
多长时间
姿势
校园
罢工
育
骚扰
卡扎菲
杯子
犹@@
看电视
螺@@
不用说
东方
枕头
住宿
犹太
认
设@@
铜
亚历克斯
刷@@
订婚
宴
河流
爸@@
版@@
糕点
DNA
帮个
应得
墓
君@@
展览
怀特
J
也好
修女
种种
罪恶
躲@@
一轮
看好
触
es
宜@@
糊涂
好转
强制
主角
安德鲁
推广
歇@@
节奏
不远
扩散
暖
目录
选票
姓名
活下去
益
一晚
感恩节
温柔
终结
值@@
少年
汇报
窃@@
老虎
努@@
打包
杀人犯
这间
梳@@
登上
脉
辛
仇@@
学术
沉默
集会
涂
迫@@
好些
抛
挖掘
山上
戴维
约翰逊
付款
引爆
殿
委托人
习@@
捡
家乡
掩饰
焦点
祖先
锡@@
待遇
汗@@
灯光
观察@@
乖
克尔
眠
亲戚
属@@
生活@@
保险公司
奏
相爱
今天下午
忧@@
遇
别墅
屋子里
见证
轰@@
德国人
戏剧
拨
项链
4%
列表
室外
当选
甜
私下
净@@
狂热
薪
申@@
警卫
当代
圈@@
心理医生
恐怖@@
闻@@
ca@@
一枚
享有
司@@
吓@@
帕克
房产
强硬
慷慨
陈述
巫师
座@@
一大堆
审问
竞赛
腔
车库
不爽
共和党人
出手
工艺
房里
星期天
盆
策
腾
倒霉
洪水
滴@@
英国@@
认定
递@@
不良
哭泣
染
罕见
大海
奈特
富人
欣@@
甜点
设想
准则
坏蛋
弯
提及
层次
帅哥
昨日
看作
纯
荣耀
55
中央@@
找回
渐渐
由此
排队
晃@@
这样的话
扇
无限
赐
通往
吓人
喝杯
很多年
扫
13@@
裸@@
无力
某种程度
缩
送来
将近
教学@@
第三个
小姑娘
悲@@
拆
狮子
身处
乘坐
最有
童年
侠
杨@@
破裂
通用
佛罗里达
国民
强劲
晶@@
莱特
伟@@
下雨
交叉
执照
流程
空军
员@@
指着
日本@@
晕@@
连环
想干什么
犹豫
瞒
闷
主流
之夜
吼
希特勒
熊@@
职业@@
骗@@
麦克@@
100%
布里
无情
缺点
蒸@@
蠢货
印度@@
布莱克
帕特里克
徒@@
爷
职员
重量
乐园
内疚
哈哈
承
菲尔
书籍
共同@@
期限
克里@@
肌
侍@@
加以
浸@@
血压
驱动
不定
可恶
摇滚
半年
汽@@
表格
布鲁克
浅
畅@@
林肯
蜡烛
迎@@
总体
披@@
源于
疑问
者@@
部位
陷害
仔
增
平安
接管
永久
裁决
一流
妈咪
祭@@
融入
the
几百@@
赔@@
第二天
判
粒
粮食
君
差别
斯科@@
火星
走上
发展中国家
成员国
秒钟
个体
壮
经济衰退
冲浪
尼亚@@
态@@
拉里
神话
传送
窗口
笨@@
七个
瓶子
眼泪
it@@
v
坟墓
学位
幕后
盆@@
新生
网页
传达
前妻
si@@
玩家
生产商
皇
is
恐吓
辆车
串
保住
哪来
得分
智能手机
步骤
糊
枝
没人@@
回顾
扭曲
溜
阿拉@@
波动
胎
销售@@
缠
轨
全球化
皇后
gdp
会为
又@@
放缓
斜@@
炒@@
am@@
不变
在外
年底
菌@@
丢失
兜@@
尔特
布置
生涯
等级
群众
下令
孙子
柄
框架
夏威夷
偶像
收养
极为
著@@
】
债@@
削弱
船员
专心
箭
篮
航空@@
征服
戴夫
摄影
订单
另一边
这人
36
具@@
昆虫
豪斯
人性
单一
庄
采取行动
女巫
未经
遵循
四周
州@@
西雅图
5000
发达国家
目光
人去
光线
工业@@
摄影师
9%
料到
de
前途
反对派
桌@@
绳
边上
ta@@
呗
被判
永恒
纷纷
孕
约束
阶层
顶级
蜜@@
收取
无视
爸妈
外科
传奇
凑@@
卧@@
摔
和解
场地
猜猜
评级
伪装
匿名
堵
打造
瓶@@
眉@@
财
馅饼
桑
600
尊@@
诗人
指南
符号
英文
前台
就此
引入
绞@@
乎
域
彭@@
介
晃
章@@
部署
场面
师父
损@@
济@@
激发
决议
噪音
橄榄球
【
反应堆
概@@
规
供给
换句话说
视线
辈
促
卷入
珍贵
尔森
数目
肚@@
才行
马车
is@@
文档
涨@@
袍
很糟
讨@@
那件事
酗酒
岩@@
德里
撤离
来过
却@@
撤销
本能
衰@@
说来
佐
听过
少女
霸@@
走走
ic@@
俱@@
免疫
尝
有所@@
干脆
领带
失业率
掩@@
揭示
毕业生
船只
普通人
赶走
采
仇恨
旅@@
砍@@
毫不@@
疑犯
薇
不但
双胞胎
一辆车
乙@@
危
可卡因
幻
最小
本月
牛肉
缅甸
兄
小屋
情报@@
模
帮派
知名
穴
911
su@@
不多
几率
幸存者
让@@
频@@
鼠@@
man
垫@@
奈
辨@@
son
核武器
金发
偏见
警员
钩
找点
枪杀
克拉@@
授@@
耍@@
内衣
化合物
忍
接吻
斑
深度
频繁
伏
怀念
生育
出局
哥们儿
勃
周年
爆炸@@
胡说
华夫饼
斯蒂芬
纳德
一股
上诉
维亚
一类
丛林
亡@@
正当
残
羞辱
塔利班
证券@@
执政
振
鸡尾酒
亲人
吉布斯
后门
机票
棘手
3.@@
人为
高潮
个子
剖@@
局里
de@@
国务院
奔
效力
毒素
消防@@
米奇
肝
上演
做手术
敏
涉@@
约定
薪酬
吃点
回避
权威
婆@@
峡谷
布鲁斯
维多利亚
捅
推翻
潮@@
瘾
北约
岗位
液体
滋@@
郊区
拟@@
苹果公司
塔克
好孩子
楚
爱德华
洁
单纯
延伸
调节
一夜
感动
我点
检查@@
泄漏
飓风
位子
尽头
打中
披露
有毒
逐步
冰淇淋
到时候
弱点
桩
葡萄@@
弗里
砖
不可避免
悔@@
我先
误解
庞@@
违约
院子
仪@@
传言
其次
夹克
溶@@
盟友
ho@@
一级
小学
惊奇
迷路
音乐会
总能
枪手
胺
集合
寂寞
纳粹
贿赂
身份证
这类
做不了
招聘
考虑一下
凯蒂
年来
昏
涌@@
瞄准
剑@@
发光
发达
海边
腾@@
冻
抚养
犯下
离子
亚瑟
杖
中部
亲近
最早
直播
不太可能
两国
准时
宅
程@@
lu@@
哈佛
二氧化碳
剂量
有利于
毛巾
画家
路边
近来
z
三十@@
低调
内在
无能为力
写信
办事
攀@@
妄@@
手术室
何
感谢上帝
发给
成年
枪支
迎接
闭
克鲁@@
营养@@
评
马特
倍@@
外国人
孟@@
宰
敦
高达
sh@@
一具
口味
大西洋
布鲁克林
拨@@
此举
渠道
上下
恶劣
悟
着迷
本土
故
人工
北美
开发@@
限于
驻@@
叛徒
各种各样
室@@
友善
贵族
储存
关节
环境@@
轴
险@@
下场
力气
影子
环节
活儿
扇门
探测
死因
链@@
仍旧
喊@@
妙@@
姬
我错
更改
灭绝
六年
总算
把门
探长
大哥
容纳
违背
卑鄙
售@@
指向
没人能
趋@@
额@@
回收
紧密
非得
储蓄
宝贵
暂@@
面部
恰当
痴@@
西斯
扑@@
抽屉
最棒
先知
减肥
官司
床单
盟
躁
海湾
生成
荒唐
196@@
听证会
咒
塑@@
巴斯
趴下
理学
萝@@
这辈子
驾
口音
抹@@
随机
Facebook
时会
用途
蓄@@
全家
守卫
彻
洁@@
磨
墓@@
密度
恭@@
睡不着
谣言
大伙
妈@@
安保
小麦
控告
星期二
玉@@
苏丹
追捕
ec@@
原子
存活
w
两分钟
两只
仁慈
偿
女郎
氧气
热华夫
球赛
生物学
糟透了
美军
老是
航行
马里@@
38
一千@@
棍
转化
逗
价值观
押@@
明晚
预感
先是
向上
妇@@
过多
单词
大使馆
失误
零售
低估
总得
测验
障
皇帝
幕@@
脊@@
以免
可用
服务员
爱好者
盛
统计@@
论坛
阿姨
难堪
巴勒斯坦
遇@@
秋天
电视机
黑帮
保持@@
可不可以
维斯
蜘蛛
许可证
闷@@
劝@@
双人床
好友
小队
盟@@
丛
指引
st
一身
仗
杰出
特纳
虚拟
转身
附
仅此而已
仪器
新年
正面
贝克
善于
映
束@@
训练@@
貌似
鲸
ni@@
谜
不已
既@@
巾
浑@@
佳
剥夺
困@@
800
凌@@
害羞
目睹
从小
半岛
灰色
篮@@
自主
国有
娱乐@@
情节
醒醒
房价
架@@
差距
永不
舌
超能力
布雷
挡@@
ad@@
决不
无知
洞穴
职务
付出代价
手腕
珀
董事长
账@@
哥伦比亚
扎克
捞
村子
嘿@@
宿
授予
晚宴
2001
似@@
处罚
树木
漆
睁@@
冬季
签证
丹麦
剪
嚼
赖
山脉
旗
研@@
认得
锡
尊严
祝你好运
网球
万圣节
狂欢
肩
O
中断
庄@@
脱掉
降临
胆
行走
饱
试过
野兽
拼命
放大
渴
写道
宝石
几句
提过
牧@@
管理局
膨胀
呐
围
深深
人心
十足
攻
热带
大气
傲慢
孙@@
融@@
购物中心
门外
高效
清洗
虫子
象征性
财务@@
领导者
较大
予
强度
职业生涯
萧条
西蒙
金额
高盛
不当
偶@@
卡片
布拉@@
来得
织@@
一方面
变暖
插手
暴
奋斗
微型
水里
玻璃@@
簿
沙拉
邦@@
撞击
肝脏
胡
尘
挣
机遇
棚
着想
秃@@
竟
捕
本事
熬@@
酮
休假
存储
尾巴
肾@@
莉莉
行程
勒索
图案
捐赠
滚开
生理
迁
.....
it
丙@@
勃@@
当晚
氨@@
嗑
手铐
此刻
医疗@@
即可
含义
大国
奶油
妙
抑郁
祭
财政部
里奇
验@@
刊
屠杀
排练
疹
罗杰
袜子
h
主导
受损
当地人
恨@@
树上
特权
种族@@
传真
捷@@
猴
用不着
学科
杰瑞
见识
下个
侦@@
司法@@
埃米
寒冷
巨额
渡
笑容
雕像
告别
望远镜
激进
贝拉
融化
诡异
香烟
坦克
斯塔
直至
碑
费城
赏@@
修建
有益
浏览
激光
相互@@
菲律宾
卵
愤@@
瘦@@
稻@@
路程
不感兴趣
切除
太小
如果说
调查@@
贪婪
注重
链接
狗狗
捉
栏
瀑布
耶路撒冷
四分之一
回家吧
春
拐
格兰@@
蒙德
账单
龄@@
发生@@
旅游@@
无礼
核电站
犯错
尝@@
毫不
烫
管理员
遭@@
ds
屏
景象
上帝保佑
安东尼
戴上
流动性
祝@@
运送
这起
选项
予以
偿还
差劲
显而易见
中产阶级
发布会
外出
贷
没来
米勒
大宗
跟上
折扣
那一刻
共产党
右侧
开来
妖@@
灵活
遇上
传输
作案
忏悔
有史以来
le
人手
帮不了
积极@@
旋@@
杜
窒息
考察
镜@@
动态
文本
一月
丽莎
全力
当今
呼吸@@
开关
恐龙
点心
评委
打印
抬@@
藤
通货膨胀
烹饪
监测
us
生命@@
保镖
约瑟夫
老头
而出
鞭@@
砍
伸出
哎
封闭
曝光
动荡
发放
利亚@@
委
教皇
炸药
点燃
解放
七年
帮帮
笔记本
第五@@
一阵子
旅途
治好
迷失
界@@
饥饿
宽松
株
槽
眼光
良
典礼
毙
水管
一队
发言
普京
电脑@@
频
登陆
打仗
严
服从
甚
莉亚
辩
逝
麦克斯
互动
凯莉
喝咖啡
抬起
景色
气球
沾@@
想得到
我读
了结
参与者
家园
殿下
贯@@
仁@@
野蛮
鸽子
雇@@
别看
卫生间
纳斯
ea@@
会上
干过
优惠
印尼
年间
朵
电信
乔布斯
匹
堕落
巨人
推销
沉重
浓度
优点
奇妙
布拉德
蛮
龄
ch
崛起
魔术
反击
提案
阿根廷
劳动@@
咖啡@@
后代
大城市
寿命
就象
忽@@
这能
原以为
芽
ing
劫
奖学金
更换
水中
被害人
醒过来
梯
非凡
鸡肉
不是故意
丹尼斯
亨@@
兆
对策
死人
猎人
等候
零售商
境内
必需
海水
真该
瞬间
续
专业@@
加利福尼亚
山谷
影像
趁
客观
忠@@
拼
搜
真棒
钻
雇用
hi@@
填
歧视
瑞斯
荣
过时
近年来
雷达
宠@@
数十@@
倒下
牢房
瘫痪
起码
不理
人口@@
一手
布尔
挣@@
着陆
上台
同行
帝
抵制
航天@@
召集
哨
寡@@
延迟
健身房
繁殖
耕@@
荡@@
po@@
证件
锁定
to@@
中文
会想
安置
房租
搬走
献给
纪@@
讨
赞美
and
僵尸
美式
越过
跟随
保释
勉强
受益
投票@@
朱
爹
酿@@
共识
并不@@
手续
标准@@
解脱
任期
叙@@
商务@@
芙
住处
依照
信徒
拒@@
继
no@@
一行
典
肆@@
顺序
颈@@
en
直说
轻微
阶级
铃@@
列出
希拉里
执法
抚@@
球迷
让开
创业
大象
太迟
愚@@
描绘
棺材
泪@@
认罪
铃
se
se@@
深处
莱斯
过头
亲吻
拜拜
朝着
合作伙伴
宏@@
暗杀
信件
不说
仓@@
冈
对外
拉德
滞@@
运营商
不顾
纠纷
吩咐
除掉
题@@
齿@@
un@@
召唤
头骨
实体
氯@@
转过
前方
华丽
忽然
池@@
知情
印第安人
级@@
65
sp@@
他俩
妻@@
强化
狗屎
裸体
魂
倾听
品尝
大人物
天上
打球
舰队
警惕
货币政策
头疼
录像带
惊
木头
33
传感器
升高
欺负
滥用
盖茨
祖
织
谷@@
邻@@
佩
布斯
未知
欺诈
玩玩
30%
小事
留着
陌生
实习
念头
肢
掷
阻
颇
代表@@
小费
水面
渗@@
留意
盾
第五
陷@@
可真
戴维斯
流行@@
男女
so@@
乏
定价
崩@@
肯尼迪
饮
听从
拖车
样品
克森
接待
杯@@
氛围
管用
罗姆尼
法则
标牌
高尔夫球
iphone
不足以
丑@@
基督徒
恶作剧
每件事
猎物
高校
使用@@
共事
双重
喜剧
贝蒂
不堪
优化
导师
院长
不开
最具
竹@@
舟
过世
奥利弗
悠
笔记
计算机@@
写下
凯利
子宫
有件事
箭@@
上场
人有
复活
搬进
欧文
维修
衷
喂@@
手册
美的
贱
途中
一双
忍不住
眼下
升值
师傅
邓@@
难忘
大学@@
忧虑
搬家
肥胖
传给
凸@@
复
摘
术语
管理者
艾滋病
页面
50%
承包商
植入
解释一下
2002
创
双眼
哪位
心思
服役
第四
车道
途@@
黑鬼
丢@@
共有
小妞
悲惨
濒@@
办公
晒@@
要点
走私
2013
CEO
叫声
多余
油价
趁@@
再度
厌烦
猎
病房
利息
bo@@
喻
情景
床垫
有害
治安
腿@@
饰@@
恕
战役
拿下
电视节目
魂@@
分为
合格
太远
序@@
星期四
消
私人@@
趣@@
闻名
效劳
硫@@
难看
In@@
ru@@
反恐
小鸟
廊
激活
发性
女孩儿
拉夫
携@@
那段
副作用
席位
润
内阁
帝@@
都市
口径
塔尔
彼@@
饱@@
中士
原料
益@@
高清
余生
区分
外婆
蜜月
克拉
慌@@
整件事
舔
同步
殖
申请@@
纳税人
法国人
甜蜜
趣
195@@
产品@@
天下
驱逐
公爵
巧@@
轮椅
喘
她家
庆
语音
.@@
惹麻烦
栖@@
溺@@
真诚
色情
那辆车
上楼
变异
热水
罢@@
夜间
珍
相遇
让步
40%
别处
卡洛斯
厂@@
女神
用作
纷@@
死后
流氓
漏洞
视角
上门
国防部
墨西哥@@
狠
47
垄断
吴@@
奉
百姓
西藏
顽@@
人格
创立
寄给
慢点
传来
俄
医学院
学期
待会儿
火车站
沾
管理层
这段
失败者
学费
点击
腐
这名
陆地
契@@
旗下
演说
终身
耗
虐
路径
颈
声誉
誓言
遗嘱
摇
敞开
滥@@
窃
跌
这行
雅虎
>
三种
变动
掉下来
法医
热量
台词
最坏
橡@@
粘
较为
面向
香水
刮
狭@@
R
事后
嗜@@
宁静
庭@@
急性
拖延
棕色
过量
钢
锋
伊斯
决不会
听话
喽
涉嫌
真有
这本
高手
书面
工作室
疏@@
米歇尔
乐子
占有
疗效
4.@@
乳
付给
养老金
夜里
况
中期
分数
宜
弄错
一门
怪人
报仇
左侧
已婚
梦里
滋味
火焰
能源@@
虾
静脉
骑马
不知@@
戴着
有钱人
熔@@
良心
斯坦@@
激怒
芳@@
读过
听众
笼子
厂商
寒
现任
绝大多数
闪电
亲手
变为
尤
神经病
组建
开采
诸多
制止
那事
一日
上方
嫌疑
格雷@@
内地
化石
渐@@
燕@@
竟@@
遥@@
一到
作物
加里
就够
操作系统
智力
注视
迫
食用
炫耀
鸣@@
3000
很久没
扔@@
短缺
ed
圆形
坚决
帐@@
祖国
篇@@
崇@@
己@@
效益
认证
迷惑
为主
几位
滚出去
潜艇
硕@@
远程
逢
醇
北京@@
番@@
蔓延
路过
分成
奸
实习生
怎么着
比利时
跃@@
入狱
地步
修正
八年
冈@@
射杀
布里@@
才刚
欢呼
豪
or
头盔
妻
只用
小小
幽@@
栓
雀
一圈
屏@@
微小
抓紧
右手
属性
背上
丢脸
举止
工作者
村民
杯酒
租赁
老年人
那人
专辑
分析@@
懦夫
远处
99
习
众人
生于
葡萄
中风
争夺
亚历山大
壁@@
普尔
硬件
蒂姆
两条
出路
抓狂
星际
生效
价格@@
作弊
德州
憎恨
教导
他用
协商
mar@@
去死吧
策@@
世界杯
刑事
禁令
赌注
赶来
ir@@
歇
诗歌
进而
标题
公司@@
持久
暴力@@
胃口
腔@@
那有
金融机构
侵入
给你个
腐烂
迄今为止
反射
昂@@
毒药
烧烤
健
吞
条子
滑稽
盗
脑部
艾米
卢卡斯
抬
肾
起初
那份
封面
总共
户外
窥@@
联赛
骗人
坎
嫁
巴克
援@@
绘画
联邦政府
舞者
软弱
领养
亭
仍@@
值得@@
品味
英俊
逸
夜总会
手脚
撤退
积累
红酒
驯@@
ver@@
之道
假日
慢性
捐
敲门
紧急@@
训@@
零件
矮
碰巧
邪@@
饶
享@@
出院
桃
这帮
免得
大自然
茨@@
西班牙语
高科技
冷静下来
出价
叹@@
圈子
烘@@
狠狠
真不知道
时髦
杀戮
黑客
劳拉
叫醒
紧紧
卓@@
否定
支配
万人
大战
墓地
恐怖主义
正直
武
米兰
ts
哈特
奴@@
已知
最高法院
有线
生态@@
着火
不及
吃药
呵
大夫
躲避
周边
垒
毒贩
泳@@
火鸡
珀@@
粗鲁
维奇
入睡
唤醒
无罪
普通@@
世人
姿态
斯科
甜甜
虚弱
议案
靴子
埋葬
恒@@
狡猾
病情
节省
遗传@@
多样性
一桩
布拉
星期三
co
上将
十字架
汽车旅馆
破碎
赛车
蹲
to
出租
操心
藉
加密
同伙
大大
牵扯
狗屁
论述
借贷
出差
葡萄牙
谁@@
闯进
乔治@@
审计
指挥@@
捣@@
克里
奥尔@@
癖
虽
钓@@
钞票
250
中枪
产物
枝@@
莲@@
丝毫
土豆
屑
底特律
精子
驾车
高端
伊斯兰教
委托
径@@
离去
糟@@
调情
克利@@
兔
发觉
地理
推行
旺
厨@@
后院
得多
怪兽
早饭
海里
as@@
买点
奥斯卡
更具
舰长
别急
北极
再谈
氧@@
蒂斯
裸
试试看
上天
临
姆斯
扶
第一位
要来
95
何处
宫殿
番
名誉
因子
安全带
抗议者
活性
身体@@
操控
没说
热狗
责怪
霍
ur@@
升起
反弹
毫无意义
真话
碟
言语
选出
嫁@@
疗@@
寿@@
上级
假定
团伙
租金
寻
待命
权限
草坪
里亚
首要
加西亚
否决
数年
能行
虔诚
视野
一丝
不关
亏损
催眠
当着
忠实
怕@@
明亮
暴风雨
柏
没听说过
蝴蝶
通电话
契
全美
大叫
权益
裁判
处置
庆幸
歌唱
牙医
舰@@
信赖
揭露
空白
一模一样
争执
吊
履@@
所能
栏@@
窗外
胖@@
霍华德
马拉
好几年
扔进
男士
7.@@
上路
幅度
杀人@@
漆@@
致死
责@@
钢铁
艺@@
院@@
住所
共同点
内特
别闹
制成
可可
吵醒
悬崖
戳
映@@
臣
记录@@
身为
gu@@
twitter
众议院
抗生素
溢@@
遗忘
共产主义
氢@@
第六@@
丘
哄
引诱
思路
情报局
棉@@
滩
衰竭
贝利
部件
地产
挪威
数百万
束缚
海关
破解
露西
伯克
印刷
情侣
持续@@
草地
路口
迈
伤亡
值钱
收益率
每隔
海域
用到
谢天谢地
驾照
主体
劣@@
小朋友
英语@@
代谢
伐@@
并不知道
情人节
泰德
激
研究@@
魔力
两点
保守党
拥挤
酒鬼
34
图表
打猎
送回
难度
宿舍
有线电视
纠正
肖@@
腹
鲍尔
图书
奢华
小岛
悠@@
组织@@
追逐
冬
嘲@@
时常
著作
咒语
塌
收缩
敢@@
毫@@
充斥
手机@@
松饼
辅@@
喷
丰
件@@
场上
拳击
海底
筋
脚下
最高@@
电源
示威
背着
E
下巴
严格@@
使人
加油站
宇航员
崔@@
延续
某处
艳
防卫
骗局
匹@@
往常
无人@@
晚些时候
步伐
秘@@
难民
哪种
工程@@
晒
比率
民族@@
膛
装满
遍@@
不良@@
传染
劣
可乐
希德
床房
签订
胎@@
责备
巴里
无关紧要
特尔
那样的话
雷特
39
一下子
住在一起
工党
忌
谢谢你们
一回
举起
嫌
怨@@
艾比
再生
淹死
独立@@
组成部分
虫@@
卢克
日志
石油@@
野生
雾@@
办公@@
反馈
腹部
虑
马路
保佑
包里
想不到
消化
演习
44
处女
废除
当下
快到
才华
游说
漫画
瘾君子
争端
奥运
插入
理事会
疏散
着急
只管
契约
川
篇文章
获得@@
con@@
ol@@
兰德
出台
好几@@
施工
纪念日
勇士
定制
开头
怨
汉娜
而战
谦@@
赚@@
扭
看似
誓
议题
干细胞
开设
窝@@
邻国
麻醉
伊尔
唇@@
底部
建筑师
煤
邮箱
隙
呕吐
奸@@
胜过
饿死
变形
奴
换衣服
来电
看清
落下
锐@@
韦恩
片子
香蕉
vi@@
和平@@
未婚夫
柜子
爱丽丝
长久
多钱
慢慢来
朋@@
污
派出
涅@@
赞助
除此之外
金融市场
一伙
不妙
发泄
大火
尊
游艇
语气
ke@@
明明
怎@@
摩尔
伯爵
大赛
酒廊
5.@@
兰斯
内战
天主教
称赞
脚步
豹
阅
岛@@
畅
粗
赠送
6.@@
带回家
年里
日报
光临
弗莱
无法@@
没带
玩游戏
二战
听懂
征收
捧
援
概率
罚款
计划@@
喀@@
外科医生
威利
宁可
拽
知觉
哪有
战略@@
探测器
预见
中世纪
奏@@
开发商
混球
特区
啊哈
我求
机械@@
冻结
鸟类
企鹅
坦诚
废弃
打发
抨击
放置
毯子
附加
保卫
信托
美人
三名
些@@
演示
百分@@
盲@@
闲
九个
天花板
寓@@
尽全力
水手
da
人要
吉尔@@
塑造
很想
有多@@
潮流
要花
讯息
过会
逊@@
救救
无家可归
看不出
防守
驴
齐全
叉
叶子
弗兰@@
摊
玩儿
缸
销售额
叠
心理学家
提问
估@@
划分
岗
恶意
文献
每天晚上
不小
利物浦
奇特
烟草
热门
遣@@
鼓舞
0@@
丰田
挡住
毫米
FBI
比特
界限
do@@
一体
众所周知
布赖恩
恰好
核弹
浮
滤@@
笼
蒙特@@
12@@
克隆
冥@@
搜集
沃尔玛
消费@@
裁员
一匹
卖出
好戏
紧急情况
置于
逗@@
陪伴
na@@
庸@@
温室
X
一幕
备受
宝藏
电线
第一步
答复
迁@@
依赖于
保管
加热
委员
流量
衡
墙壁
引力
福音
维克
贬值
造型
$
弦
投资@@
握手
整夜
海伦
爽@@
能干
那件
临近
具体@@
纪律
别用
性生活
毒气
递给
八卦
威尔逊
挽回
独一无二
窃听
解剖
秘
资深
车型
金子
剩余
宣誓
敦@@
猩猩
负面
超人
辖@@
鸭子
俯@@
再也不能
史上
外人
电报
立马
胎儿
袖@@
力度
名片
当真
气息
竖@@
罚@@
惯@@
橄榄@@
立法@@
艾玛
面孔
口香糖
天真
夸
纽约时报
课堂
分解
商标
卓越
沦@@
秋
船舶
楚@@
真实@@
说了算
问好
喘@@
弄出来
约翰尼
不赖
径
柔软
海军陆战队
发电
姑@@
年初
焚@@
综合症
+
亚特兰大
佛教
好听
引人注目
抄@@
那家
事项
化疗
大桥
急救
探险
欧洲@@
莱恩
业主
何不
壁炉
宇
要不是
贝丝
这栋
克利
巴拉克
微生物
德曼
淫@@
粮@@
苗@@
mi@@
为期
况且
复合
幢
敦促
激起
设计@@
资讯
赢家
ou@@
假释
妥
手头
绘@@
肋骨
镇子
人间
何况
国防
研究员
人工@@
动静
参数
安全性
虚假
要素
馆@@
一栋
保健
前所未有
川@@
盗窃
说服力
一无所有
三周
上空
压抑
拇指
会长
充电
巨型
谜@@
分之一
容器
有望
此地
溪
马桶
手工
洗个
蜂
表示@@
胖子
自大
高尔夫球场
一团
纠缠
1999
万块
两边
分辨
别问
好比
往前
游览
头绪
岁@@
患@@
摊@@
格里@@
浇@@
点半
迪恩
选择@@
化妆
埃迪
增长率
找些
牌子
各类
德克萨斯
意味
本性
格式
流入
看成
秘密@@
记载
凑
听不见
堕胎
应急
碰撞
经济危机
压根
庄园
新西兰
浏览器
闯
dna
一次性
扰@@
画廊
艳@@
发烧
少量
没到
狙击手
车厢
单元
筹码
纽约市
脑海
以防万一
在此之前
塞进
家属
幸存
榜样
管家
飙升
一百万
伙
兑现
加班
劳工
喧@@
安定
安心
普遍@@
朴@@
转型
万物
交叉@@
函
国土
慰@@
曲线
海啸
玛丽@@
硬盘
资源@@
700
倒闭
御@@
所有权
洋葱
电影院
辉煌
露面
．
克兰
刹车
库存
摔倒
祈求
借给
定罪
往后
绒
金字塔
隐形
信封
切尔西
刻薄
坊
弗朗@@
时空
柴@@
珍惜
粮
触发
医学@@
厌
吓唬
太高
慌
最低@@
武士
派遣
督@@
金色
非要
几十@@
妇人
娇@@
怎样才能
愁
草原
首领
驾驶@@
ag@@
厄
唾@@
喜悦
感应
这周
道德@@
丑陋
份额
天性
强有力
浦@@
涌
用处
紫色
严重@@
丸
备用
引进
得上
急诊室
蟹
邀
奏效
摩西
数月
海洛因
猜想
疾@@
相识
Y@@
出生@@
四十@@
彼得@@
抉择
极限
次数
裤@@
观测
原先
启发
歌剧
狮
结尾
达尔
发射@@
此案
水晶
脚趾
血腥
q@@
共度
固执
坡@@
打听
毛衣
体温
发火
所作
放学
有机@@
锯@@
一秒
流浪汉
采集
上瘾
份@@
前夫
古董
打倒
鲍比
120
下个月
境地
大地
干旱
思想@@
懒
旨
气管
泊
重返
面子
出身
压迫
哲@@
殖民地
活在
瑜伽
窗帘
伊恩
县@@
骚乱
at
前科
孤儿
灾害
重申
队友
雪茄
霉@@
下台
孤立
素质
这下
两样
初期
得起
从现在起
伏特加
做得好
反驳
处方
棋
索马里
小鬼
弯曲
无能
舱@@
要命
野心
43
单子
丧生
公开@@
消极
莲
课题
跃
长期以来
门前
阁楼
万美金
炼
砖@@
食品@@
偷窃
埃尔
实验@@
山羊
爱着
疲@@
缴@@
美分
葛
9.@@
乐器
充
凭借
刘易斯
外遇
有效@@
泄@@
过错
选中
imf
之王
圣地亚哥
常用
更高
水下
演唱
潘
狩猎
界面
血统
到此为止
多亏
验
好久
简历
维生素
通向
闭上
项@@
亲眼@@
伊莱
凶案
拉特
自称
辣@@
快死了
慰
我教
材@@
棋@@
肿@@
跨
辙
建成
溅
玉米@@
阀
人类@@
出错
切尔
帮帮忙
想象力
斯利
没事儿
睡衣
编码
羞耻
艾迪
身子
几种
创造力
前后
哈维
射线
班车
裂缝
须@@
鲜花
⋯
不得@@
动摇
均@@
实质
德利
怪不得
顽固
妆
甘
第三次
胡扯
一分
不管是谁
异议
来点
泵
羞愧
乏味
你们好
大笑
安德@@
等会儿
誓@@
陆军
青春
并购
总监
海报
通讯@@
三位
传闻
升职
合作@@
实时
忙碌
拿给
欧洲央行
兰人
出自
可信
野餐
闯@@
乌克兰
公共汽车
潜水
瑞德
第十@@
草莓
乖@@
传到
多多
始
恶棍
日落
借用
光荣
出版商
找寻
到期
帮手
演唱会
获利
陵@@
革命@@
恶梦
新奥尔良
歪@@
没准
笛
书店
住院
何种
卡斯
城市@@
大腿
时不时
格里
男孩子
联合@@
辅导
雌@@
关税
地下@@
应有
弹性
看书
经受
化验
国有@@
碍@@
蒙特
说错
问候
黑洞
不至于
六月
外交@@
深呼吸
监
背包
出场
扑克
知晓
赏
间接
廷@@
普斯
棉花
羽@@
一封信
任何@@
任意
所得
栋
瓦尔
自行
荷
op@@
不带
别去
峰@@
巧妙
新手
代理人
分公司
研制
硝@@
管子
纠结
辛格
迪斯
N
为难
关系@@
循@@
挨
揭@@
旅行者
神像
维加斯
逮到
减弱
徽章
每间
浑身
浩@@
玛雅
肯尼亚
马来西亚
hu@@
ma
克劳斯
分泌
埃尔@@
怎能
拟
模样
济
算法
肉体
进出
ba@@
冷冻
前门
没完
油漆
海峡
电器
研究生
薯条
谱@@
互相@@
出狱
剃@@
塑料@@
煎饼
精心
自制
谢谢您
蹦@@
雕塑
G
乎@@
宣言
幼稚
悉
武力
缩减
高尚
be@@
te
刑事@@
标识
膝
艾莉森
负债
与否
安全感
寡妇
抗拒
梦见
犬@@
仓
仙
休息@@
另一半
杨
架子
琴@@
纽
苍蝇
面上
扰
梁
瓣
一看
产出
偷来
克劳@@
变更
坦白说
弗吉尼亚
胜任
体育馆
巴巴
新泽西
现实@@
用过
萎缩
46
主管@@
加点
募@@
这幅
一倍
上衣
下落
五月
救生@@
熊猫
福尔摩斯
长度
不曾
批判
羽毛
铲@@
嬉@@
我太@@
柠檬
淹没
爷@@
碱
礁
脉搏
荧@@
排斥
老二
72
墨
纯洁
苗
证物
踏
一击
北极@@
卡梅伦
寿
愧
阔@@
一有
亏@@
兼职
勋章
感知
服务生
管闲事
遇害
预备
高贵
不适
业余
偶
察觉
我开
法令
蛇@@
亲热
化学物质
大堂
悲哀
我出
拳头
捕捉
那套
重生
是非
高档
扳@@
拓@@
腻
茄@@
贩毒
分心
宅@@
愈
检察@@
瓷@@
绝佳
轻轻
韩
从那以后
借助
我操
搞不懂
氮
熏@@
达拉斯
运输@@
镇压
一块儿
伤人
侄子
填补
搜索引擎
来不及
毒性
水域
海豚
菲利普
访@@
诱人
所见
抬头
拉克
拉姆
宽容
慕@@
甲板
西尔
资本@@
一大笔钱
优
广播@@
林斯
枪声
正经
苦难
起源
那座
量子
幸
预示
qu@@
不值
低迷
围着
学术@@
弹药
扑
粒@@
藻
事是
企业@@
作风
凯伦
占用
暖和
来回
来得及
科技@@
税率
联合国@@
不谈
兑
收据
比喻
精致
纳米
终极
维克多
前线
夏洛特
涉
穿衣服
缅@@
装作
8.@@
咽
多点
德勒
牛仔裤
遏制
很强
推断
精明
访客
超大
转到
遗弃
前行
动用
碧@@
羡慕
好样
审视
就位
纪念@@
观光
誉
锅@@
体面
套餐
招募
掌管
莱克
那张
个别
之力
兴起
反对党
宋@@
旺@@
特质
瑞安
筛选
ge@@
五十@@
卡住
各方
有的是
此后
碰上
黏@@
bu@@
厌@@
增多
最少
照料
自卫
转让
雷克
鼻
凤凰
文学@@
杆菌
梦到
片段
癌@@
研讨会
肯特
鸿@@
佣@@
烧伤
纸条
询
进口@@
匆忙
垃圾桶
巩固
出庭
嫩
性行为
恐
溢
玛丽亚
联合会
蝙蝠
训
抑@@
肺部
轮到
马克思
三点
刀子
别太
弄出去
待会
老家伙
me
伽@@
撤
有位
酯
键盘
露营
鲸鱼
ine
中央银行
书写
儿童@@
嘉
漫
芙@@
跟我走
轰炸
铭@@
三人
华盛顿@@
卸
唠叨
壮观
愉悦
斯托@@
亏
创造性
微妙
成交
氏@@
清晨
点到
用餐
真够
那本书
六岁
同盟
哑@@
怪怪的
悲痛
科斯
评判
配偶
青蛙
静下来
gh@@
一事
三星
建设@@
柳@@
穆罕默德
纳州
耻辱
难得
彩票
查询
竭
解读
野生动物
上任
别傻了
右翼
尿布
弗雷德
扳机
朱莉
构造
诺言
默克尔
不确定性
五岁
叹
岭
干燥
煤炭
相对@@
纽约@@
美景
兄弟会
叉@@
根源
民主党人
虽@@
里奥
钠
优美
原油
想想看
智利
用心
迦@@
金正日
随之
关押
功课
各项
怜悯
悍
挑剔
捐款
气温
百分点
绑@@
诊@@
雄
万岁
专栏
中间@@
叠@@
扮
描@@
脸色
贺@@
伤痕
地理位置
已久
巴特
开放@@
德克萨斯州
来个
烧死
皆@@
结果表明
统治者
茎
请原谅
住嘴
总经理
戈登
柯
相连
这回
逛
不难
慈@@
抗争
拓
握@@
波斯
纹@@
陈
地中海
怪胎
热腾腾
盯@@
缩短
人造
暑假
民间
砸@@
视力
mp@@
中等
光芒
四点
平原
斐@@
武装@@
氢
汇
论者
象是
跨越
里根
偏离
公车
别理
听不懂
头号
眼球
知识产权
祭司
继续下去
阿拉斯加
雀@@
革@@
凳
挫
毁@@
纪念品
能带
长相
恰恰
日程
温馨
爱国@@
玩耍
亚特
国会议员
孩儿
富兰克林
欧洲人
芬奇
下属
几家
广阔
庭院
得意
总额
拉丁@@
棵
点事
越来越@@
配方
一分钱
乡下
利奥
叮@@
河边
疗
脚踝
刊登
句话
后座
哥伦比亚@@
小东西
岁月
恢复@@
无名@@
正常人
罗德
胆小鬼
轴@@
L
公斤
凶杀
勾引
解决办法
雷曼
预报
两大
吸入
开工
烧掉
燃
埃德@@
外伤
掏@@
物理学家
电邮
融
重回
ev@@
不必要
丰厚
奇怪的是
崭新
我怕
敞@@
时间表
晓
有太多
法兰@@
涡@@
聘
莱德
阻挡
霸
不配
伯恩
叛军
夺
罐子
国民@@
外星
很感兴趣
普顿
生子
用水
竞争者
1998
wi@@
企
向来
架构
流产
物理学
甩掉
疲劳
纳入
跪下
重重
野外
防护
合唱团
如下
强盗
殴打
第一件
et
发行@@
召@@
布兰
畏惧
航线
西北
那间
au@@
ipad
临床@@
从未见过
杰森
王八蛋
用以
郑@@
三倍
不大
丽贝卡
内涵
同类
奥地利
报价
误导
顶尖
pp@@
制药
康纳
抵消
调查员
过渡
这部分
三角
买单
加沙
残疾
老太太
荡妇
赴
蹲@@
从头@@
壳@@
梵@@
烟雾
玉
算不上
麦片
仇
扰乱
段@@
音乐家
j
下水
保重
农业@@
原子@@
去掉
呵@@
大批
太糟
收藏@@
晶
这群
鲜血
黄油
15%
严峻
俄国人
冷战
毁坏
牧场
统
一新
事宜
布局
拦
搏
文件夹
斯塔@@
智商
老爹
蜂蜜
鸟儿
下流
交代
傲
单击
帮到
慕
扮@@
欢
矫@@
程序@@
胸口
词汇
这门
逍遥法外
通用汽车
飞往
之情
孕妇
树枝
笑声
面对面
伦斯
克洛@@
四天
心态
监听
伦理
假发
哈罗德
就别
平息
德森
格拉
源头
漫步
狭窄
艰苦
解散
25%
剧烈
化妆品
古典
后备箱
现身
电路
买个
咖啡馆
正想
熨
跑掉
中止
亨特
叙述
奉献
委会
孙
实用
成效
旱@@
杰米
称作
笔记本电脑
细胞@@
行使
克罗@@
克里斯蒂娜
外交政策
沙特
肾脏
*
副本
境@@
处决
打工
横
短裤
踪@@
近乎
ta
偷看
冤@@
劫持
弗雷
强势
找人
斗士
日常生活
泪
泰迪
疮
看得出来
祸@@
聋
行为@@
这使
以求
充分@@
原告
妄想
播出
氧化
流言
赞扬
X@@
余地
响应
普林@@
玛格丽特
第二十@@
翰
行长
鱼类
一般来说
不光
咳嗽
回见
打动
新车
汽水
法定
渣
索尼
蚂蚁
进度
主持人
們
向下
孩
巴菲特
敌意
椎@@
海豹
独处
绵
联想
贷@@
顺着
tion
一口气
世界末日
两杯
别以为
到手
史蒂芬
四月
安宁
尸检
张开
相片
看守
粥
缓和
该是
面条
上船
串@@
剩@@
口水
摩擦
无权
穿梭
V
公告
印第安@@
失效
存放
寺
烦人
空气@@
饶@@
马尔
回想
宪@@
木材
橱@@
皇室
看不出来
胜地
腺@@
80%
中途
树立
火花
站点
要不然
身旁
铝@@
限度
高地
高等教育
2014
41
坠毁
密切@@
帕特
後
虚构
降到
使劲
好心
撰写
柜台
生日快乐
真得
自尊
事态
依法
免受
匈牙利
小企业
消防员
电流
祥@@
一帮
徘徊
招呼
曲子
汉语
混混
羞@@
这时候
震动
发电机
巡逻@@
库珀
很会
海滨
特里@@
祥
缘故
ke
入室
向东
咽@@
圈套
审理
尔多
性关系
斥
电击
裁定
谎话
贴心
追杀
酒馆
销毁
90%
五角大楼
多地
归咎于
打住
求助
沃克
淘@@
盯上
着瞧
伸
地里
很近
悲观
授
更长
残留
特大号
特斯
营业时间
那年
麻醉@@
人情
新郎
来源于
梯@@
烷
生死
记下
返
铸@@
mer@@
ter@@
一拳
切开
子里
少来
延
澳洲
煮@@
爪
阵营
把头
猪肉
箱@@
触摸
黑莓
冰川
弓@@
忧
患上
活动@@
生命危险
颠@@
as
一页
偷东西
关在
嵌@@
左手
探索者
沿海
演戏
突袭
那才
二人
小巷
收看
迷恋
障@@
别来
刺杀
头衔
排列
润@@
符@@
顿饭
bank
吧台
堵@@
多岁
导向
很帅
花样
见解
躲起来
阿拉比
难怪
亲生
公关
威尼斯
强行
措
未婚妻
温泉
现今
示威者
茱@@
萨尔
设在
诚
马戏团
龙虾
半天
奥斯汀
对称
小人
ap@@
不快
体育场
废墟
忌@@
水上
澄清
盈@@
粉碎
绒@@
长远
享
发掘
国度
大鼠
我以
接通
狱
自首
输掉
重力
零售@@
30@@
三月
交出
修道院
兽医
几张
双人
小猫
忙于
跳跃
man@@
三角@@
办到
帮上
往来
拱@@
第三方
脱衣舞
阴道
领导@@
鸭
1990
不受
仲裁
啰
多重
宰@@
尼日利亚
心想
数以@@
斧@@
演变
火力
砰
诺斯
逃犯
酿
审核
小弟弟
录取
惠普
报应
无助
流传
流失
百万@@
突变
继承人
蠢事
计时
踪迹
预料
悔
愁@@
战斗机
打碎
星门
梅尔
袋@@
说不@@
身亡
go@@
大衣
局部
意识形态
拷@@
斯巴@@
杠杆
灰尘
乐于
乱七八糟
公务员
副总裁
安德森
感性
旦@@
索尔
脱身
花生
赐予
迁移
ton
一命
保护区
削
取笑
口号
古人
安息
爱上你
科特
转动
预先
不同于
原材料
后台
成真
房东
施加
衣柜
赛事
亲属
匹马
团结@@
外卖
大屠杀
娜@@
早晚
械
水池
畏
直线
经理人
胡说八道
自动@@
长达
ex@@
冷却
列为
咨询@@
朴
此项
派克
童子军
管理人员
米兰达
鱿鱼
内森
台阶
山顶
庆典
持枪
款人
相符
精美
罗斯福
里森
85
先来
净化
外交官
晴@@
现行
结算
让你在
跑道
身高
铝
驾驶员
忧郁
替换
特有
一步@@
代表团
停手
屠@@
斯克
残骸
私事
般@@
花招
荷尔蒙
中校
债权人
可谓
日元
早该
果实
欢迎@@
物流
萨克
免疫系统
德语
拓展
混凝土
理论@@
百老汇
矿业
稿@@
罐@@
那头
卡罗
孟买
客户@@
打招呼
有幸
步枪
特曼
磁
公事
分支
姬@@
布思
怨恨
我想@@
拥
莎士比亚
谷物
辱
过滤
遗体
ne@@
光灯
压制
址
头顶
急剧
汉克
电站
贩
哈佛大学
哲学家
国际货币基金组织
市场份额
战后
拘捕
按时
放屁
数学@@
绳@@
褐色
震
马拉@@
不妨
今天@@
利尔
发表@@
哈马斯
夸大
安抚
定律
政府@@
红绿灯
经费
du@@
wa@@
休斯顿
促成
宣告
引人@@
旷@@
法学院
皮尔斯
誉@@
休息室
凹@@
办不到
平凡
底线
心爱
扁@@
搭配
窃听器
罗宾
聆听
车程
遍布
重现
铅
上传
乔希
人行道
使者
儒@@
坐标
栽@@
翘
警戒
递
悄悄
越狱
00@@
不见@@
两份
启示
捍卫
生态系统
芬兰
国有企业
复兴
大忙
奢侈品
字体
安全局
导航
庇@@
报表
玛利亚
电缆
缺失
讲讲
话语
迅@@
喉
大通
罗宾@@
芒@@
转而
ner
乌
亚伦
别着急
救济
最长
查到
棉
橡胶
水泥
泄
警车
car@@
所用
改革@@
无尽
来往
生产力
画画
绩效
车队
颜@@
僻
加布里埃尔
垂直
急需
悉尼
源自
老式
1997
偏
巴德
巴格达
开走
心碎
珍珠
脉冲
蜜
不掉
冷漠
可比
太过分
打搅
斯托
歌词
真要
罗恩
雄性
F
一首歌
大力
我付
扔下
撕裂
杰斯
波斯@@
走到
距@@
位数
兔@@
前男友
加拉
安吉拉
德罗
王后
袜
达成协议
雅各布
霍尔
骨骼
下水道
东北
哈拉
库克
当面
拦截
暴躁
河里
狮@@
醒@@
不久前
危险@@
守护
实情
尼基
戒酒
摆在
普罗@@
桥梁
软件@@
传染病
劳伦斯
发抖
婚纱
微博
我救
据称
月底
疆
迪拜
铀
阿拉伯@@
鸣
圣母
总统@@
沸@@
豁免
颅@@
充当
斯卡
暴徒
洛夫
英勇
郁@@
钉@@
.00
john
仔细@@
保守派
冰块
十字@@
发脾气
多好
惩@@
抄
拢
玩弄
莉丝
虚伪
退缩
顶部
不应
分校
制备
太早
是否是
洛斯
美术@@
争辩
凶杀案
弄清
那块
锋@@
颗粒
el
医疗保险
南瓜
护送
控制权
臂@@
遵@@
以致
停电
傻事
减缓
办事处
培根
指头
爱过
盛大
诈骗
阴
pe@@
世间
为时@@
反过来
天知道
宵
当场
快来
接待@@
蘑菇
倾斜
军团
左翼
掠@@
本次
条路
植物@@
磷@@
豪华@@
跳动
过敏@@
不合@@
另有
拆除
掐@@
最先
没空
访谈
te@@
口供
嗡@@
好久@@
恐@@
科夫
秘书长
营救
谨
一小部分
否
唇
投资人
来时
正当@@
洛城
自由主义
装成
轨迹
锯
ard
la
不佳
九月
处理器
太阳系
宣扬
梁@@
棕@@
片刻
纤维@@
要紧
mu@@
不能不
之子
喝茶
奢侈
指导@@
椰@@
橘@@
深圳
疑惑
疼@@
盲目
税务
简短
绊@@
西蒙@@
讯@@
司法部
回合
基因@@
接替
烧毁
篮子
衬衣
重大@@
侯@@
保持沉默
好日子
幽默感
弟兄
打个招呼
滚蛋
蒸发
诶
起点
进屋
铅笔
阔
今年@@
凯恩
小便
恐怖袭击
惟@@
拉娜
新书
沙子
猛烈
蒙古
高出
一百
中是
为生
异性
德国@@
快递
成像
打斗
症@@
达克
不着
受益@@
妓
子公司
惯
渗透
玛莎
离家
筋@@
绵@@
语言@@
贩@@
这篇
david
七月
上限
会计师
朝鲜@@
物资
特洛伊
礼拜@@
粉色
鳄鱼
不易
亦@@
体贴
堡@@
好受
幼儿园
爵
结婚@@
耸@@
讽
鹿@@
不断@@
伟
压缩
唯有
多尔
布兰登
延期
必定
环绕
苍白
酬@@
鲜
黑夜
Z@@
内尔
出国
厘米
吓死
密西西@@
对於
癫痫
简化
胚胎
莉娅
藉@@
谈起
郁闷
靶@@
颤
饱受
三条
不尽
供应链
可观
强烈@@
普里
独自一人
离职
蔡@@
跪
躺@@
ber@@
垒@@
惯例
数千
秘鲁
翘@@
运河
锦@@
har@@
公约
半数
同胞
帕蒂
抗体
确立
福克斯
脂@@
逐
邻近
马蒂
下楼
侵蚀
发短信
吉普@@
威尔士
官僚
晓@@
格雷格
淤@@
特雷@@
缴
臀部
衰
防治
震荡
颤抖
驱使
一切顺利
一线
商界
微不足道
置评
而成
马修
驰
乐团
争斗
口中
大致
挺不错
颁@@
马里
会用
但别
努力@@
喉@@
坝
扭转
无常
火山@@
眨眼
肾上腺素
贿
鉴
阿尔
香港@@
别哭
去查
哈尔
庇护
心事
指派
无趣
纪
终点
终生
ss
一出
下一代
乔纳森
寸@@
悠久
救世主
昔
渍
篷
逃出来
ers
不禁
任职
修正案
后期
挣钱
有条
老年
致敬
行不通
逃出
64
仆
唷
均衡
大便
岔@@
急救@@
所在地
所致
资金@@
赔
锦标赛
动性
句子
换取
琐@@
验尸
一贯
丫头
传单
恋情
放射@@
梅森
稳定性
竭尽全力
置疑
这要
金属@@
领地
24@@
交易员
兮兮
君子
娘们
热闹
疲惫
繁忙
西南
辩解
min@@
全职
喇叭
感谢您
瑞秋
萨斯
购买@@
输出
集中精力
传媒
力学
无耻
时间@@
结果显示
罗马@@
侦察
匆匆
型号
引领
快餐
有次
电视剧
伐
使用者
全球性
同情心
庭审
彩色
您@@
监视器
蓬@@
行者
解放@@
转弯
60%
刺伤
对准
往事
微弱
急于
罗拉
诺拉
贱@@
这么晚
减速
喷泉
完事
步入
游荡
澳门
疲力尽
磁场
致使
薯
览会
试一下
通行证
重塑
70%
th
一小@@
印记
投机
撒尿
潜意识
组装
集装箱
份子
健全
容量
法师
迄今
两国@@
布鲁塞尔
斯特拉
耽误
通缉
雷德
驱
刚刚开始
去取
向北
垂
学过
懂@@
烂摊子
自以为是
冰冷
十岁
售价
年内
我数
擅@@
时装@@
春季
毯
这台
金融时报
革
人用
准许
剧场
危及
参赛
可否
始于
实例
提供@@
蒜
计算@@
该项
过高
tr@@
上市公司
克劳
内心深处
多达
大于
失常
归来
往返
无法忍受
不觉
二号
前一天
协作
无名
栅栏
礼品
蠢蛋
观赏
详细@@
重新考虑
专业人士
伊桑
冰激凌
姓@@
寄生虫
歌声
连锁
迟早
挖出来
新任
深入@@
火辣
点头
热衷于
签约
苍@@
菲斯
达州
过剩
一票
一英里
困住
树叶
格蕾丝
榜@@
泼@@
爆米花
盲
粗暴
编写
骚@@
麦凯恩
windows
免疫@@
加仑
大片
散布
真名
he@@
不相@@
两句
克制
弦@@
散发
架飞机
海洋@@
牢里
硅谷
筹
芳
道别
ci@@
fi@@
不干
冷血
分割
天线
好意
捏
新华社
更能
藤@@
一年@@
下注
不如@@
去向
填写
希腊人
所得税
手术@@
拿些
榜
照相机
用户@@
磁带
莱克斯
书上
八点
凯撒
少数民族
市场经济
拦@@
捣乱
杏@@
欣慰
歪
雕刻
六点
列入
咸@@
坠
头条
杰作
编号
造就
一无所获
一站
上周五
上头
关键在于
司令
团聚
天气@@
推理
未必
来访
汉姆
翠@@
莱尔
蒂娜
讨人@@
跟进
迷信
青睐
书中
书桌
会计@@
卜@@
呈@@
国旗
帆@@
演讲@@
瘟疫
花花公子
问起
闺@@
高昂
5.00
不问
关进
堵住
实话实说
小鼠
本案
气象@@
爱因斯坦
疑虑
股本
随身@@
万年
修补
恳求
新鲜空气
海地
罚单
覆
鹅@@
亚特兰蒂斯
帕尔@@
撒旦
沃斯
灯泡
脚印
要钱
.......
丢弃
伙@@
太难
娘@@
巴尔@@
掘@@
显微镜
精神病院
脉@@
让人
许诺
转转
隐蔽
举报
光彩
制造@@
广州
座椅
征兆
方人
族人
档@@
民族主义
独裁者
sa
去除
反感
可口
哨@@
姐@@
托德
晨@@
法子
淋巴@@
狐狸
舌@@
阿萨德
高跟鞋
别装
太高兴
期刊
盖尔
老家
节约
贞@@
麦吉
喝水
培育
狄
碰头
笼@@
辣椒
逆转
风趣
低成本
俄亥俄州
冲着
十月
发了
屈服
归功于
拉尔
挑衅
探究
泥土
珊@@
破案
若干
郊@@
金牌
零食
黎巴嫩
唐纳
商务中心
回头见
城区
小伙
巴尔的摩
强制@@
搬出去
硬化
背面
腰带
诈
铁矿石
ko@@
兽@@
坚称
好多年
杰西卡
溪@@
秋季
童话
肤
记号
锁上
非洲@@
高中@@
克洛伊
彗星
竭力
苹果@@
诱导
超级@@
鹰@@
功率
国内外
圣人
开发者
手边
涩
热烈
爱河
秘诀
赶出去
迎来
per@@
伺@@
偷听
兜风
删@@
堡垒
愧疚
我发
捡@@
移交
艾德
闲逛
霉素
为重要
吉利
新建
盼
聘请
自助@@
费尔@@
震撼
bar@@
倘若
减税
增大
复原
希腊@@
广大
慈善机构
方针
深受
甩@@
do
偏好
句@@
布罗@@
放射性
梦境
职工
自责
苯@@
转过身
都是
不时
况@@
数额
查找
现金@@
琼
结案
背部
近距离
为人知
坚固
堤
大气层
帐单
平安@@
拿开
捕获
摇摆
无人机
来接
沼泽
菜鸟
高大
做人
做错
几千@@
勇
操作@@
畸形
芭@@
不得了
出版@@
勺
友情
吗啡
咖啡店
喝完
固定@@
大老远
开花
时代@@
注射@@
眉
蕴@@
行不行
华尔街日报
备份
敏锐
斩@@
水分
碰面
符合@@
迫不及待
马库斯
der
倡@@
厄尔
小马
彩虹
恼
晋级
波特兰
燃油
编程
52
下方
下调
之心
僵局
冥想
夫斯基
愈合
拉拉
而言之
赖安
赞助@@
bi@@
万元
伤疤
体力
多远
天文学家
学员
尼古@@
帕特@@
德纳
我方
支持率
相结合
眠@@
类别
缝合
说得@@
面板
MP3
信服
市政府
带个
平方@@
挫折
掌声
放入
日渐
狐@@
背心
赠@@
阶@@
世俗
严密
促@@
俄勒@@
召
外来
弹头
抢走
最差
炉@@
烛@@
讨好
诸
钞
ee@@
丢人
出入
善意
悼@@
我放
术后
猫咪
环球
窍
管辖
耳环
逃亡
食者
一切正常
丧命
人力
优越
停滞
四次
声波
妹@@
心意
报社
摄入
柱@@
离谱
绕过
财政部长
责任@@
韦德
丛@@
兄弟姐妹
医药
增速
恼火
投资银行
灭亡
狗娘养
经销商
能比
党员
出轨
唐娜
有天
永生
淫
生动
补助
韦尔
页@@
U
代理@@
分队
反思
小行星
探望
接口
撇@@
核实
犯法
留住
耀
自治@@
记着
高血压
会合
吉娜
完工
开销
理会
畜@@
确
莓
蛮@@
诈@@
起草
颂
啥@@
巴拉
年长
感到@@
数十年
早安
管好
这颗
K
倾诉
孙女
宗教@@
打出
技术人员
捕鱼
昧
熟人
登录
讲座
这艘
魔术师
iP@@
tu@@
丽斯
二者
功劳
哺乳动物
性恋
松开
毗邻
真会
经纪
诚意
通用@@
那就好
高温
乏@@
兑换
全年
威力
斯汀
施行
无法控制
版权
筹集
街角
量化
门上
三号
不容@@
不要紧
到位
坠落
学生@@
对应
摔跤
暗中
潜水@@
激增
百吉饼
窄
行踪
踏上
饿@@
马拉松
凯勒
吞噬
坠入
底层
我带
抑郁症
整洁
日益@@
法式
灼@@
电气
碰过
缔@@
蔽
这支
里头
高峰
十点
后备
耶鲁
谐@@
购物@@
遗址
ck@@
他妈
各大
威廉姆斯
射中
尺@@
怀着
更进一步
橙@@
负债表
这款
雷切尔
休斯
充满@@
加重
匪@@
外观
威尔@@
慎@@
戏剧性
拉开
池塘
画像
茶水
评论家
该行
迟钝
防范
驳回
不合
估值
叶片
诺贝尔@@
闭上眼睛
亿元
何必
实用@@
密封
甜美
百年
米特
薇@@
雷诺
首位
冒出来
创办
半辈子
山区
差一点
火腿
调控
走动
陆
不在意
几岁
学习@@
巨星
带点
抛开
拉丁
救出
真菌
谋杀罪
赞赏
黎明
会令
会带
几条
卡罗琳
可要
失落
最糟
潮湿
焊@@
程式
绩
过失
雷尔
便会
修斯
劳伦
取悦
司令@@
弊
施压
深夜
添
现出
玻@@
畔
缪@@
警署
追寻
一来
五十
写给
制片人
半球
卫队
即时
变量
吉斯
后卫
哈里斯
哮喘
广播公司
弹道
接纳
本拉登
桂@@
生产总值
移除
郊
里斯本
麦克风
麦当劳
ja@@
卒
听得@@
奥利
妥@@
巢@@
徐@@
禽
私营@@
车手
部族
阶
侦查
决斗
弗斯
律师@@
收买
赶出
零钱
一连串
出去玩
整齐
无处不在
构
特别@@
瓦解
用药
罗夫
芝士
被盗
马歇尔
二十
二十年
判定
告发
坐落
委内瑞拉
年轻@@
拍档
放进去
活该
真让人
请别
追随
会变
初次
华为
埋伏
多一点
头来
姿
民事@@
法警
热心
焕@@
煎@@
特拉@@
穿透
竭@@
耳机
中央政府
向导
增长@@
大豆
姑
孕@@
宝马
手势
执行@@
抵御
狠@@
玩偶
编制
落到
详
前女友
所愿
所有者
月光
瓦斯
福斯特
苛刻
议程
谈一谈
阿拉
中心@@
借钱
地去
多元化
序列
当个
总数
战机
折腾
瞩目
乔丹
书里
伊德
佛罗里达州
卜
国务卿
大方
惊吓
描写
衡@@
进晚餐
适应@@
闪光
jo@@
ley
一带
保持联系
加斯
地形
妳
布丁
沃特
私募
肥皂
花朵
中华@@
咖啡因
搏@@
杰里米
毕业@@
眉毛
看重
称职
翁
镇定
麻省@@
低下
冒昧
完全正确
敲诈
生物学家
疲软
痊愈
瞧@@
落入
解救
邮报
高点
专
也门
估算
块@@
急事
身心
述@@
露台
餐桌
不爱
入境
公牛
原型
嘉宾
弗里@@
忠告
意大利人
截然不同
既有
窗子
维也纳
脊
论点
迪亚
二级
传染@@
借鉴
大大@@
孵@@
快点儿
洽
流通
蒸汽
追随者
退役
and@@
产业@@
体型
储藏室
充沛
公式
关头
冷酷
地道
控诉
杂货店
核能
活生生
深爱
潜入
紧张@@
缴纳
肘
雕@@
1500
下士
不负责任
会晤
反常
吼@@
坚果
备忘录
姨妈
宇宙@@
寂
布伦南
很晚
必将
梯子
沉浸
漂浮
现实生活
科医生
这招
适宜
％
主妇
大餐
天黑
开战
抽象
第一季
第六
组件
pa@@
公元前
分化
则@@
名词
哩
啤@@
奶牛
宙斯
平稳
弗朗西斯
打印机
振作
文物
最美
毛泽东
耽搁
衣橱
会到
卑
处死
市值
平行
竹
胰@@
雕
顶端
鼓掌
伊利诺@@
住院@@
强力
截至
效忠
未曾
淀@@
罕
血清
连锁@@
雅典
ler
上星期
乌鸦
亲眼
佩里
南边
可别
审美
浓缩
肯尼
逾
钙
哈罗
图形
地质
德克斯特
日出
极力
枢@@
漠@@
空虚
类固醇
综合征
自负
解密
钾
分发
同居
帖
此人
肤色
错事
靴
ve
亚利桑那州
克特
八月
决策者
分娩
分局
动画
南希
洗礼
深远
滨@@
紧迫
纽约州
胰岛素
过早
量级
长途@@
除去
三分之二
八岁
加倍
双倍
坐飞机
市政厅
并发症
慈善@@
按揭
摩托
救赎
碗@@
自家
范畴
萌@@
阳性
很难说
格兰特
死神
母舰
灌
聪明人
49
ter
侄女
别烦
帆
心率
邀@@
饮酒
一致@@
傲@@
养活
开张
很差
残疾人
游戏@@
灿烂
莫里斯
错乱
奥古@@
摄影机
梅林
痴迷
粗糙
自动化
诡计
部份
ge
不怎么样
人想
催
听取
太近
晚期
正试图
犀@@
界线
耿@@
股票@@
脑筋
yo@@
中介
出版社
切割
后背
哀悼
弗雷@@
恢复正常
振作起来
美好@@
邪
隐
三大
住址
俘虏
好大
宠
小鸡
打劫
泪水
灾难性
牵连
窖
罪过
胆固醇
诱饵
重庆
间隔
万分
之路
很重
日程@@
期盼
沟@@
瓷
米切尔
印度人
另一只
同等
域@@
意志@@
更衣室
松鼠
柴
沃尔
沙特阿拉伯
结实
老弟
聘用
衣物
赎金
首尔
个头
主宰
之手
亲切
以为@@
办案
匿
帮人
懈
玩完
理工
结构@@
行李@@
表演@@
言不@@
进军
醉酒
重演
长城
51
三岁
兆@@
光明@@
冰岛
展出
敷@@
旋律
第七@@
通告
遂
那小子
金融体系
颠覆
oun@@
囚禁
太空@@
定居
幸福@@
恤
日历
服务业
登记@@
聘@@
阅@@
da@@
不成@@
之以@@
他长
企@@
厨
回国
尖锐
崇
攀升
皱
草案
40@@
一宗
两项
九点
克斯坦
市政
斯堡
最新@@
消化@@
渡过
硅@@
缉@@
览@@
邮局
配件
钢铁@@
鲁莽
54
ph@@
七点
会派
出境
卡斯@@
坚持@@
大笔
奇异
学业
布满
我哥
抑或
杰里
查明
棚@@
湖泊
绑匪
肢体
蕾@@
非常高兴
韵
一心
一棵
化妆@@
可言
嗓音
工具@@
戴安娜
曲棍球
楼层
蜡
追溯到
酸盐
重启
颁发
乃至
九年
交付
仲@@
僧@@
关怀
凡人
宣传@@
导游
工业化
庸
感觉@@
极具
澳@@
睾丸
穆
茫
贯
mb@@
习俗
你老
多家
对照
总量
敬畏
服饰
款项
泊@@
疫
短期内
社团
简称
钓
陵
面目
丹佛
内幕
手提@@
执法@@
撬@@
深感
湖边
看一看
真爱
简报
肃@@
追赶
采取措施
食谱
事上
伴娘
势头
堵塞
威特
少数@@
弓
振动
时速
竞技场
绘制
膀@@
踪
逮@@
之名
出动
到哪去
多伦多
大都会
强暴
性欲
比亚
沃伦
牛津
真能
砂@@
美容
蛋蛋
血糖
谷仓
货币@@
一班
出示
家门
洒@@
洪
消息@@
苦恼
贸
重罪
上千
反对者
塞尔@@
密集
斯洛@@
水准
玄@@
花园里
角落里
奠@@
有点@@
毛发
油田
而入
质性
预算@@
黛
悄悄@@
找麻烦
推车
敬意
旅游业
星期日
暴乱
海岸线
约翰@@
羞
订购
贺
迫害
一个男孩
万能
倒塌
决定性
到场
后援
后续
悦@@
挑起
数码
涌入
特许
益处
茫@@
被控
os
临时@@
交所
南美
外交部
媒介
想一想
探险@@
月初
期货
没命
津贴
米拉
记起
试镜
骑车
不同寻常
不知情
业务@@
休克
地雷
州市
方位
日后
详@@
银河系
隔绝
饭碗
57
一程
从那时起
公交车
别吵
女演员
宗教信仰
火烧
神秘@@
艾尔
诽谤
辨认
进球
镇静剂
高高@@
了个
前去
印刷@@
坑@@
彻底@@
照明
稳住
空缺
纲
诺亚
踩@@
辜@@
闪亮
骤@@
中说
心底
揭开
格外
梦幻
溜走
申请人
痉挛
相比之下
罪案
观众@@
gi@@
倒数
其后
十字
太平@@
奖杯
崩
应用@@
录影带
此处
起身
辩护律师
66
函数
发过
地被
屈
正轨
比萨
比较@@
满是
表达@@
裹
三角洲
同期
太美
她@@
开端
心烦
提倡
救人
无害
无线@@
消遣
窃取
贮@@
蹭
顶上
900
历史学家
在一起
夷@@
干酪
斯通
获益
补给
被害
通风@@
非正式
值班
国防部长
开场
灵顿
理工学院
疏远
监护
福岛
舞伴
茅@@
被称作
警徽
高压
lin@@
一瞬间
党内
口信
姜@@
新一代
植
苔@@
钟头
不前
东南亚
人均
怎么弄
戈尔
新一轮
梗@@
清洁工
焦
空袭
道夫
避孕套
院校
雨林
1994
写出
开出
彻斯特
旅店
梨
汤普森
禽@@
自作@@
解决@@
赛马
迭@@
颈部
一般@@
人道主义
仔@@
伊斯@@
入手
凤@@
周刊
岸@@
帽@@
湾@@
热点
王朝
而生
装饰@@
赠
跑车
那本
一包
不合理
世纪@@
两件事
今夜
农产品
受苦
后天
多事
帅@@
往前走
斯隆
滨
矩
蒂尔
装有
逃出去
56
不便
不许动
公认
多样化
很傻
戒烟
托比
政府部门
无用
普及
核对
没得
衣板
负荷
逃生
题目
黄金@@
id
ka@@
万事@@
体操
侧面
刊@@
外汇
大理石
皮带
突
谓
谦虚
贩卖
赴@@
鉴@@
魄
不接
乳头
信誉
巴尔
文森特
斥@@
时分
最强
比不上
缺席
解答
贤@@
趋
铐
验尸官
高原
麻痹
万个
下列
下毒
中立
人中
伤痛
傍晚
垃圾箱
夺回
无事
涵盖
特拉
生化
能为
角度看
诵
1995
产权
充实
内脏
扣押
有何@@
编造
美国国会
资企业
颅
风头
创造@@
召回
大雨
家庭成员
差错
平壤
拾@@
有话@@
菊@@
超声
一个个
三分钟
不列颠
传统@@
剪刀
失眠
岳@@
州政府
戒毒
抽出
拿点
教科书
日起
波比
流浪
班上
花点
ce
原地
向南
喇@@
嚷嚷
基础@@
染上
点火
监护人
看望
社交@@
裕
飞翔
4000
人事
人大
动人
受够
喂养
妖
婴儿@@
尼克斯
工作岗位
工地
平面
时装
消毒
热带@@
甚么
除外
颇@@
一脚
丽丝
坏话
复活节
大坝
得够
放在@@
数千@@
杜克
牌照
监督@@
胡同
防弹@@
58
媚
孩@@
帅气
得逞
怀里
气质
浓
深陷
生殖@@
皱@@
虚
路易斯安@@
退房
首饰
马德里
一滴
个人电脑
于众
地域
廉@@
报答
泳
测试@@
爱心
独
生来
疲倦
突发
职能
虚拟@@
阴暗
交通工具
优先@@
动力学
吃醋
拦住
敌对
教过
暴动
爵夫人
琳@@
考古@@
衰老
诺基亚
辑@@
雨水
他命
侏儒
僵@@
内华@@
发音
吕@@
奥林匹克
威斯康@@
官僚@@
有枪
条纹
芭芭拉
表决
靠着
53
pro@@
不堪@@
僚
刻意
商业银行
地方@@
夺取
招待会
掉头
浆@@
索菲@@
走来
1.5
sin@@
先锋
启用
哪天
很累
总的来说
按计划
树脂
格鲁吉亚
渣@@
省份
翅
跨国公司
一体化
印度尼西亚
届时
巴比伦
拿掉
方向盘
有家
示范
膝@@
辰
递交
避难所
ity
乃是
停职
名下
囚@@
惧怕
攻击@@
新鲜@@
离不开
秽
精心@@
读完
辉
餐饮
鬼混
ff@@
一两个
世界银行
东欧
事会
圣地
富豪
弗雷迪
截止
掏出
握住
放假
柬埔寨
格林@@
畜生
筑
维特
联系人
表现@@
讨价还价
说句话
起步
历程
哥本哈根
地向
多样
巴布@@
报名
教养
甲状@@
给钱
言辞
订阅
鸦@@
ss@@
内有
务必
劲@@
圣灵
多于
恼@@
抚摸
犹如
病历
离家出走
综合@@
莫斯
一届
一时间
专长
东区
交际
季节性
小吃
尼古拉斯
查过
炭
畏@@
看不@@
能活
自治
计程车
足轻重
钦佩
顾虑
仰
修订
写信给
刃
博比
卡路里
士学位
太漂亮
妆@@
宏伟
对立
小心翼翼
惊叹
惊慌
摇滚@@
旅
本法
熨衣板
监护权
终端
维基
菠@@
蚊子
记忆@@
贸@@
韦斯
香味
医保
围巾
好感
字典
开创
弄坏了
撤回
无敌
流域
满意@@
绑架@@
贡
62
一切都在
入学
匿@@
商品@@
安理会
惜
挠
摆平
牡@@
牢骚
耗尽
不好过
十分@@
改良
明书
普拉
有者
电网
进食
逾@@
钉子
附属
音乐剧
军火
叛乱
感恩
掀起
揭发
昌@@
格局
眼睁睁
高涨
龙卷风
group
三维
交响@@
他开
十二
卡罗尔
发病
忍耐
斯宾塞
灌木
煤矿
犹大
谊@@
颠倒
飞去
1980
sh
不起作用
人身@@
体积
军士
多米@@
多难
失衡
工艺@@
巫@@
布什总统
更深
死亡率
计画
这算
门锁
na
上报
不用谢
交配
南极
卡恩
层楼
擦伤
显现
止痛药
法国@@
脆@@
被关
贡@@
车牌
一条@@
制剂
哪家
基尔
就职
捐献
欣
纱@@
美德
美洲@@
胡闹
迈出
迎合
這@@
61
不容易
专利@@
亵渎
加深
受到@@
合伙
境外
夜班
店铺
弗罗
战利品
打得
拌
提早
沙龙
私
联络@@
英亩
贩子
轮子
饲料
pi@@
上海@@
不足@@
咖啡厅
控股
沈@@
火药
珍妮@@
私生活
秦@@
米亚
约旦
肩上
舅舅
茂@@
认真@@
请客
中弹
五天
他州
出人意料
前列@@
啥事
巴比
报案
拉丁美洲
民意调查
水流
水资源
浪潮
海鲜
脑中
贫困@@
防护@@
预防@@
饥荒
骆驼
university
一则
东北部
乒@@
交朋友
储
吝@@
处理@@
太重
岌@@
心扉
样式
正事
激动人心
经由
缺口
过节
锈
阿布@@
骄@@
for@@
中华人民共和国
周到
女仆
孤儿院
然无@@
空军@@
罗伯@@
腐蚀
道具
180
一再
东边
乌龟
保险柜
勘@@
塔拉
外边
婚前
安东尼奥
常识
年期
有序
板块
死于
破灭
移动@@
管它
胆量
阴性
黑市
五点
再试一次
外公
外资
多名
婚姻@@
岗@@
工商@@
泻
照相
登机
英国政府
运到
青春期
地质@@
打理
扫描@@
拉美
数到
极好
短时间
科恩
罗德尼
芭蕾@@
见过面
身穿
逛@@
ck
et@@
ga@@
od
一如既往
一秒钟
亿万富翁
佣金
大家庭
扮成
椒
琪@@
矿工
禽兽
麻木
88
不顾@@
光辉
光速
克莱默
凄@@
卡蒂
咕@@
品位
安吉
定量
宾客
寺庙
幸好
所处
新生儿
旗帜
易于
最起码
果然
活泼
稍等一下
穿成
紊乱
脊椎
营造
退休金
遗迹
那笔
酋长
阿门
不得已
公元
别生气
到家
制约
可说
吓跑
啦啦队
喜好
圣诞树
奔跑
奥利维亚
宵@@
开到
揭晓
播放器
清真寺
菜肴
营业@@
蜡@@
走近
送往
上层
别误会
弗林
思念
晋升
电厂
越是
雌性
代尔
内部@@
别怕
勋爵
匙
卫星电视
售货@@
性骚扰
感到高兴
理应
研究进展
网路
那颗
鹦鹉
sc@@
勒死
哪边
带入
打着
接过
显出
歉
鼎@@
2015
信不信
公民@@
外围
寄宿
弹壳
抢劫案
政变
明信片
柠檬@@
省省
那太
你行
卡伦
招供
接种
暇
烤肉
琢磨
私家侦探
种族歧视
粉红色
肚
自杀@@
要用
记下来
邻
主观
亚伯拉罕
几时
发票
有所不同
正规
没理由
洲@@
生意@@
电动
苦苦
药片
鲁斯
三十年
凡事
制定者
即兴
唐纳德
天地
幺
灌输
火柴
艾琳
陪审员
一九@@
作对
兰迪
失调
平方英尺
总要
放贷
斯坦福
时报
枕@@
玩吧
神经元
窥
罗莎
肺炎
谨@@
马克斯
77
iPhone
几百万
创下
听力
响起
好奇心
完好
家务
年华
开幕
抓走
晶体
查出来
涂鸦
滔@@
滕
老天爷
词语
谢泼德
高级官员
An@@
ms
光滑
卡罗来@@
外加
套装
必要性
折叠
毋@@
治疗师
爪子
礼仪
索赔
经营@@
跳过
这比
不在@@
不惜
买入
叔
嗦
外壳
巫术
恶毒
房客
放纵
断定
标本
眼看
胸罩
花瓶
语法
闪烁
鹅
中年
互
伸展
充分利用
墨水
没干
照着
煽动
罪人
舆论
这车
丽塔
乾@@
共产@@
初创
双腿
导体
小宝贝
小路
明尼苏@@
泛
熟练
牲畜
番茄
议院
躲开
@
一是
不好玩
两件
化成
塌@@
大吃一惊
大喊大叫
大块头
尼奥
并不需要
快给我
扼杀
援引
末日
理所当然
盎司
突尼斯
粪便
胀率
葬@@
赦免
集中营
马克思主义
ger
上个星期
产能
家庭影院
新星
枪伤
洗手
环境保护
细微
莫尔
里昂
镑
默多克
der@@
mc@@
两党
以内
原有
呼声
大伙儿
改成
本应
熟知
电子书
筑@@
维拉
胡萝卜
邓肯
87
单个
壮大
媒体报道
搅
本杰明
核磁共振
橡树
洗衣服
牺牲@@
百万富翁
笨拙
自有
这么回事
上见
乱搞
僵硬
创新@@
别介意
圣诞快乐
打了个
永久性
点点
节能
象棋
酚
重心
面对现实
br@@
一早
事实@@
俊@@
初级
吾@@
回报率
头晕
尤为
清算
炭@@
纳税
附加@@
ren@@
价值@@
会以
借款
化身
卡里
屠夫
找份
暴雨
清空
莫莉
酱@@
变迁
尽我所能
屡@@
拷贝
橙色
男子汉
研究院
英特尔
被动
谎@@
跌倒
路障
鲜明
est@@
侵略
便捷
再用
出行
实实
忍者
抱抱
星级
椭@@
洗衣
煎熬
纪念碑
诠释
镇静
颇为
ar
别挂
加厚
后方
工夫
撤出
无一@@
曼谷
棍子
禁闭
突击
纳特
行进
赎罪
辣妹
过婚
一笑
上钩
中场
些许
人房
前者
告诫
安卓
弗莱@@
性侵犯
成天
档案@@
歧@@
淡水
血样
豫@@
起义
迫切
关乎
定论
彩排
星座
服刑
绷带
罐头
罗兰
翔
胜出
蹈@@
阿波罗
低头
全能
尔文
归还
我得
无线网络
朵@@
简洁
自觉
蝙蝠侠
采纳
下药
借此
免于
冷淡
准备就绪
卧
嗒
心脏@@
扯淡
掌权
支架
斯塔克
柯林斯
矩@@
行人
逗留
鸡鸡
像样
关键词
向西
嗓子
开业
彬@@
歉意
特德
盈余
睹
碍
罕@@
老兵
自然资源
花旗@@
陀@@
骂@@
dy
军事行动
击倒
北边
存货
恩怨
戴维@@
日前
混淆
罪孽
薪@@
车库里
迟早会
退化
阿尔法
领取
黑猩猩
不好受
买来
人民法院
人渣
划船
剂@@
台湾@@
天体
砍掉
窍@@
笼罩
结构性
罗德@@
胜者
臣@@
那片
酒后
ly
re
同性
埃文
墨西哥人
巴克斯
怀抱
捷径
无与伦比
浦
海龟
燕麦片
神庙
轻而易举
郭@@
露易丝
颁布
骨灰
冰冻
奔驰
对头
尔登
并非如此
机理
杀了人
洗衣店
烫@@
理发@@
皂@@
红灯
络
西边
论证
请来
fa@@
不惜一切
丫
乃
乱动
加勒@@
劫匪
天鹅
心存
无法解释
特种部队
私营
科林
罗马尼亚
老年@@
虐@@
西德
诞
阿什
android
不动@@
令人兴奋
华莱士
恋人
我心
洗衣机
看得见
空洞
结了婚
罗西
过火
近日
韧@@
专员
低级
侯
劲儿
夏日
尼特
市里
异教徒
徒刑
更少
极端@@
每一件
稳定@@
纺@@
辨别
运动会
颂@@
110
俯瞰
册@@
加利福尼亚州
动手术
合资
哥伦布
埃德
审批
宴@@
寿司
小提琴
录制
战线
担
推到
摇摇@@
无论怎样
相关性
真他妈
祟
署@@
肇@@
警卫队
赛道
遥控器
项目经理
首选
76
不大@@
乳房
侵害
地球@@
小白@@
平和
泼
电力@@
高价
利兹
卡莉
可靠@@
唤
头等@@
奖赏
心上
感染@@
慎
抢走了
探访
毒蛇
水疗
沿岸
狂野
现场@@
用钱
精力@@
纪录片
芦@@
血流
送走
阿司匹林
mon@@
传票
天分
宏观@@
已然
捡起来
揽
教书
某种意义
淘气
绰号
维克托
跳下去
辽@@
连任
遣
那首歌
钩@@
铅@@
风光
七岁
乞求
人意
优惠券
吃个
家里人
富含
恶人
拉斯@@
文件@@
族群
破坏性
科研
郎@@
镶@@
59
our@@
代号
几句话
叨
崇高
想像@@
手镯
暴行
术@@
置身@@
说来@@
骑兵
之遥
努
单单
多半
多德
天主教徒
恙
日本政府
柔
气象
第七
纵火
聊过
莱纳
行列
马萨诸塞州
we@@
低落
先到
全国@@
四岁
在读
愚弄
电磁@@
窘@@
继父
缉毒
舍尔
鸡巴
麦迪逊
一旁
几秒钟
出汗
喷气@@
多种@@
州立大学
感人
措辞
时才
海军@@
王室
田纳@@
病态
衬@@
贝尔@@
陀
默认
一千
令人震惊
信奉
千米
君主
吹嘘
喜剧@@
工程学
提供商
涡
液晶
特利
玷污
碱@@
聚焦
脱口@@
解药
达蒙
锤
韵@@
马屁
68
一刀
信息技术
历史性
哄@@
实际@@
巷子
干部
断裂
民调
混合物
熏
琳达
遵命
问题所在
上会
不休
传记
削@@
博弈
向右转
太紧
感情@@
指证
挖出
构想
看得出
看护
累积
联邦@@
风险投资
个儿
事来
参军
取向
征税
拉塞尔
最佳@@
村里
看做
调动
贫
这首
锤子
东南
五千
信用@@
克雷@@
册子
垮@@
宏
抓捕
投机@@
无赖
染色体
花旗
从头到@@
勿
匪
印第安
开过
意想不到
特意
补救
解体
酒厂
黯@@
1991
便利@@
光是
帆船
换上
痛恨
触及
这天
问到
陷入困境
Twitter
姊@@
截
房顶
拾
无损
本地人
杉
研究成果
竞技
纠@@
詹姆@@
队里
龙头
DVD
利于
发明@@
嚣
大众@@
失明
失灵
尼娜
幼
拧@@
桌面
糕
衷@@
银色
q
一发
剔@@
发狂
喝啤酒
壁橱
恕我直言
挑战性
挚
排放量
提起过
搏斗
晚间
服药
毒贩子
沼@@
粪
舞步
萨斯州
西娅
出海
出过
华夫
增添
大亨
差事
希伯@@
接头
烤箱
照亮
疤
美人@@
美学
达尔文
邮票
风景@@
万亿美元
不放
不自在
之物
乎乎
传教士
余下
即便如此
呈现出
地平线
安然
就业机会
星巴克
流向
珊
理想@@
积蓄
精通
辱@@
一盒
上楼去
中国共产党
典范
参赛者
哎呀
外国@@
布伦@@
得住
战友
格伦
筹款
综述
能耐
自闭症
茅斯
谋生
跨国
酒保
里安
飞过
∮
一排
别过来
口交
合物
咄@@
困在
密歇根
挺住
旨意
时有
未成年
生长@@
界定
膜@@
螺旋@@
适度
顶峰
五分之一
古希腊
宏观
小船
布里奇
快进来
敏捷
洗钱
聚在一起
航天
金枪鱼
1992
保龄球
停车位
克雷格
全国性
养育
几杯
千里
圣战
夫兰
好话
巷
推向
朱利安
深渊
白兰@@
监会
纳尔@@
警察@@
趾@@
这么@@
醋
领事馆
一词
佩尔
卢瑟
大侠
尼克松
当上
性病
比基尼
牙刷
税务@@
综@@
起居室
预知
风力
go
主机
募集
地表
太长
拉屎
控制系统
瞪
逛逛
ali@@
哪条
在座
城墙
大钱
布伦达
弟兄们
德鲁
拒
支柱
脂肪@@
过往
钥
陆战队
集市
需要的话
1996
2.5
來
切斯
别跑
发财
咋样
快感
性化
控制不了
犯傻
电子商务
盈
纤@@
艺人
铃声
阻挠
首个
驶向
中西部
假扮
即刻
器械
基准
守住
折断
真为
磕@@
稍稍
郁
里边
顺风
The
伸手
侠@@
制订
十五
器材
承担责任
挥霍
掠
梅德韦
每件
病症
相互作用
选定
一幢
京
保守@@
兜
农夫
单人床
各样
告终
安局
带回去
感官
成名
手动
投行
时钟
杭@@
水源
灯塔
留个
罗密欧
老爷
脱水
非常适合
be
出钱
十五@@
受体
安乐@@
弗吉尼亚州
怒火
打赢
挫败
摩洛哥
权势
杆@@
特殊@@
相似@@
睡得
肉类
袖手旁观
评审
驳@@
骇@@
ey
ne
人民政府
士气
复发
妞@@
小弟
死前
洁净
耗费
脆
藏身
输给
鉴别
阴茎
中旬
人力资源
低价
咻
土地@@
填满
弄伤
新增
死尸
畅销
神灵
贞
车门
轮廓
违
酵@@
里尔
ster
光顾
加薪
时说
木偶
起伏
违规
遥控
H
ad
不怪
了之
五百
出庭作证
各州
吟
吹牛
四分
四肢
带枪
幕式
录下来
无私
洛普
献
芭蕾
视作
那会儿
中将
利益@@
加拿@@
字条
家门口
拨款
更强
最大@@
柴油
火炬
电子产品
科罗拉多
芥@@
蜥蜴
调查局
锈@@
140
86
上调
光谱
可行性
境界
壁画
实实在在
客户服务
开庭
我活
挪
掠夺
昨天@@
残杀
狱长
神经系统
胶带
衍生
革新
高速@@
十几岁
另一家
哈德
客机
手榴弹
投标
拿破仑
指认
掺@@
新闻报道
曼联
木屋
炎症
申报
粉红
罗斯@@
色情@@
色素
董@@
货运
迁徙
通行
闲聊
风声
香草
一段@@
个性化
乳腺癌
力拓
卡梅@@
发酵
很多@@
忠
情妇
掉下去
朱丽叶
来信
柯蒂斯
生日礼物
画作
确诊
获奖
解放军
说点
贯穿
遗漏
阿斯
其为
向左转
夜店
尊贵
店主
所属
梦想@@
模块
病患
真空
米克
绝地
讳
近代
那栋
龙舌兰
上床睡觉
乌斯
仔细听
你会@@
克莱斯勒
外形
大惊小怪
展望
摔下来
数值
斯坦利
桨
款待
没门
油画
流出
看清楚
素描
美国银行
自已
蟑螂
阿比
书房
切除术
前锋
地想
天主
奖项
年头
度假村
总比
摩根士丹利
求救
病因
痘
移开
稀有
裁
足迹
露天
饥@@
共鸣
发来
围栏
国际化
娃@@
娜塔@@
溃疡
燥
胸腔
蓄意
诺夫
黛安娜
伤感
信号@@
别别
号召
味儿
哑
孝@@
得救
怎会
恐惧@@
慕尼黑
我累
查德
潜能
炸掉
相邻
网膜
说不出
说是
达斯
连接@@
问话
雷恩
预想
额头
默斯
michael
农作物
分担
妥当
急切
换掉
每种
活人
流浪@@
看穿
私有
第一批
绑起来
肖像
肠道
脱衣@@
葵
课上
那州
零部件
不择@@
从今@@
佩斯
例行
克劳迪
利昂
娘养
恒温
抖@@
文书
杠
梭@@
毒瘾
盘问
稽@@
翻新
试验@@
重获
不论是
内陆
击球
十九@@
华纳
在此期间
微波
殖民@@
流泪
流逝
消费品
电图
电筒
私有化
萨尔@@
豆子
赐给
趴在
迈尔斯
邓
马力
93
di
one
ve@@
全力以赴
卢比
唱得
回电
学着
拉拉@@
时段
河水
泡泡
牧
直径
约克
脸部
迪诺佐
速器
问道
顺从
动身
各个@@
命中注定
多元
氮@@
热线
脑后
讲故事
责任感
起火
进出口
fo@@
一路上
为荣
亚当斯
今年夏天
停火
分析家
分裂@@
复杂性
大大的
大奖
奥林匹@@
学学
暴跌
电车
疫@@
简要
胁迫
过日子
饥渴
常客
张大
栽
科比
积分
继续前进
臭名昭著
豁免权
这所
那群
Google
一任
三层
东海岸
买不起
交到
军用
分明
切斯特
博士学位
厄姆
呼唤
奄@@
女佣
布拉格
弗拉@@
手持
波利斯
生前
皮革
衍
账号
赎回
转基因
这会儿
难熬
非同@@
颖
web
不景气
不朽
不由@@
克里斯@@
劝说
反叛
大肆
州立
快速增长
淋
缩水
迪伦
逮住
锁起来
IP@@
不死
俘
动员
医治
基督@@
奎
布料
忘不了
手提箱
挥
排行榜
木板
民营
波多黎各
电力公司
知识分子
行径
装扮
谈恋爱
酒会
阿拉伯人
食物@@
高质量
一刻@@
中方
乍@@
二楼
储物柜
关节炎
凋@@
医疗保健
千块
可耻
合金
忠于
斯图尔特
替代品
棕榈@@
没戏
空手@@
紧身@@
脑海中
费力
追究
重创
锋利
门人
附带
东亚
分居
完美@@
寄来
尘埃
心目
忠心
振奋
普拉@@
污点
漏掉
爱尔兰人
独裁
电波
监管者
盲人
纺织@@
路透社
践@@
陨石
一角
主题@@
事无@@
传球
全方位
其人
凡是
刺客
参选
希拉
所欲@@
打入
批评者
捉到
未成年人
波音
激进分子
空间站
章节
自语
薄荷
逆
长长的
不算什么
乙醇
习惯于
任由
便士
克鲁斯
向往
培
安眠药
拍电影
挚爱
推开
查证
梦中
涉足
疏忽
确性
穴@@
药店
进城
金融业
三十
伊莎贝尔
低温
保护主义
巴尼
弊@@
扣留
摄影@@
曹@@
杰拉德
氏度
疏
绝妙
调研
过期
98
pl@@
偏偏
儿女
匕首
化学品
夕
婴
嫉@@
求职@@
沐浴
法学
用场
破烂
颗@@
颤@@
饲养
50@@
=
一文@@
亚州
几百年
取得@@
宾夕法尼亚州
开罗
得益于
木星
洛根
消防
米德
精液
芝@@
花粉
这真
颜料
马州
china
万名
上游
两起
切口
庞
建构
拖鞋
教派
数字化
机长
潭
私奔
穆巴拉克
罩@@
舵
阐明
付诸@@
幸运@@
控制室
联合政府
詹森
警报@@
鉴证
不知所措
免除
山洞
布利
抢救
搭讪
无意识
溶液
白血@@
西伯利亚
览
身着
轨@@
迪安
阀@@
高度@@
ty
乙烯
伊莲
农田
受人
可口可乐
后腿
因特网
多夫
居住@@
彼此@@
拨打
教义
显示器
柜@@
洗衣房
牵涉
联手
苟@@
这样一来
骨髓
专制
侵略@@
劳斯
取得成功
口头
史蒂文
四条
坚硬
声望
懒惰
抵
拉斐@@
无声
有话
柱子
渔船
行动@@
警队
赛场
退学
鄙视
阁
6000
ear@@
一盘
不符
乞丐
伊凡
伊朗@@
先例
南省
历经
咆哮
塞尔维亚
复习
夫曼
巫婆
游乐场
痛快
知识@@
花序
莫妮卡
飙
鲁迪
men@@
吸取
尘土
挤压
摩托@@
深深地
现存
索菲
绳索
萨科齐
薯@@
麼
81
两块
促销
健康状况
催化剂
充满活力
利润率
彼特
招致
收下
涂料
纸巾
脊髓
通话@@
麦肯@@
一大早
一扇
千万@@
参
我关
手无@@
扔出去
斯图
日内瓦
法老
浮现
澡@@
火热
熄灭
窜
第八@@
诉讼@@
all
丧
人际关系
仍会
件事
卖淫
失忆
很早
最受
没有@@
泌@@
渊@@
渔民
爱情@@
褪@@
送货
速率
颜
inc
令人吃惊
公用@@
凯斯
坚守
失去@@
学徒
正向
永
洗漱
物价
美貌
脸颊
茬
远远@@
防线
驰@@
克曼
冗@@
剥
加尔@@
古典@@
埃拉
大洋
太累
学说
我快
护者
挥舞
旁观者
歹徒
猴@@
琐
盗版
祝你们
职守
觉醒
赦
迪拉克
阻塞
阿卜@@
人力@@
人命
几分
圭
好过
巡警
得罪
心怀
战斗@@
教区
无数次
极少
泛滥
活命
海选
生日派对
科迪
聋@@
脱下来
英雄@@
规格
迷住
钱财
长期@@
集成
不道德
前额
十字路口
华人
口腔
国民党
挨饿
改动
新近
曼尼
歹
知名@@
衰落
达姆
63
ay
不留
东北@@
倡导
停尸房
兰州
厢@@
少于
排出
敢于
无条件
无穷@@
洞里
稳固
薪资
表扬
西北@@
车票
雪橇
亚斯
亲眼看到
北韩
单车
巴拿马
水槽
珊瑚
球棒
生机
粹@@
精选
节食
苏打水
萝
薄膜
锚
防火墙
一棵树
中国人民@@
佩服
偏执
偏爱
卫兵
只手
呦
噪@@
搁置
早起
晕倒
普雷@@
杀虫剂
榨@@
殖民
灰烬
绩@@
肥料
该党
调解
黑手党
一通
不经@@
人马
保养
兰花
刚来
坎贝尔
大喊
巴塞罗@@
战舰
杀伤@@
泉水
火箭@@
熄@@
环保@@
现已
甸@@
肤浅
药丸
蚀
视而不见
足球@@
这般
高明
82
一世
丝绸
修剪
回忆起
在世界上
很惨
收紧
斯拉
烹@@
赛跑
跋@@
龟
僵
公立学校
协同
只见
四人
尺度
平方米
开办
恰恰相反
想方设法
打人
打开门
打火机
擅自
病变
科学研究
突击队
都还没
静静@@
题材
130
71
96
不容
偏远
内斯
冯
察觉到
岂
开往
得克@@
懦弱
栓@@
氰@@
牧羊@@
王位
疤痕
皱纹
躯体
餐具
高中生
伦特
体检
侍
债券市场
冯@@
口红
坠@@
宾至如归
慢跑
我常
拼写
放射
每股
流放
疟疾
矛@@
碾@@
笔者
而过
舞女
透顶
预警
驱逐@@
光学
判断力
勃起
吾
呕
哲
城市化
基因组
天津
太忙
太酷
妓院
就会
崽子
强尼
放出
桂
水稻
翼@@
赃
迷宫
追溯
长久@@
附件
一期
了如指掌
事实证明
伎俩
公平@@
再生能源
冲击@@
凿@@
多彩
好得多
对性
希瑟
抬高
收容所
暗号
硅
禅@@
贫民窟
路标
迪士尼
逝@@
遵从
高估
鲑鱼
350
一招
两半
么@@
医务室
太紧张
娘娘腔
山坡
常有
把柄
殷@@
深层
烯@@
真人
糖浆
胶囊
腕@@
舞厅
袭击者
说家
雏@@
1993
事务@@
伊特
偷偷摸摸
兴奋剂
勾搭
合法化
吊死
咪咪
奖品
奴隶@@
捐赠者
效仿
有件
独家
盔甲
碰见
等一等
签个
莱姆
西班牙人
觅
选区
84
am
ation
ki@@
乱来
二世
亮点
冰球
初选
加索
发生变化
后裔
大厨
抵押@@
拿枪
编织
耶稣基督
路德
为数@@
买些
休想
击手
剪辑
加勒比@@
埃塞俄比亚
夕@@
孢@@
常人
打到
暴风雪
标语
比重
炸毁
烧焦
爱国
玫瑰@@
相见
突破@@
篡@@
诸如此类
诺曼
闯进来
髓
her@@
三家
上下@@
举起手来
二次
刺穿
厘@@
可得
坠机
奖章
心肠
捞@@
推荐@@
斯坦福大学
无所事事
机能
残留@@
泉@@
混在
珀西
蠕@@
跳出
车轮
饱和
高山
cu@@
不妥
不提
仙女
供电
保全
奥米
已故
情绪化
惶@@
拍卖@@
换言之
放慢
枪战
清新
瑞士@@
生产率
糕@@
肢@@
起誓
身手
这一@@
金星
门铃
陡@@
lan@@
伯里
公然
加拉@@
安德烈
抛售
抱负
拔出
招来
法郎
温家宝
潜
直升飞机
睡一觉
著称
讨论一下
闭上@@
集体@@
非政府
韦伯
高等@@
1200
ps
人队
吐出来
哈里森
商讨
打折
拉链
推高
无形
比方说
热情@@
爱荷@@
瑞奇
腊@@
轮流
重来
ate
佛罗伦萨
功能@@
变换
固体
复印
大都
好喝
尼基塔
并用
怯
推特
掺和
本田
欢笑
氟@@
瑞恩
统计数据
脓@@
莫名其妙
说教
过床
雪佛@@
2020
ed@@
vo@@
一丁@@
一楼
不大可能
不起来
人生@@
副队长
卡西@@
发挥作用
只得
坦率
带动
常说
强奸犯
悄@@
浙@@
溶解
瘀@@
皇冠
结盟
老头子
脏话
青年@@
94
之声
再好不过
剑桥
功效
匹兹堡
咯@@
思索
成品
挑战@@
桑迪
棱@@
民事
泰晤@@
淌
渴求
煎
纳米@@
羹
自民党
舞蹈@@
逝去
霉
乱跑
些年来
卡拉@@
哈桑
商业模式
大点
学历
引以为@@
拉维斯
林中
毁灭性
沃德
美国公司
转变成
铭
首脑
香料
高雅
中共
之神
五次
出演
发热
名气
婿
子孙
孩童
我过
手掌
捆
斯里@@
新泽西州
滑板
热水@@
盛行
确凿
筹备
绍@@
胆子
蜚@@
连同
闪闪@@
静脉@@
驼@@
ce@@
iPad
一夜之间
举个
付清
入侵者
公会
卡森
均匀
夏令营
外衣
寇@@
我别
抖
模板
深信
盒@@
空闲
绝大部分
蓝图
蔑视
认出来
远足
避
钦@@
银河
克林
共用
出头
卡通
合体
弧@@
津
深海
游戏机
滞
灌木@@
猎杀
耀眼
蜘蛛@@
讯号
赫尔@@
野营
门子
闸
随心所欲
出任
南京
堪萨斯
很深
悉@@
机车
此时此刻
每秒
污染物
皮肤@@
艾米丽
西服
调查结果
象个
质问
通报
邮政
闪耀
阿姆斯特丹
W
rou@@
予@@
亿年
伤到
先去
内置
华州
合法性
呆子
咳
售出
帝国主义
惑
摩天@@
核查
欢喜
深色
演化
猎犬
简易
精品
紫
罪恶@@
菊
规避
输送
进门
透明度
邻居们
黑白
for
主导地位
俄克拉@@
保时捷
全心全意
公文@@
出乎意料
劳埃德
原创
四分之三
埃莉@@
寨
帖@@
录音带
表述
语音信箱
骗过
101
67
ga
一家@@
伯南克
勘探
后边
因果@@
导管
干完
幼儿
开动
弄死
心头
恶性
所罗@@
执着
捆@@
樱桃
气流
猿
留心
第八
菲利@@
落实
表妹
贬低
躲过
里程@@
隐秘
一试
下游
不然的话
低廉
关爱
台北
呜
妊娠
德黑兰
快捷
慈悲
房间内
执政党
查阅
猎手
称号
经验丰富
缆@@
赃@@
避孕@@
酒瓶
陪同
面粉
一大笔
世贸@@
之久
住口
动脉瘤
啥时候
喋喋不休
外语
姑妈
巴勒斯坦人
度假@@
弗兰基
教给
新款
有效率
洛克@@
炮弹
盼望
离岸
第一条
纾
缀
罗丝
蛛@@
触动
越发
难免
雪莉
高空
魏@@
仿
佐伊
其一
几步
到头
前夕
参照
受访者
品店
干洗
引来
悬
搬到
撞车
昔日
有份
没变
湿地
灵媒
社会保障
膜炎
萨顿
谈及
谢尔@@
那幅
里夫
魁@@
不忠
元首
冕
去处
取胜
叛逆
周期@@
场主
士长
守护者
寂静
开辟
得主
惭@@
挂断
案发现场
毛骨悚然
毫克
电极
瞎子
究@@
紫外线
纳斯@@
视图
赏金
超自然
转告
近几个月
par@@
一提
也@@
以南
价格上涨
兰卡
同一天
哈利@@
嘟@@
女主人
季第
梢
残暴
玩过
真人@@
耐
莱斯特
钢琴@@
飞行器
饵
一代人
亚洲@@
伞@@
儿科
巨大@@
弗洛伊德
房主
打爆
栽培
涕
特人
班级
篱@@
艾尔@@
艾米莉
薄弱
蚁
装配
赶过来
路易
这身
通货@@
78
79
ls
俩@@
兄妹
再次@@
医护@@
啊@@
境况
寇
德拉@@
想必
时要
法拉利
润滑@@
负面影响
重伤
金币
领导层
高额
Bu@@
上周末
中东@@
仅为
击毙
喷嚏
大家伙
孟加拉@@
宝座
巴赫
扇@@
有意识
母牛
每张
灵活性
种植@@
科罗拉多州
第九@@
精华
翠
驻扎
28@@
74
ell
上庭
克里斯蒂
养成
劈
动乱
唤起
复杂@@
外汇储备
子民
捆绑
施密特
殡@@
特蕾西
经营者
罗素
西南部
谍@@
资产阶级
远比
那双
雷克斯
92
不平
反复@@
史蒂@@
妒忌
尽早
开阔
推移
活得
精密
罢
至极
词典
试一试
躯
进水
门徒
面谈
饮品
1989
are
人死
先别
几何
切掉
回升
大叔
大有
急速
拍卖会
斑点
标志性
概括
汪@@
电动汽车
盾@@
议论
那要
醒来时
驴@@
97
一月份
以期
克里姆林宫
全民
却说
坚
外科@@
对峙
必不可少
换来
搁
教父
数以千计
新奇
有车
查利
然大@@
生计
男女@@
疗养院
空地
致电
草药
认不出
较量
道格拉斯
靡
ry
一无是处
互联
化物
博格
取而代之
大号
大王
微粒
忧伤
文凭
斯勒
点至
睬
私下@@
线条
维系
臭味
行得通
衍生品
西岸
一言@@
伊迪
保人
几英里
刚果
奢@@
徒步
思绪
推销@@
数周
旅行社
有利@@
椒@@
波里
演绎
灌溉
辐@@
降温
业界
之战
反应@@
地为
声势
定位@@
密苏@@
小区
尽所能
托斯
水量
海面
照样
着装
自相@@
详情
轻轻@@
雄心勃勃
ser@@
下定决心
倾
包装@@
卵子
四十
外交部长
沉思
申诉
皇宫
神经质
详尽
辉@@
金融服务
阅读@@
马丁@@
上风
下半@@
不相同
前辈
咋@@
外汇@@
大错
富士@@
嵌
拖累
海平面
瑞尔
科索沃
线性
花生酱
赵@@
轰动
过热
那点
主办
二月
出击
创纪录
卡斯特罗
壁垒
大马@@
德尔@@
披
捐给
日光@@
晋@@
泄密
炎@@
甘地
看不清
葡萄园
讲究
迫切@@
钟情
89
ang@@
不切实际
创业者
加州大学
卖方
婚外@@
富翁
拼图
捷克
服装@@
直到现在
省钱
神龙
统统
肯塔@@
艰巨
西北部
过不去
逼近
shi@@
乓@@
伊万
几件
吉特
吱@@
国籍
图纸
填充
多纳
征求
心血管
性交
揽@@
撇子
旺盛
爵士乐
老百姓
胜利@@
荆@@
蔑
西海岸
赚取
身份@@
配不上
73
ES@@
一打
一职
他时
传唤
出城
卡姆
向着
吞下
地铁站
处处
失踪人口
孕育
尼泊@@
年人
广东
意大利语
扫兴
敌军
斜
期权
窟
茶叶
财政赤字
这头
ki
ks
上岸
切换
初始
卖命
名牌
嚷
大炮
奥利@@
宠物@@
庄严
强迫@@
斯大林
竞选活动
记忆力
遇难
sha@@
一举一动
一塌糊涂
书呆子
买方
副队
原子弹
发电厂
咒@@
哈克
哈珀
坏掉
岸边
正忙着
比作
没完没了
特勤
田野
社会学
纸张
罪魁祸首
羁@@
耀@@
辞去
音响
音频
马利
驭
ess
im@@
tt
一岁
不及@@
且@@
人事@@
呻@@
布莱斯
席卷
心烦意乱
拨号
果酱
潜伏
的确@@
睡觉@@
移民局
空中@@
终究
绵羊
自然界
艰辛
蹄@@
面纱
不可或缺
剃
区域@@
单人
吻@@
婶
小菜一碟
巡演
年份
总督
抚
捏造
无缘无故
法兰克
海浪
牙买@@
绘
脚踏@@
过难关
ste@@
人住
会议@@
佩顿
停顿
喀布尔
嗅@@
圣诞礼物
坚持下去
天后
夸奖
实践@@
屏蔽
年末
德福
志愿
想不起来
拿手
撰@@
有朝一日
果冻
次世界大战
特勒
犹太教
珠宝@@
睡过
药剂
蓬勃发展
衣着
门槛
际@@
颇具
飘
60@@
BA
不复存在
供应@@
全身心
半径
单身汉
压低
告密
哪去
商品价格
太空船
布森
徒步@@
怀疑@@
懈@@
执行长
收银@@
文艺复兴
更快
有素
海港
海蒂
现年
畜
瞬@@
美联@@
配套
限期
险境
一顶
个世纪
做主
克里斯托弗
助于
劳动者
吸食
多米尼克
奋力
当地政府
抽搐
放任
料理
旺达
朗普
气愤
气概
瑕疵
瘸@@
直面
肿胀
自如
莱拉
衬
还原
不入
亚太@@
喷发
嘎@@
宣判
尼卡
懊@@
戒掉
格纳
海姆
炎热
热衷
珊瑚@@
盟国
筹划
苯
藐@@
计较
记错
越好
跨过
还清
里士@@
mm
一对@@
一案
切实
勋
北朝鲜
可怜@@
哈萨@@
家庭作业
就餐
底里
施舍
有待
木乃伊
横跨
活检
炉子
热潮
犯规
看管
神情
种群
累累
而行
股票市场
肺癌
脸谱
艰@@
错觉
闹剧
亮相
勤奋
嗅觉
寝@@
总体@@
恍@@
感想
摆放
淑女
狼人
王星
矛
神明
管理系统
纵火@@
职人员
记不清
龟@@
CI@@
fe@@
反向
四川
声名@@
安大@@
密尔顿
干净@@
患病
批评家
拉尔夫
改编
斯普@@
新世界
每时每刻
渺茫
烙@@
老子
螺旋
诺克斯
迪斯尼
通风
问及
阿里@@
ul@@
不同@@
刑法
动器
北欧
围墙
土耳@@
大力@@
奥娜
小厨房
打乱
田地
眷@@
臀
贾斯廷
邮寄
锦涛
阿德@@
马克@@
af@@
tri@@
呜@@
盹
il
pple
va
咖@@
噜
彭
83
ca
ig@@
准备@@
动物@@
砂
伪
尼克@@
毕
骚
ibm
tt@@
不敢@@
洛特
袱
鲨
ol
ort@@
乃@@
傀@@
哇@@
姚@@
碟@@
芒
逮
91
com@@
pa
yn@@
婉
漩@@
纱
robert
荒
评论@@
個
琼@@
mba
渐
69
ford
尉
宇航@@
掩
措@@
镖
集中@@
mor@@
框@@
洛杉@@
茜@@
镀@@
Y
cor@@
弟@@
猥@@
160
壤@@
筛@@
经验@@
高级@@
庙
愤
榈
悦
毅@@
滋
绊
蹩@@
ari@@
youtube
憎@@
椎
髓@@
卫星@@
小心@@
菅@@
骸
ang
ia
破坏@@
gra@@
um
栗
棘
颖@@
ack@@
戏剧@@
li
san@@
乞@@
彰
膨@@
锥@@
cho@@
熙
毙@@
簧
迹@@
一夜@@
陶
han@@
电动@@
3d
ok@@
惑@@
斋@@
躬
韧
榄
榻
槟@@
涛
疾
钝@@
25@@
宾夕法@@
昭@@
筝
tre@@
呛
旦
茂
酝@@
tra@@
俄亥@@
蒋@@
谣
隘
鸭@@
Q@@
刹@@
捷
暑
牵
玲
磋@@
ance
ku@@
就绪
携
暑@@
监管@@
靓@@
05
pe
儡
揪@@
煽@@
纲@@
蝇
邸
阐@@
鞠@@
驳
斧
踹
1970
1988
养老@@
寐@@
挽@@
旅行@@
眨
租车
羔@@
芝
bbc
corp
个星期
咪
殉@@
渺@@
焉
恒
究
纤
胱
腺癌
譬@@
钳
cha@@
叔@@
衍@@
hon@@
ob@@
嘻@@
庙@@
绸@@
艘@@
芯
荫@@
赐@@
蹄
隶@@
04
妄
恳
爹@@
蔓@@
蚕@@
厢
厥
嫩@@
的是
脾@@
蜗@@
铎
box
col@@
亚历@@
殴
汹@@
睁
秉@@
竞争@@
耻
代人
矢@@
8000
坍@@
禄
蓬
蹊@@
键@@
崔
栗@@
笆
ht@@
my@@
厮@@
啃
啦啦@@
囱
樱@@
熬
ing@@
ker
信箱
克林@@
抢劫@@
聪@@
侣
摒@@
锻@@
08
international
媳@@
蝶@@
敛
柿
涅
自在
del@@
eu@@
ml
俭
宛@@
硫
稼
粪@@
蝎@@
言人
诋@@
从未@@
嗷
风险@@
丈
妃
慧@@
貌@@
land
沫
睿@@
虹@@
袖
路易@@
lo
sti@@
哀
嘣
天文@@
挟@@
裹@@
酪
勺@@
橄@@
磷
辍@@
阑@@
馅
匮@@
幅@@
扒
研
谅@@
ir
ya
咧
拙@@
gar@@
叽@@
清洁@@
芽@@
颓@@
gen@@
ll
national
憋@@
obama
兄@@
浣@@
绯@@
腕
ju@@
影院
殿@@
觅@@
paul
炖@@
贤
fu@@
str@@
不懂
亚利桑@@
蛎
鳍
360
佑
宇@@
煞@@
ant
mi
地理@@
瞪@@
胀
使馆
晨
灶
狡@@
2500
ipo
击队
巴马
惬@@
适
音机
bs
ok
俺
凳@@
嘞
揣@@
普森
穹@@
缕
膳@@
骰@@
嘶@@
籽
den@@
全球@@
圭@@
挫@@
茧
鳞@@
1979
ac
有限@@
注意@@
痰
萎@@
虑@@
7000
囚
摸摸
笛@@
mac@@
sy@@
大西@@
翩@@
亨
咀@@
显示@@
tar@@
呕@@
定了
腋@@
螃@@
允
外线
磅@@
ka
哼@@
坨
掐
疱@@
绣
赋@@
berg
capital
ft
linux
刃@@
婴@@
拌@@
會
枫@@
睫@@
篝@@
肽
ori@@
旬
瞒@@
腓@@
ani@@
nasa
事事
定性
榨
猖@@
盏
圣诞@@
嫌@@
悖@@
联系@@
数字@@
洛伊
缄@@
聪明@@
辫@@
寥@@
枕
萨科@@
诡@@
密歇@@
慧
斤@@
sch@@
坤
敷
澳大@@
熙@@
碧
1987
加利@@
藻@@
诀@@
谭@@
厩
姥@@
慑
宪
眩@@
祈@@
钦
啬
悟@@
梗
胞@@
09
1986
pu@@
tel@@
弗洛@@
彰@@
铲
mit@@
与此@@
吟@@
屑@@
诬@@
fi
凌
叨@@
衔
霆
别无@@
崎@@
膏@@
暮@@
迦
魅@@
fr@@
ys
劈@@
巨
昆
殊@@
萤@@
鹤
zi@@
塘
怯@@
pri@@
汲@@
立学校
舒
1985
_
den
撕
殆@@
10000
mark
嗝
羽
迪斯@@
业者
共和@@
勾
勿@@
否@@
哒
垢
失业@@
扼@@
攒
行车
贝卡
轰
估
厉@@
扛@@
4400
侥@@
拷
沏@@
瞄@@
能性
谊
豌@@
一下@@
夭@@
抒@@
斯图@@
爱德@@
浩
癫
瞥
钳@@
ent
堤@@
琥@@
躁@@
鞭
鸽
发电@@
录音@@
蛤@@
ank
pc
ven@@
内外
尔西
无处@@
枉
甫
督
羚@@
1960
mer
咸
怜
裙@@
mil@@
world
媚@@
瞌@@
瞻@@
罹@@
胚@@
醛
岂@@
格兰
by
ver
教士
殖@@
纬@@
氯
狐
01
刘
妨
实习@@
拉登
掀@@
氪
耻@@
菩@@
匣@@
汽
物理@@
β
潇@@
锌
陋
匆@@
羔
萝卜
前走
很久@@
沌
炫@@
皿
茉@@
萃
被害@@
james
克逊
囤@@
昌
棵树
暧@@
波罗
烊
萦@@
por@@
锦
george
巅@@
情绪@@
栈
狙@@
萨德
谅
采取@@
鞍
项目@@
馈
吴
咕
预
澜
瞅
稀
趴@@
so
伊莎@@
出人@@
啪
憩
捏@@
炙@@
焰@@
爱尔@@
盎@@
跷
陕@@
peter
协
蹒@@
锥
dd@@
党人
坪
就业@@
泣
ko
mail
丸@@
币@@
攸@@
梭
bur@@
倚@@
务员
蒲@@
马斯
ina
ten@@
喃@@
牲@@
矶@@
钝
all@@
sen@@
une
捧@@
涵@@
癫@@
谣@@
脐@@
茵
婶@@
峡@@
巾@@
慨
溶
疆@@
ital
sal@@
sity
―
伊斯兰@@
嘀@@
销商
125
tive
华尔@@
比亚@@
瘤@@
谬@@
顷
ice
回头@@
嫖@@
帚
汞
精神病@@
肴
酥
鞘
bp
ment
the@@
吱
臆@@
迎
鸥
wo@@
国人
昨@@
殃
禅
竖
赎
遥
zon
不起@@
括
斯加
曙@@
炽@@
om@@
一等
匙@@
拣
硕
篷@@
萎
mac
仨
溃@@
祟@@
逢@@
che@@
tel
嫂@@
蛾
酬
richard
东南@@
俏
葱
豁@@
酌
1982
450
丫@@
崽
弛
搁@@
蓄
阿姆斯特@@
飞行@@
sen
壕
揉
斟@@
荐
诞@@
邋@@
gr@@
us@@
wh@@
嘎
惦@@
逞@@
钙@@
录像@@
掏
詹
跚
钥@@
删
坟@@
宝贝@@
幌@@
捎
提琴
疙@@
绽@@
bra@@
ew
mat@@
俊
函@@
姨@@
猿@@
醺
ff
tan@@
val@@
哗@@
回忆@@
峭
桔@@
汐
荫
est
姿@@
无数@@
僧
掰
格鲁@@
渠
观者
霞
02
ay@@
wal@@
凤
瞳@@
肤@@
谚@@
金正@@
droid
怂@@
掘
摧@@
昼@@
祀
舷
讨论@@
遢
06
ai@@
ur
合法@@
晦@@
瘩
蹋
饲@@
ceo
壤
徵
扛
狸
绚@@
继承@@
`
勃勃
奋
如说
一分@@
一动
睦
赝@@
cla@@
好了
炫
ana
ney
ong
俘@@
励@@
嗎
瞄
ger@@
亟@@
佼@@
barack
pre@@
布什@@
慨@@
泻@@
纳森
耕
诫
mr
pon
为人@@
出发@@
忏@@
潦@@
生日@@
贫民@@
赡@@
fer@@
net
优惠@@
嘈@@
孚
梳
沥@@
疲力@@
笋
膛@@
酰@@
难关
07
<
一切@@
媲@@
我爱@@
晰@@
簸
遗
遛@@
锐
1945
my
了吧
剽@@
帘
栩@@
澈
躬@@
hel@@
ti
卓
怡
淀
蚤
无故
鲍
anc@@
les
叮
蛙
讣@@
邂@@
霹@@
颊
伊利@@
恤@@
拂@@
智能@@
ran@@
sto@@
厕
唆
庇
拎
潢
眩
竿
8.00
g20
姗@@
瑕
虱@@
颚
1984
chi@@
eli@@
tor@@
允@@
繁
豹@@
躯@@
醺@@
陨@@
骷@@
va@@
wto
冶@@
格拉斯
瘀
蹂@@
邮
冉@@
曰
氟
碘
袭@@
sta@@
洗手@@
牲
ben@@
决策@@
呐@@
惧
為
秒@@
逅
eri@@
ld
ww@@
击者
噩@@
拣@@
播放@@
替代@@
涸
爪@@
萧@@
躏
镁
war@@
垄@@
徽@@
螺
谐
靶
cr@@
ep@@
lea@@
lee
憋
蟀
钛
ence
gre@@
嘘@@
斤
污染@@
筏
蔼
跻@@
珈
虾@@
蜒
朦@@
辨
lar@@
ra
shi
威廉@@
悲
惺@@
括@@
沧@@
灸
睫
蒸
蜿@@
驹
ie
lit@@
坟
徽
搂
攒@@
烯
癖@@
西西@@
逻@@
zz@@
啼@@
恿
拧
柳
獗
痒@@
贬@@
辅
1978
绿灯
蟋@@
贼@@
cs
ct
健康@@
印机
嗓@@
扒@@
炖
瘫
苷
葱@@
褶@@
侬
唑
悍@@
撮
浸
理工@@
矣
穗
退休@@
170
习惯@@
恳@@
民意@@
苛
蚀@@
蜷@@
选人
魁
ipod
宋
某种@@
氧化碳
浇
秃
稻
1972
ite
α
坞
廉
循
拭@@
蛋白@@
髋@@
凝
刨@@
唧
憎
甥
肆
肋
bor@@
ny
唬
嗅
腌@@
dr@@
凿
哺@@
嚣@@
巫
後@@
怡@@
旁观
缪
得通
枢
砾
衫@@
赘
king
崖
擒@@
焚
鹫
伶@@
滕@@
瓣@@
舅@@
赋
赤
can@@
gs
nu@@
唠@@
多克
孜@@
撬
葫@@
11@@
1975
ban@@
tor
孪@@
役@@
旷
冕@@
听器
弘@@
澳
腥@@
西州
dar@@
far@@
java
ot
偷偷@@
医务@@
午
哎@@
国防@@
尼日@@
彼
撮@@
芝加@@
茸
莺
薛@@
len@@
到此@@
择@@
拴
棍@@
胧
1981
apple
珥
Q
oc@@
怜@@
洽@@
辗@@
锤@@
鼾
eg@@
sk@@
蒜@@
說
迂@@
鼬
御
恭
淹
湛
鹤@@
1973
hiv
pt
si
za
动脉@@
坊@@
姜
涯
漠
稠@@
不论@@
徵@@
忡
忱
挟
涎
渥@@
蔽@@
贾斯@@
跛@@
踵@@
逸@@
ly@@
亢@@
仑
停车@@
咳@@
强奸@@
忡@@
燕
眸
睾@@
臼
ace
net@@
昵@@
笃@@
萨斯@@
咎
喵
噪
天主@@
慈
涵
示威@@
胫@@
魇
hol@@
tur@@
乙
札@@
枭
焙
谭
蹈
辈子
mur@@
漂
磕
稚@@
翅@@
负债@@
..@@
fin@@
喱
撼@@
擎@@
暨
疹@@
联网
6.00
帷@@
捣
是说
渲@@
艰
谛
亩
反对@@
悖
箫
酥@@
03
ha
ji@@
research
van
way
死亡@@
牟@@
腱
萃@@
锢
ba
dia
pen@@
×
嘟
栖
耦@@
肛@@
蕾丝
蜕@@
aig
一次@@
寺@@
慷@@
杉@@
脾
蹦
醋@@
髅
80@@
公子
单身@@
唬@@
姥
婉@@
崎
戳@@
晴
240
cal@@
唧@@
意料
毅
腮@@
ri
承包@@
捂@@
枉@@
橘
疽
苛@@
讥@@
220
ect
ro
克里斯蒂@@
全力@@
啰@@
惚
朽
莽@@
蔗
龌@@
od@@
厉
妒@@
嫂
对劲
岔
帘@@
痣
眶
10.@@
ung
刁@@
撂@@
盼@@
7.00
ah@@
ary
亚历山@@
媒@@
甸
ee
nor@@
一团@@
健身@@
基尼
筷@@
阉@@
～
1967
ans
uni@@
 
兒
咚
诲
象征@@
ack
hal@@
主导@@
嗜
屌
筒@@
缔
翁@@
芦
邑
镳
啮@@
帧
悴
挚@@
涤@@
褒@@
闸@@
鲸@@
bri@@
tal@@
window@@
厕@@
寝
掳@@
申
磁共振
访者
铬
dge
ip@@
za@@
世界大战
牠
蘸
诱
邱@@
郁症
mic@@
卉
憔@@
憧@@
檐@@
绣@@
袜@@
镍
鞍@@
phone@@
喻@@
蛊@@
1971
office
soft
zu@@
傅@@
嚎@@
挝
楣
3g
cri@@
ill
卤@@
圳@@
戚@@
燥@@
绷@@
bill
笔钱
1969
hy@@
mo
史密@@
嗤@@
嘻
橙
毫
猝@@
獭
缭@@
芮@@
1983
des
pp
tal
哈佛@@
忆@@
方向@@
浊
犹太@@
纵
age
ber
ory
呱@@
墩
府@@
心勃勃
攀
激进@@
ale
侨@@
霾
青春@@
750
ans@@
cnn
un
win@@
犹
翡@@
鄙@@
骡@@
lt
兢@@
婷
枯
碑@@
磺@@
络@@
萍
ach@@
mes
space
wil@@
xi@@
倚
兑@@
叼
无论@@
瘠
看得@@
蝴@@
跤
1974
ii
ph
亭@@
媒
戛@@
＂
res
俏@@
倦
券@@
塑
筐
翔@@
饺@@
3.5
ere
憬
梨@@
楼去
肋@@
迭
醇@@
阪
你去
彦
彪@@
忿@@
惮
檀@@
烩
痕@@
褐@@
龊
bil@@
our
亵
从那@@
斐
新加@@
透了
鳄
art@@
oo@@
兴奋@@
回家@@
怠@@
拭
旱
柬
滩@@
籍@@
馏
咔@@
娼@@
皂
脯
茸@@
铛
sec
不复@@
坦白@@
峭@@
布赖@@
糗
苍
虱
蚊@@
袒
黎
institute
出走
呣
咩
哦@@
所在@@
盥@@
rac@@
ws
唯
迥@@
钮
12.@@
1949
char@@
gh
per
娴@@
矿石
羟@@
钚
1976
gps
new
利安
剁
撩@@
晋
魏
yu@@
产阶级
叁
汁@@
溃
缇
ah
ham
ic
伽
咫@@
星人
椅@@
泞
蝶
透明@@
阵子
bc
lin
os@@
在此@@
挠@@
摧
期内
疵
粥@@
芜
话说
197@@
book
eng@@
ther@@
控器
舟@@
stein
stri@@
ts@@
刽@@
曝@@
狒
益于
砌
缆
ron
不在
仆@@
加州@@
图书@@
意大利@@
涤
溯
磺
窦
胳@@
郡@@
醚
霜@@
哝
啃@@
嚼@@
渴@@
煞
簧@@
辟@@
鳗@@
100@@
200@@
em@@
失踪@@
巷@@
帝国@@
攫@@
渝
相当@@
辟
迸@@
dre@@
fre@@
ling
sey
恺@@
砷
空间@@
窦@@
西班牙@@
锂
bl@@
dri@@
ian
kim
san
仕
佛罗@@
咧@@
嘭
嘱@@
姻
忒
祷@@
雹
tro@@
tw@@
　
一谈
倔@@
承担@@
氨
澎@@
监护@@
蔗@@
麋@@
sky
ya@@
柑@@
械@@
比利@@
绰@@
蕊
雳
bb@@
fri@@
ston
ue
嬷
槌
淮@@
馈@@
0%
bas@@
sar@@
wood
卡罗@@
晾
朋
狒@@
矗@@
鸠@@
鸡尾@@
web@@
仕@@
冤
唤@@
地人
峡
愉
汀@@
簇@@
蓉
酋
don
gen
吠
好了@@
曳
烁@@
ano
ham@@
弈@@
撵@@
烃
谕
馁
ak
are@@
叙
孝
惋@@
揪
睦@@
碌@@
禀@@
脐
裘@@
鹏
cm
kar@@
tom
嘱
堕@@
海中
睛
礁@@
窒@@
茵@@
蛆
询@@
art
ings
宛
恪@@
滓
烘
皈@@
碌
阂
app@@
bre@@
bun@@
dvd
mann
ry@@
spa
well
拮@@
摩斯
榴@@
瞭@@
碘@@
祉
觎
邻居@@
13.@@
ble
bo
ef@@
ica
sel@@
tic
痴
竣@@
蔓
运营@@
锚@@
dc
匀@@
夷
独裁@@
盏@@
绷
aa
mp
om
press
依赖@@
孀
尔夫
履
意味@@
楔@@
磐@@
菱
趴
ak@@
tions
ture
匈牙@@
憾
棕
飙@@
ono@@
曹
歐
秦
茄
1.2
air@@
ben
kindle
ow@@
侵
夭
瞥@@
耸
铸
bro@@
cre@@
ho
ky@@
pat@@
sion
son@@
一惊
焰
牒
聪
肘@@
觊@@
诧@@
逍@@
阁@@
靡@@
颞@@
field
掷@@
爵士@@
艾滋@@
dr
ei@@
ner@@
steve
up
哗
坷
岖
日常@@
枷@@
橱
瓢@@
纬
蔬@@
轧@@
ek
line
stu@@
央@@
姨
测器
燔
特兰@@
甄@@
穗@@
竿@@
絮@@
肾上@@
酩@@
颌
ess@@
itunes
mal@@
ore
垦
對
昧@@
株@@
蟾@@
迅
鼎
he
je@@
ting
勉
募
喙
屹@@
托人
旨@@
紧要
袒@@
ali
ding
mel@@
tion@@
公交@@
哉
焊
秤
籽@@
腑
蹬
马来@@
ram
tv
倪
威斯@@
宣
巴基@@
揉@@
搓
歼@@
殊
漱@@
特蕾@@
瑙
疣
ners
pi
ster@@
侃
快速@@
掺
栅
桶@@
汪
踌@@
轩@@
din@@
天然@@
尹@@
斌
胁@@
茅
蛙@@
鳄@@
鳕@@
chris
management
vis@@
嬷@@
熠@@
豚@@
雌
roo@@
媛
孽
教科@@
昔@@
沼
瑜@@
腊
艇@@
酊@@
yer
厦@@
噱@@
妃@@
榆@@
瘪
蚁@@
hen@@
仗@@
妒
权人
窄@@
统治@@
茁@@
莎白
衔@@
bal@@
rec@@
嚎
拙
昼
案发@@
鸵@@
cc
sil@@
william
启
拱
湮@@
薰@@
铉
Z
cen@@
ever@@
sho@@
skype
ty@@
丈@@
厅@@
大气@@
滥
罂@@
遐@@
chrome
ie@@
int
ns
偎
叽
悸
晾@@
沫@@
特兰
芋
芸@@
袍@@
裳
陷入@@
brown
cel@@
lev@@
pan@@
吠@@
哔
啄@@
啶
噬@@
溺
熄
熨@@
睑
萧
鸿
get
max
wor@@
乾
加利福@@
彷@@
惫@@
稠
颌@@
bel@@
cd
ick@@
『
喳
撰
私有@@
篱
蔚@@
cl@@
ech@@
ll@@
loo@@
stone
届@@
摁
沒@@
玛格@@
祝你@@
藩@@
诵@@
跪@@
global
tim
吧@@
杠@@
诊室
豚
fa
fox
han
pic@@
thomas
交道
克力
啜@@
晰
艾莉@@
貂
颠
麦当@@
龛
ash@@
fda
low
tu
』
怠
恰
纷
蝗@@
charles
log@@
point
弧
瑙@@
镰@@
flix
nba
储物@@
坪@@
榴
玲@@
吨@@
啸@@
愣
析@@
涎@@
淑
秆
赎@@
里人
钾@@
morgan
school
员国
惩
捅@@
蛭
诙@@
颧@@
dic@@
don@@
ted
ze
咐
棺@@
注目
疮@@
胞
裨@@
赵
鼹@@
23@@
俭@@
叩@@
扪@@
明尼@@
洙
粟
耿
舵@@
ire
mar
nan@@
smith
在我@@
居室
擒
朔@@
洗衣@@
甭@@
砰@@
绌
蛀@@
蜍
骆@@
hil@@
martin
吏
led
ski
vas@@
俾@@
爵@@
腌
辑
近几@@
﹐
dan
兄弟@@
块头
坛@@
孬@@
忆
概
歉@@
不好@@
啼
桅@@
洼
瀚
蕴
蜥
邃
house
med
ord
溅@@
贿@@
靓
ap
cy@@
des@@
dle
ener@@
grou@@
mun@@
ons
sm@@
stephen
凸
啄
市政@@
库斯
缤@@
袤
遛
鳞
ark
port
国会@@
库里
择
海岸@@
琉@@
疝@@
绽
缮
苞@@
菇
螳@@
andrew
strasse
vo
wn
一想
不算@@
个月
卦
啸
孰@@
屎@@
文艺@@
欺
沓
秘书@@
還@@
酚@@
霓@@
龈
american
dra@@
sur@@
一觉
停尸@@
手来
拴@@
沒
矶
簇
紊
amazon
aw@@
勉@@
啤
惶
支持@@
朽@@
浑
目的@@
祷
铵
雁
gan
gla@@
ich
tz
修道@@
匍@@
妾
汶
癣
眺@@
箔
胀@@
芹
负责@@
alan
df
ebay
let
sn@@
再生@@
威士@@
探索@@
揭
斋
胺@@
苟
蜻@@
闩
inter@@
哩@@
唆@@
寂@@
岳
晦
气候@@
祐
eu
gy
lat@@
ltd
que
ze@@
冀
媒体@@
巴拿@@
沈
湄@@
禧
稍等@@
粤@@
腻@@
腾腾
air
del
end@@
no
儆@@
卡因
堪
彬
恬@@
攥
泵@@
渎@@
犊
臃@@
bi
dan@@
gil@@
kin@@
rin@@
securities
共振
制片@@
搀@@
斯林
珂
腆
襟@@
赊@@
镶
business
cher
dy@@
jac@@
ker@@
vin@@
崖@@
毡
渥
颐@@
din
ssi@@
发布@@
哈根
喳@@
惘
惰@@
搪@@
斡@@
畸@@
筛
轶@@
du
ft@@
ken
lar
sk
tho@@
羁
翱@@
行道
辫
BI
dows
pal@@
red
zo@@
僻@@
劾
涮
然不同
眯@@
缰@@
茴@@
蟆
锂@@
驼
90@@
dd
ens
soci@@
ton@@
哮@@
媳
戟
捐赠@@
洼@@
淑@@
湃
玛格丽@@
纫
纶
脓
蚊
ora
sco@@
ser
俚@@
屯@@
弘
犀
眨@@
箴@@
苹@@
裆
颁
comp@@
gal@@
organ
匈@@
发现@@
执
碉@@
蟹@@
言之
骋
默德
oh@@
们儿
俱
斩
楷@@
涯@@
窜@@
箍
酣@@
魄@@
50000
ach
cra@@
hor@@
嚓
奚@@
撅
机器@@
此而已
缚
20000
cker
hi
if
live
star
噗
徐
悯
栅@@
男子@@
痔@@
祛@@
贪
铂
chin@@
fe
gel
plc
伙人
匡@@
嗪
圃
拂
昙@@
痞@@
苔
釜@@
钞@@
hs
news
sp
乓
亚马@@
匠@@
啪@@
新生@@
窿
苑
钵
黏
ci
cy
exchange
fed
kel@@
kin
partners
刹
啬@@
灼
经纪@@
荚
豺@@
鸳@@
als
cia
dow@@
ex
噎
奥林@@
岭@@
窑@@
绪
腥
馨
ni
of@@
stitu@@
ther
tures
参与@@
各种@@
姊
寨@@
掳
棺
湘@@
羚
讽@@
bert
day
fire@@
rim
僚@@
卿
喀
烷@@
獾
窑
聆@@
除此@@
ox@@
stanley
van@@
wer@@
愧@@
撇
棘@@
楠
芹@@
蚓
ate@@
chu@@
ile
ors
ut@@
wi
剿
唉@@
嗣
缎@@
耶稣@@
苣
跆@@
踱@@
鄙
cer@@
ola
oul@@
ties
ye
保龄@@
揣
腼@@
苜@@
蜓
鸦
鹑
ane
commission
prin@@
shu@@
娇
峻
惺
杏
琦
缛@@
蓿
趾
踉@@
轧
陋@@
馊@@
cur@@
lan
ow
wa
妍
榷
止痛@@
肃
艮@@
路易斯@@
铐@@
鲶@@
act
ata
park
red@@
star@@
侨
夥@@
涕@@
窟@@
诃@@
轿@@
ab
financial
isa
stra@@
wat@@
侃@@
俐
弥
氦
痘@@
窘
难说
麝@@
association
dman
gl@@
lau@@
mul@@
pr@@
tin@@
tte
vic@@
了婚
璀@@
笺
菱@@
谧
蹑@@
bli@@
out
ox
ray
row@@
sun@@
thy
ville
咖
忽
挽
毯@@
涛@@
疟@@
疲
阎@@
靖@@
鹌@@
gg@@
jean
qui@@
檐
水道
特加
酌@@
锹
鲈@@
cd@@
era
ky
mr@@
tics
tors
叭@@
吉亚
嗬
噎@@
奥运@@
无家可@@
柚@@
直言
绪@@
褪
谙
kra@@
may@@
ound
power
sm
vol@@
俨@@
吁
呱
咎@@
妨@@
悚
炊@@
瘸
矜@@
砌@@
秽@@
继续@@
菲特
螂
貂@@
鲤@@
ai
bon@@
bush
fc
kat@@
microsoft
sun
tru@@
∶
以色@@
孢
懦
漓
蕨@@
ani
ec
energy
fl@@
goldman
gordon
new@@
ort
sachs
tle
不惜@@
打个@@
抑
犁
疚
禀
纰@@
羡
蹶@@
酋@@
any
can
flash
gam@@
ins
shar@@
time
word@@
咏@@
哔@@
哺乳@@
恣@@
抠
枣
涟@@
碾
蛛
让你@@
遮
鲱@@
cli@@
gue
mag@@
标志@@
沸
绅
董
诩
鄂@@
enter
mobile
wel@@
倦@@
前所未@@
喃
波士@@
猕@@
辘
阉
阿富@@
點
fra@@
green@@
ous
ris
ron@@
square
tea@@
wer
佯@@
侏@@
办事@@
匡
呸
巅
灶@@
璨
相关@@
耽@@
莴@@
虹
郝@@
麟
auto@@
ib@@
ip
jim
ml@@
ning
vir@@
参赛@@
安吉@@
忐@@
慢慢@@
枣@@
狈
痤@@
缎
翰@@
诫@@
趸
70@@
ann@@
cn@@
ey@@
frank
hea@@
media
op
run@@
偕@@
掀
樣
犸@@
狸@@
禧@@
绍
蔡
虔@@
蚯@@
驶
黝@@
ji
lou@@
we
zer
什么@@
匝@@
吁@@
大吃@@
巡
捶
胚
蔻
麾@@
av@@
city
ics
mike
open@@
sung
哆@@
娼
屡
巴勒@@
擂
湍@@
蔷@@
裴@@
谟
贬
飚
00000
cel
id@@
ou
sy
ters
一举@@
厘
吭
搂@@
町
膳
芭
過
钮@@
骇
鸠
council
mit
咨@@
寡
旭@@
犁@@
痢@@
瞬
纫@@
芯@@
苇
萌
讧
赦@@
跨国@@
鳟@@
鸽@@
bit@@
cc@@
daniel
ery
general
simon
you
囔
士们
愣@@
拈@@
掖
沦
置信
马克思@@
鳖
ill@@
kins
tic@@
wol@@
俑
化剂
垛
巴勒斯坦@@
斯特罗
絮
胱@@
赘@@
辖
fli@@
ome
侄@@
屯
有钱@@
痹@@
脖@@
遏
钴
闲事
鹭
black@@
henry
pra@@
内心@@
娱@@
慑@@
搜索@@
特种@@
瘁
癞@@
监视@@
莞
裕@@
觑
ecb
ini
lah
pas@@
west
〈
〉
主义@@
储藏@@
新西@@
暂
甥@@
莹
谩@@
锣@@
bea@@
bob
cat@@
european
gary
ino
ita
侦
凛@@
弩@@
怦@@
所未@@
漾
澄@@
焕
玺
瑟夫
糙@@
霄
驯
ada
ama@@
bau@@
gic
jonathan
joseph
kevin
vista
摊子
胞胎
装箱
解释@@
骏@@
1.3
center
cro@@
men
nat@@
ny@@
party
right
sec@@
tony
wan
加油@@
并非@@
徜@@
总的@@
搡
汝@@
漪
阿姆@@
ates
clinton
ick
len
scott
vel@@
梧
璜
花园@@
藓
蝎
褂
谄@@
鬣@@
investment
vil@@
汝
炬
蓓@@
镉
霄@@
ank@@
board
eric
stan@@
倘@@
兰达
匐
嘶
峦
幔
志愿@@
槽@@
樟@@
簿@@
褶
辩护@@
铰@@
az@@
force
jan@@
lec@@
works
人际@@
壑
始人
愕
摄
檀
毗@@
沪
琢
瞠@@
筏@@
臊
蔼@@
蚕
蛾@@
诟@@
迢@@
铂@@
鳗
els
pla@@
ree
ure
儒
囧
孟
弑@@
总值
擂@@
攘
绢
舆@@
讬
這
andre@@
joe
kh@@
tech@@
久性
人节
俑@@
傍@@
嘲
摞
斓
暮
杭
矢
花生@@
袁@@
dec@@
dor@@
dou@@
hp
伦比
吭@@
咔
峻@@
翩
肯尼@@
荔@@
虞
行性
酯@@
federal
伙儿
溯@@
理所@@
纺
谤
app
ese
johnson
nex@@
ps@@
sir
之为
別
孑@@
寥
徉
瞻
踞
铤@@
able
bel
gn@@
ja
spo@@
street
tiv@@
剁@@
喽@@
塘@@
捎@@
桦@@
渔
漓@@
瘾@@
眈
缉
菲律@@
藜
蛤
诅
遏@@
镀
／
barclays
citigroup
dro@@
ken@@
link
ross
win
吡@@
啾
确定性
筵@@
薰
邵@@
car
ders
dev@@
ini@@
ith
she@@
sprin@@
博物@@
嗡
壕@@
炳@@
甫@@
瘙@@
眈@@
糜@@
黜
cul@@
ement
io@@
lie
scal@@
南克
头子
娄@@
掂
暄
痿
胭@@
舷@@
荨@@
襟
見
迢
鼾@@
angela
avi@@
ington
key
nick
stock
yi
吮
呤
噬
国务@@
感谢@@
晖
殃@@
私家@@
膀
馏@@
高尔@@
fund
ican
its
nal
pad@@
sing
up@@
via
垦@@
埃塞@@
学金
枚@@
狭
硒
福尔@@
螨
诽@@
锰
ado@@
bin
bridge
green
holdings
im
jones
su
wo
冶
啧@@
坏了
嬴
渤@@
粑
荼
蚤@@
蜢
谤@@
踝@@
躇
遂@@
酪@@
隼
馀
馅@@
berry
fro@@
mg
reserve
zi
凹
娥
廊@@
瑰@@
盔
碴
膺
蚂@@
att@@
brothers
cameron
dun@@
lon@@
pal
sou@@
wave
体化
孤
戊@@
治疗@@
磊@@
绰
臀@@
蛹
西卡
該
跺
鸯
adam
bec@@
ech
fbi
fel@@
hou@@
hur@@
photo@@
们@@
匣
奠
惴@@
煌
笃
給
苷@@
褓
跛
辘@@
郭
酮@@
铯
鹦@@
鹬
ax@@
chi
dig@@
dp
ecu@@
fs
inst@@
los
petro@@
tis
wit@@
尼西亚
杞@@
榴弹
汰@@
渠@@
瘪@@
秧@@
老远
聽
莱坞
ces
eff@@
more
nes
pin@@
sor@@
tter
wan@@
卿@@
娶@@
恃@@
惟
时起
砝@@
立大学
粟@@
蝇@@
襄@@
货店
金山
ae@@
duc@@
gri@@
index
nas@@
yn
不久@@
仲
伎
兀
膊@@
辈@@
都会
铛@@
霰@@
ade@@
ain
har
ren
rio
tran@@
ward
乍
恢@@
无关@@
杵
榔
蟒
讓
酶@@
iii
loud
merkel
sab@@
主持@@
五角@@
孜
彪
曦
澜@@
疱
秸@@
颐
骸@@
ao
cap@@
ez
hun@@
kir@@
mond
ony
sli@@
ten
喏
娱
孽@@
廓
攘@@
杀案
棱
谦
馋
ind
mas
mc
mis@@
mri
sn
store
veri@@
不是@@
巍@@
帜
恸
搔@@
有线@@
犒@@
犷
睽
睽@@
茹@@
阮@@
ator
brian
cs@@
development
internet
sson
vis
yahoo
亵@@
刨
嚯
奕@@
捂
暇@@
柿@@
桡@@
琛
疝
真是@@
移民@@
粱
维多@@
耙
蝉@@
轩
锄@@
风机
麓
eni@@
lett
shop
uc@@
uk
ves
佣
坻
家宝
淹@@
粹
纂
覺
跄
轭
霖
颚@@
饥
ano@@
interest
life
mary
nie
tin
ura
兢
旭
朔
法拉@@
生人
磊
郑
闽@@
陌@@
鲨@@
鳏@@
america
asi@@
pol@@
py@@
sis
tify
vin
奕
杳@@
琵@@
跤@@
雯
饼@@
驮
ake
gro@@
hin@@
jeff
las
lehman
ouse
ses
ven
勘
姻@@
抠@@
擘
朱丽@@
汶@@
淘
眷
考虑@@
肓
莅@@
蜇
褥@@
谓@@
ally
dal@@
emb@@
io
mart
mic
nic@@
rey
sic
state
stro@@
啉
啧
彦@@
怖
戾
搔
棠
涝
眯
硼@@
禾
籁
蜀@@
锏
dv@@
ear
evi@@
pad
pay@@
pho@@
pres@@
ship
steven
tra
tro
var@@
埠
挞
茧@@
蚱@@
蟒@@
裏
走了
轿
镊@@
霎@@
ange
bal
fil@@
how
tain
ubs
一无所@@
上万
咦
垠
崭@@
摩根@@
暹@@
札
湛@@
激动@@
焉@@
睿
篓@@
胯@@
莽
鲔
ault
bu
dol@@
gin@@
jar@@
ler@@
mini
sea@@
shin@@
tab@@
倔
匀
吮@@
呒
幽
曼哈@@
痂
蔬
蜊
铆@@
鹃
^
achs
end
ght@@
jan
miller
power@@
york
叁@@
啦@@
徨
桅
榕@@
汹
砒@@
穹
糯@@
缜@@
罔@@
臼@@
讷
鲭
chen
equ@@
euro@@
fle@@
ical
into
jack
mad
ob
row
sky@@
tty
vs
vy
基亚
妊@@
姆林宫
寐
昵
负面@@
陡
kan@@
kit@@
les@@
lib@@
london
mon
mou@@
rea@@
tan
tes
tta
yon@@

栋@@
楷
渗
湎
牛仔@@
珑
芜@@
跷@@
铢
饕@@
anne
ational
cal
ine@@
mid@@
mir@@
nicolas
tes@@
侮
俺@@
漉
犸
蝌@@
褛
餮
ath
credit
eb
economic
em
foundation
hong
ison
kal@@
ku
side
sler
tti
全心@@
关节@@
可口@@
哌@@
唁
嗖
景气
溉@@
烙
疸
花花@@
锭
韭@@
顷@@
麒@@
ag
bury
cp
deutsche
fit@@
ici@@
lay@@
market
schu@@
zar@@
∙
呛@@
妲
寰
捱
烛
祗
禾@@
粕
绅@@
绥@@
苞
葩
蕉@@
蚪
谬
遙@@
釉@@
雳@@
＆
ari
dam@@
dom
ero@@
illa
less
lia
rit@@
times
吆@@
姚
娄
小伙@@
扳
掴
斯坦福@@
节性
蛰
讳@@
ald
eh@@
logy
manuel
sum@@
別@@
捋
泣@@
绎@@
腮
蓖@@
褴@@
诣
轻重
阈@@
bar
bin@@
code
ena
hel
her
kil@@
ough
royal
sat@@
tar
仑@@
匾
卟
娟
巩@@
恕@@
悯@@
戚
敛@@
槲@@
潭@@
特网
玄
琅@@
砾@@
绞
荟
趟@@
遁@@
酰
钛@@
aga@@
asia
dt
hsbc
ily
ish
sam
vladimir
yle
傢
傧@@
哽@@
灿@@
芮
驿@@
ama
donald
gor@@
leg@@
lynch
mah@@
ona
onic
rich
thi@@
yan
七八@@
事长
啕@@
國
峨@@
廓@@
拘
死了
淳@@
聂@@
裡
襁@@
鹈@@
鹜
黎巴@@
adi@@
ago
ala
anta@@
ast
boo@@
light
min
|
吕
夙@@
掰@@
摹
斯宾@@
歇尔
此时@@
淆@@
熵
猬
瘢@@
眺
肱@@
讼
蹼
霞@@
鹕
alex@@
blo@@
free@@
gb
pea@@
rent
set
uto@@
vit@@
ye@@
〔
亚哥
佃@@
侪
夏威@@
懵@@
捍@@
榔@@
滤
牦@@
蛔@@
酵
铠@@
锑
镣
cit@@
college
ds@@
gon@@
hen
if@@
post
rick
rock
sarkozy
tat@@
word
xon
é
〕
時@@
桐
桐@@
瓮
科罗拉多@@
胛@@
荪
菁
蓟@@
蕃@@
讶@@
谴
践
迩
間
雍@@
鳃
鹃@@
鹊
bab@@
ea
hd@@
hn
ism
kor@@
lu
pper
swa@@
witz
zen@@
不管@@
剌
后备@@
员会
呢@@
屿
摄像@@
敝
瞟
祠
蛰@@
蜃@@
贻@@
鹊@@
aly@@
by@@
fire
fm
gad@@
gaz@@
hl
kes
medi@@
nam@@
patrick
sta
stag@@
咪@@
噼@@
多元@@
徕
掣
桔
皙
谑
钨
雁@@
bell
bir@@
cle@@
dale
dos
eno@@
face
fo
gol@@
hoo
imp@@
mb
mber
ns@@
share@@
sher@@
vi
view
yan@@
丙
兀@@
冀@@
垣
宕@@
惜@@
拚@@
捶@@
杰里@@
汰
盹@@
芥
葵@@
誰
诀
蹿@@
那就@@
锒@@
饺
馄@@
马萨诸@@
﹗
ara
box@@
dat@@
fun@@
hd
ot@@
play@@
romney
standard
trade
亿万@@
庐@@
恺
所为
溴@@
瑞拉
瘫@@
褐
訴
踝
酐
chan@@
ep
jong
merrill
nar@@
oli@@
pel@@
venue
伊丽@@
冰激@@
哞
坝@@
岑
徇@@
恃
戎
掇
擅
敖@@
来得@@
浏览@@
渺
砧@@
竺@@
荟@@
蜈@@
谀@@
躇@@
钠@@
镣@@
魅
鹉@@
aci@@
agency
christopher
esp@@
gag@@
hill
ise
jay
jun@@
lyn@@
touch
啵
圄
姗
崽@@
朕
柚
森特
漉@@
祂
辰@@
铀@@
alo@@
anthony
bul@@
dson
fic@@
fu
lli@@
logo
ms@@
public
res@@
smo@@
sol@@
sts
tter@@
unes
wang
亢
坴
娓@@
歹@@
炯@@
熔
疽@@
篑
缀@@
罗姆@@
蚜@@
蚱
蛊
謝
雯@@
麸@@
ann
bru@@
feed
juli@@
off@@
services
ware
wood@@
you@@
傅
傍
叟
嘀
囹@@
天花@@
帶
忑@@
成千@@
篓
糜
维克@@
踮@@
遵
靖
饨
﹣
alex
anci@@
andy
bat@@
chan
company
die
edward
ele@@
franc@@
gie
ink
ling@@
rat@@
sha
ska
sse
tton
vel
冢
咚@@
块儿
奂
影带
憩@@
涓@@
狈@@
生动物
粼
粼@@
糖尿@@
胁
裱
逍遥@@
钧@@
镐
隅
骏
ban
cast
hillary
jen@@
kers
lay
mberg
now
pit@@
ris@@
science
western
zo
噶@@
坯
廖@@
秤@@
糙
绸
胥@@
舀
茎@@
蜗
跺@@
辊
通行@@
镍@@
馒@@
abe
any@@
ath@@
beth
burg
cer
gei@@
ges
gm
land@@
map
ous@@
out@@
river
ux
west@@
worth
®
中华人民@@
尹
拗
搽
桉@@
溴
疚@@
螈
贮
au
bing
bla@@
cent
centre
core
ely
gui@@
hai
jer@@
kenne@@
po
qi@@
rice
wall
伫@@
励
匹林
咏
嗷@@
孱@@
寄生@@
庶
徳
時
溯到
疗养@@
矽@@
窈@@
經
蓟
蔫
褥
遴@@
anna
bruce
cop@@
gers
hit@@
ira
mers
michel@@
old
oy@@
pm
pu
rs
sia
仃
伶
卒@@
嘌@@
坂@@
奥尔良
廿@@
悸@@
戎@@
榛@@
沛
烽@@
爱好@@
笠
藩
谘
谘@@
镭@@
麦迪@@
dru@@
eld
jor@@
lord
mitt
sche
top
ut
war
堰
婢@@
岬
從
捱@@
潺@@
痫
纭
葡@@
蜀
裘
親
还价
阿根@@
鹳
change
economics
ell@@
eo
ide@@
ive
journal
kong
pd
singh
spi@@
steel
tec@@
乞
垩@@
樊@@
浃@@
给我
羯
谆@@
镁@@
騎@@
daily
ella
gin
goo@@
iner
jam@@
kan
kov
lewis
mari@@
ov
sal
security
埔
慵@@
易斯
枸@@
歼
沁@@
簌
讫
_@@
dar
data
fal@@
fred
health
off
ore@@
sign
ud
ude
water
work
兮
名昭@@
嘧@@
壶@@
庐
掂@@
柩
沐@@
滔
箩@@
給@@
缚@@
翌@@
蝾@@
鞑@@
饷
aur@@
dur@@
gold
japan
mber@@
ong@@
ring
social
whit@@
丹利
傣@@
凰@@
勋@@
咂@@
岱
嶙@@
恫@@
搓@@
摈@@
桎@@
毁灭@@
毡@@
煦
猩@@
瓮@@
砺
硼
纨@@
缸@@
莓@@
蝉
話
讹@@
诌
anti@@
ass
clo@@
dell
electric
harvard
mics
mp3
outlook
shei@@
shell
tele@@
thing
Ⅱ
呀@@
命中@@
唑@@
嫉
掸
民党
氦@@
渭@@
炊
瘘
祢
耘
蚣
说过
诿
踊@@
黔@@
allen
bernanke
cial
court
elle
evard
gi
ille
jobs
mbia
mont
motor
nett
pro
rober@@
ryan
sap
sarah
systems
williams
不用@@
冥
平线
猡
琶
瞑@@
禄@@
葺
诘@@
过面
镖@@
\
anda
aqu@@
bac@@
bloomberg
cctv
central
corporation
eva
good@@
jon
kam@@
neu@@
nit@@
pedia
putin
ran
stry
try
侮@@
冰淇@@
哧
妩@@
峋
惭
憨@@
掮@@
撂
楞
瑜
笞
缅
罄
耙@@
萼
葆
豫
蹭@@
骁@@
bm@@
dai
emp@@
feld
fer
fran@@
gran@@
hop
how@@
km
kno@@
nia
paulson
pr
yes
yu
事人
地铁@@
妳@@
怏@@
描
撵
撸
梏
殓
煲
璧
磋
稽
羯@@
芪
荻@@
蕉
錯
铬@@
锣
開
闰@@
髻
bon
gab@@
gar
hao
jason
jo
kri@@
roger
sar
sig@@
sony
tech
trum
修正@@
卯@@
厥@@
叱@@
啡
婷@@
指掌
栀@@
桓
梵
槿@@
汕@@
沙发@@
法外
狩@@
璧@@
生生
秩@@
臻
莘@@
虞@@
辄
马戏@@
鬓@@
ast@@
ats
bern@@
cle
dul@@
great
howard
ier
kle@@
technology
temp@@
umb@@
united
zen
佻
判断@@
壹@@
娠@@
枫
滇@@
瘟@@
瘴@@
聒@@
舔@@
茱
蛆@@
衅@@
衩
遨@@
釉
里斯@@
books
gold@@
hic@@
home
lip@@
sav@@
sw@@
taylor
who
奥地@@
愚
救护@@
渎
湘
葆@@
虏@@
阜@@
髂
鹏@@
beta
big
cher@@
cou@@
doc@@
hay@@
louis
lt@@
marc
over@@
pacific
ros@@
sand@@
sea
thor@@
一无@@
傑@@
孚@@
小小@@
悼
懵
楂
涣@@
渍@@
蝠
赈@@
雏
aff@@
back
band
case
fol@@
hiro
isa@@
note
rand
sco
simp@@
sub@@
tre
val
walter
不知所@@
俳@@
刍@@
华德
咻@@
噩
婢
愉@@
懑
扈
摹@@
撩
擞
擤
晌
殒@@
盂
蒋
蜚
bie
deal@@
dex
east
glo@@
ice@@
jpmorgan
kur@@
low@@
mod@@
nan
nc@@
phone
vision
啻
憾@@
拗@@
浊@@
皑
皑@@
绔@@
蚝
裆@@
谙@@
醛@@
鞠
鸢@@
alexander
analy@@
bot
cru@@
gia
gio
gli@@
him
ines
jackson
mission
nap@@
palm
service
tun@@
under@@
哺
抡
昴
毛泽@@
潍@@
燎@@
爾@@
稼@@
耷@@
膊
菸
蒿
謝@@
饲
arti@@
awa
che
ddy
ela
four@@
intel
ls@@
pur@@
sie@@
ways
white
亘
吋
啷
崴
彝@@
抿
斯大@@
汛
痫@@
砥@@
祁@@
缕@@
羹@@
腭
艾米@@
茹
萼@@
蒴@@
蚌@@
起过
蹴@@
邊
阄
阪@@
龚@@
NA
ations
blu@@
drive
first
hal
hau@@
nis@@
north
sten
xi
yo
扪
昭
瀑
璐
膈
蓦@@
袂
许可@@
钹
闵@@
麸
#@@
axy
committee
con
department
dic
ever
gang
harry
ire@@
lun@@
motors
non
oracle
philip
sit@@
union
von
warren
young
亥@@
咙@@
咿@@
基金@@
帛
愫
战队
桀@@
潺
琅
瘘@@
菇@@
過@@
鲤
bis@@
dow
eric@@
ert
gel@@
hotel
ig
king@@
long
mu
ov@@
syn@@
travel@@
tz@@
吔
唏
地中@@
奇怪@@
尼基@@
染色@@
柬埔@@
殷
獒
現@@
當@@
瞰
粽@@
羟
膦
蜷
讼@@
锉
饯
鲈
bol@@
cha
das
hat
jeffrey
lon
nell
society
tation
tos
倌
分之二
剿@@
嗽@@
堕
帼
愛@@
挛@@
晷
液晶@@
痞
竞
绦@@
羌@@
荚@@
荤@@
莞@@
镫
馨@@
ade
ape@@
borne
glen@@
hus@@
kh
mark@@
matthew
mel
moto
pack@@
rab@@
reuters
tered
tha
◎
剐
嗽
堋
孰
平板@@
弩
忖
槐
淮
濡@@
灸@@
荞@@
费时间
随者
馬
bus@@
ein@@
elli@@
ev
gas
gates
ils
lady
ming
nicholas
scho@@
south
tha@@
wei@@
wilson
π
丶
俐@@
僭
冽
刍
利润@@
厦
吖
吝
啡@@
愆
所得@@
显微@@
曝
梧@@
橇
沽
炬@@
焖
燎
疡@@
科罗@@
羧@@
骛
鸨
麟@@
黍
amp@@
apo@@
bay
brun@@
carl
christian
dian
ej@@
ichi
ili@@
jr
kon@@
larry
lion
mei
mt
pace
sch
tia
偌@@
克里斯托@@
基金组织
塾
孺
弛@@
得好
怅
梓
歧
沏
泮
獠@@
羸@@
鄂
钍
锆
開@@
ami
arthur
bad@@
charlie
cho
hart
ight
iv@@
lcd
lock
prom
scha@@
thers
tus
uri
wise
┅
兩@@
唠
娅@@
岚
惧@@
新华@@
栈@@
汛@@
沪@@
狞
碜
稔
胥
舐
萍@@
蘑@@
辜
進@@
遁
鉄
鑫
钡
铿@@
飕
adel@@
angel@@
ash
baba
bou@@
bucks
cook
douglas
earns
hu
lake
pot
rose
say
sean
stan
steph@@
stro
tate
tier
wiki@@
°
咆@@
嬗@@
寞
岖@@
捻
未婚@@
狰@@
玻
甾@@
衙@@
诧
邱
铊
髁
鳕
ache
ado
ass@@
ball
card
dia@@
eh
email
gate
greg@@
iss
kai
kes@@
lai
law
lei@@
lines
nes@@
one@@
over
page
ping
ports
read@@
rig
roy
sat
sin
town
γ
咀
咂
夯@@
尔蒙
扩
沓@@
淤
焙@@
瞩
薛
虔
钼
锄
锉@@
飒@@
＋
agu@@
annie
bit
brad@@
brook@@
bus
dil@@
fon@@
greg
play
ques
shanghai
tie
wong
zy@@
佰@@
匈
堰@@
尧@@
弋
忑
怅@@
打水
拄@@
撷@@
救世@@
杞
泯@@
現
糠
腺素
芋@@
蚌
谔
遑@@
钨@@
陲
鳅
asset
ax
bee
blue
bos
fir@@
fur@@
heim
jeremy
kha@@
kshire
matt
nd
nov@@
oz@@
reader
spac@@
susan
til@@
zy
劍
怂
戮
樵@@
没了
沽@@
灿
無@@
瑶
發@@
秧
缥@@
膈@@
舅
荤
讴@@
靴@@
飕@@
龋@@
abi@@
assad
bow@@
england
food
fox@@
galaxy
gap
hman
imer
ira@@
pac@@
pierre
pon@@
qi
sein
stre@@
table
ug@@
washington
with
倩
墩@@
屠
揄
摺
收益@@
桨@@
残疾@@
毂
沛@@
瑟琳
盅
眸@@
缈
腱@@
芩
螯@@
讹
踵
酊
醣
︰
arm
away
base
bes
bis
chester
ette
finance
haw@@
hot@@
lex
moz@@
opp@@
sons
stream
terr@@
trust
twee@@
vest
vu@@
wy@@
分之@@
厮
合唱@@
噜@@
庚@@
浚
甭
痨
瘟
腩
荼@@
莹@@
藜@@
誊@@
铱
骼@@
arre@@
asp@@
assi@@
att
benjamin
dick
friend@@
gan@@
gg
hard
nature
neil
nokia
oil
rest
sla@@
stat@@
ves@@
wick
▪
亘@@
亚伯@@
啜
圣地@@
垩
惆@@
挎@@
格达
焗
煌@@
熠
甙
痍
胴@@
蕃
訇
谍
辆@@
辕@@
锲@@
鳌@@
&@@
bear
black
british
deb@@
enz@@
eries
ern@@
hr
ila
kru@@
og@@
pap@@
pau@@
reen
tina
use@@
yama
zai
倩@@
委内@@
弭
悚@@
扂
拢@@
揶@@
榭
癜
篪
糠@@
缰
脖
蕊@@
蠅
锵
鬃@@
鳍@@
MP@@
chen@@
craig
ei
entr@@
graham
itz
khan
mckin@@
mili@@
nt
oliver
pes@@
report
sca@@
twe@@
watch
倪@@
剔
叛
坤@@
孺@@
尬
庵
忿
惕@@
柑
没听@@
泾@@
炔
疤@@
睾
矾
蒲
赁@@
髅@@
ater@@
ati@@
authority
cos
julian
light@@
met
reau
reid
tex
伺
呋@@
國@@
夏令@@
孖
屿@@
岱@@
惡
戊
拉罕
昊
牍
狳
硝
磐
糅@@
肱
舛
蜱
败者
锃@@
镭
馥
airlines
barry
dong
express
grand
hei@@
kahn
kit
liv@@
markets
nei@@
oo
osa@@
private
rome@@
schwar@@
sley
starter
sul@@
type
叵@@
巍
幼儿@@
所欲
揩
桩@@
犰@@
瑶@@
瓢
瞅@@
竞技@@
筷
胄
荏@@
蝮@@
铮@@
镓
頭
鲑
commerce
communications
dn
ean
elo@@
ets
gur@@
kel
kov@@
mens
mson
ouch
pir@@
pota@@
ria
ronald
sense
victor
yl
zucker@@
佑@@
同情@@
呯
囡
巴比@@
憨
敝@@
栎@@
梆@@
演唱@@
烬
相比@@
诛@@
bble
bbs
consulting
dor
edi@@
fish
gau@@
hard@@
jennifer
kia
lac
lick
mali@@
oni
shire
tto
water@@
will
yi@@
匐@@
呷
啐
婀@@
恻@@
意识@@
掸@@
斕
蘖
螯
認@@
邹@@
镇静@@
霭
abs
associates
chet
davi@@
ful@@
harris
head
leon
mat
mau@@
netanyahu
network
obs
pand@@
plus
rob
ski@@
strau@@
wal
wu
yel@@
一碟
嗖@@
国际货币@@
垣@@
岐@@
巴塞@@
抗议@@
明治
東@@
榭@@
淖
炙
猁
箍@@
纾@@
综
缨
茬@@
裴
谏
这样@@
钯
鞣@@
頓
黉
bam@@
bb
book@@
bug
chase
clark
dave
dean
fen@@
hk
industry
law@@
lind@@
mario
mbo
nancy
shaw
smart
station
zzi
俯
冗
凛
叩
叭
噗@@
密特
忒@@
惰
愎@@
樱
殡
淳
璞@@
瞳
祠@@
绺
脲
芸
问题@@
陪审@@
骜@@
ars
blair
brow@@
carlos
dation
eck
ffe
guard
hara
jerry
jet
justice
lisa
mae
mia
mmer
moore
name
next
nik@@
talk
terry
tham
toyota
侄
偎@@
央
安东@@
巩
怙@@
怦
桦
祯
笈
箕
胰
舢@@
赅
钵@@
锌@@
长的
马萨@@
鳥
ala@@
autonomy
bernard
bureau
cross
democratic
dorf
forum
free
human
jane
jin
kelly
lyle
mega
micro@@
mos
ning@@
opera
samsung
span
tica
tle@@
ups
uri@@
卤
喱@@
嘹@@
埃塞俄@@
嫖
巴尔的@@
感恩@@
捻@@
撼
梆
汐@@
犊@@
畿@@
疥@@
砧
砷@@
苄
蕨
跄@@
锶
陇@@
骶@@
af
alia
ames
amy
ati
awa@@
bag@@
buffett
burn
chang
chev@@
francis
freddie
gat@@
key@@
list
northern
pit
project
shen@@
smu@@
sten@@
vic
喇
嗳
噔
娈@@
岆
懧
拄
日内@@
殆
涝@@
畸
眶@@
礴
窕@@
纳税@@
菁@@
蓉@@
薏@@
语音@@
蹬@@
颞
髌@@
鳟
鸮
alpha
chat
cin@@
cis@@
davis
direct
dley
hall
india
island
keith
ket
leton
mas@@
met@@
nab@@
rell
reu@@
samuel
sburg
slo@@
wool@@
丞@@
了算
僮
去死@@
堑@@
廖
彗@@
怏
扦@@
掬
搀
柬@@
榉
汞@@
泯
涧
珐@@
睹@@
耆@@
貉
釜
長
阈
鞘@@
ble@@
burton
cam
christine
desk
expe@@
gos
gun@@
information
ites
jon@@
karl
lex@@
maria
marie
nik
organization
policy
resources
review
score
sex
technologies
visa
wu@@
ˋ
Ω
利物@@
剜
坳
复活@@
孳@@
宕
峨
幡@@
庶@@
拎@@
殺
氓@@
犟
矽
竣
翟@@
聂
萸
讷@@
跟我@@
锰@@
阜
靥
須
鹩
aber@@
ail@@
aim
aria
bao
door
fair
mouth
oh
pan
partment
ram@@
scape
silver@@
sse@@
walker
zhi
佢
偃@@
呎
嫡@@
宙
將@@
楞@@
泸@@
皓@@
箨
肼
蛀
谗@@
轼
锆@@
雅各@@
骤
鸯@@
﹒
abu
anderson
arri@@
banking
bird
esa
haz@@
images
karen
kun@@
lincoln
lip
ng
plan
rail
see
stuart
tokyo
wei
yen
俞@@
壹
夥
姘@@
媽
幫
揩@@
晤@@
曳@@
杈
枷
沁
滂@@
烁
粳@@
胫
莨@@
蚜
迄今@@
靛@@
顽
鬓
鳐
﹖
aka
alber@@
amp
blog
california
dai@@
ek@@
iser
jose
lam
lawrence
mccain
money
mons
noble
pin
real
rue
search
侈
俸
唏@@
噤@@
噻
園
寅
寰@@
昕
洱@@
炳
燧@@
籁@@
莺@@
觐@@
賸
逞
遽
鄱@@
钕
阖@@
隧@@
鲟@@
兒@@
匝
吡
嫣@@
宥
恢
曜@@
殴@@
渊
珐
荜@@
藿@@
谛@@
贲@@
铮
黠
μ
ω
刁
噻@@
孬
尧
尴@@
幄
汩
溥@@
濑
爾
玑
玖
腴
苇@@
苒
荽
萘
踱
锵@@
镂@@
镌@@
骛@@
鼬@@
倏@@
堑
娑
屄
屐
幌
彤
旖@@
桁@@
汩@@
沐
猾
璃
痔
癜@@
绶@@
腈
荆
莠@@
葡
藕
螫
谀
辍
邢@@
钧
镯
電@@
Ⅰ
俪
倘
哌
哚
嘛@@
嘢
垢@@
奧@@
岷@@
弼
漳@@
炕
狞@@
禹@@
笙@@
籼@@
苓
铣@@
關
隅@@
隋@@
靼
鲷
鳌
龃@@
龉
ㄛ
佤@@
侈@@
內
咝@@
啁@@
夠
妪
媾
寓
屌@@
歡
氚
犄@@
皎@@
種
窕
胛
腭@@
蒺@@
醍@@
鑫@@
韬@@
颦@@
饬
饵@@
佬@@
倭
傷
婊
峪@@
幔@@
徘@@
擎
旎
昨
楠@@
氛
泅@@
潴@@
玷@@
疟
睐
簸@@
纣@@
缦
胯
腋
蒿@@
蓓
谟@@
谵@@
赣@@
酣
钒
阮
隘@@
颊@@
餓
動
戍@@
敞
氘
沆@@
沥
泔@@
玫@@
皓
禺
秸
笙
绮@@
腓
膨
薹
霆@@
饽
鹞@@
仄
冼@@
坯@@
娴
師
庚
怆
怔
瑕@@
痰@@
稷
窖@@
胝
膘
芫@@
荻
讥
诏@@
跖@@
铋
闺
阙
饽@@
骄
麗
叻
呲
哉@@
噘
寅@@
寮
嵩@@
庖
枰
桁
桠
氡
淅@@
濑@@
玫
珂@@
痉@@
篆@@
绉
肽@@
舶@@
艮
藕@@
螨@@
袄
製
諾
諾@@
锺
霓
靼@@
骆
™
侏
匾@@
咤@@
喋@@
姣
忤@@
忾
擢@@
會@@
栉@@
桡
椰
氩
汾@@
沱
洄@@
涮@@
瀣@@
燮
璋
胼@@
诘
蹿
郇@@
酞
醌
醐@@
钜
锾
離@@
馊
骰
鲻
鸫
〝
來@@
咣
嘅
噌
噘@@
噶
囔@@
囿@@
壑@@
姣@@
嵴
怵
扉
拚
掣@@
斟
旮@@
旯
暨@@
榻@@
沂@@
玟
琵
痹
矜
稗@@
臻@@
芍
蚴
蝓
袁
豢@@
跶
雹@@
頭@@
龈@@
亥
侗@@
俎@@
俾
偌
卦@@
吲@@
嗥@@
囤
坍
媽@@
帜@@
殇
氙@@
淬@@
潸@@
澄
獠
琦@@
舫
菈
衛
裡@@
觞
诨
辦
钡@@
門
雉
飨@@
馋@@
骡
龋
℃
剖
咝
嗤
囫@@
壬
岑@@
廸
徊@@
搡@@
栎
樽
涪@@
淄@@
炯
為@@
睛@@
翳
耦
肄@@
舀@@
艹
苹
荀@@
蝠@@
蝽
诮
谕@@
赭@@
蹉@@
進
铈
隽@@
韬
餍
馑
骈@@
骺
Τ
伎@@
刈
問@@
喹
壬@@
奢
婕
巳
朊@@
棣@@
楝
槁
槐@@
汲
汾
浜
瀚@@
狨
猞@@
窠@@
筐@@
箔@@
粱@@
胍
藓@@
蛐@@
蝗
蝰@@
覺@@
跎
蹚
迺@@
邯@@
锗
隙@@
隻
鲡
鲣@@
麵
□
佗
佯
備
冉
吏@@
呃@@
咿
嗔
妍@@
娆
宦@@
岬@@
幂@@
愠@@
挲
撺@@
柠@@
橡
檗
殚@@
淌@@
烩@@
牟
琌
琢@@
畲@@
瘆
祈
纠
缬@@
茛
蚋
螅
衅
谒
跩
踟@@
钽
饯@@
驷@@
髂@@
傷@@
卯
卻
喹@@
嗙
嗲
坷@@
婓
嫦@@
島
彀
愕@@
扉@@
抿@@
捺
捺@@
槃
欸
泱@@
涟
煅@@
璐@@
痢
眕
瞰@@
稃
筵
羌
荐@@
莆@@
蔚
螟
蟠@@
託
诡
辋
郝
铟
镧
鲫@@
龅@@
и
〞
乒
亞@@
伉@@
凱@@
囵
帊
抻
拇@@
拯
氰
浙
涓
準@@
猾@@
珉@@
琶@@
町@@
畴
癔@@
皖@@
睇
粤
肛
腑@@
臆
菅
菪@@
蔑@@
蕈
蝙@@
袅@@
觐
試
谚
邝@@
酗@@
钋
鹧@@
黒
１
儡@@
咭
唰
嘁@@
噤
寶@@
嵘
弑
怄@@
摺@@
旌@@
梢@@
澍
炜
痼@@
瞟@@
瞿@@
矾@@
碲
簌@@
簪
經@@
绀
肮@@
舛@@
芍@@
蜉@@
袅
贰
跚@@
踽@@
阱
颔@@
飒
飛@@
驹@@
髯
鲫
鲷@@
鹪@@
θ
佝@@
俞
俸@@
嗓
嗦@@
嘬
埠@@
岚@@
忸@@
恹
戍
晌@@
柠
柢
棂
楔
汕
浏@@
濯
炽
玮
當
箴
绉@@
羡@@
耽
聩
脲@@
菟@@
萦
蒽@@
蜥@@
蝣
裱@@
讦
诏
車
辽
還
鑄@@
钊
镯@@
颏
髋
ó
侩
倜@@
傥
劍@@
咛
唛
啖
址@@
坂
尉@@
峥@@
嵋@@
徙
恹@@
棣
猥
瑰
疖@@
疥
砣
祇
篙
紊@@
結@@
聲
苎@@
茗
蕙@@
蛉
蝼@@
蠊
許
請
诛
運
镰
阎
風
馥@@
鬈
鸪
鸵
鹬@@
鹭@@
龊@@
哧@@
坩@@
壞
巽@@
帶@@
弈
忖@@
忪
恁@@
應
戰
樂
樊
煽
稚
綠@@
胧@@
莳@@
萊@@
虻
蛞@@
螂@@
蠹
褫@@
記@@
蹙
逖
铍
鞣
題
驮@@
骶
鬃
鲽
鸬@@
鹄
麼@@
黝
０
冼
剛
呔
嚏
嚓@@
埚
墅@@
娣
媾@@
岘@@
幹
幾@@
廪
恻
戗
撷
擀@@
曩
桢
椽@@
沱@@
疸@@
祺
禹
纶@@
缄
翎@@
胬@@
臬
芎@@
萘@@
萱
蔻@@
蟾
衄
衲
許@@
試@@
谏@@
轱@@
辄@@
逡@@
錢
鏖@@
钇
靜
鞅
饪@@
鳝
鹚
並@@
卞
吆
嚷@@
墒
墟
妓@@
婵
媞
峙
恸@@
悻@@
扈@@
挎
旃@@
棵@@
椽
榛
槭
氙
淇
璇
甬@@
皲@@
睑@@
矬
笋@@
糨@@
織@@
芷
蜓@@
衮
語
谒@@
豁
豇@@
賽
辇
铌
锱@@
阡@@
龇@@
龚
δ
兖@@
啕
喧
岫@@
戟@@
戮@@
摈
敕@@
椹
椿
槛
氣
泓
淼
漱
烃@@
無
矬@@
筱@@
箐
纂@@
绐
缫@@
腚
蓐
虏
蝻
見@@
變
诓
豉
豸
赂@@
迳
钗
颦
骥
鲎
鲟
鳝@@
黩@@
＝
內@@
問
嗄
嗣@@
垀
娟@@
岐
峪
悌
戕@@
挛
揖
晖@@
樹@@
熹
瘿
砚
粳
绗
缮@@
罄@@
脯@@
菏@@
蠹@@
讪@@
诲@@
谲
辎@@
迳@@
铧
铪
铵@@
阙@@
馬@@
鲛
鲣
鳃@@
２
６
ぃ
ぞ
丟@@
係
倆
冇
劵
娩@@
峦@@
嶂
彤@@
悛
抟
數
朮
杓
梓@@
榆
汊
沅
洱
溟
煲@@
牡
瑛
疡
盎
硷
碴@@
祛
缢
羲
腈@@
舆
苁@@
蒡
蓑@@
諜
貝
赈
辐
迩@@
郞
醯
鐵@@
钼@@
铄
镡
雉@@
雍
鲵
點@@
龍
″
丕
俣@@
倡
偕
吶
喁
噙
垄
垛@@
嫔
將
帼@@
幹@@
庖@@
怩
戥
數@@
楂@@
榫
檫
檬
歐@@
決@@
濮@@
琨
痨@@
痱@@
碚@@
竺
箝@@
繫
聿@@
芷@@
菖@@
蛭@@
蛲@@
蝰
郴@@
铢@@
锭@@
锻
颍
颓
魟
鹂
剛@@
卅@@
咩@@
哆
嘤
埔@@
堇
墉
夢
孀@@
岿@@
幺@@
惚@@
憐
拇
擢
槌@@
歲
氩@@
痉
盔@@
矗
窳
笱
續
绻
耆
聽@@
肏
脍@@
膂@@
茯@@
蘑
處
蜣@@
诨@@
赉
赳
踯@@
躅
轫
辗
遑
铑
關@@
飨
驿
鲂
麂
麂@@
§
凄
勰
叟@@
哐
哐@@
啭
啮
喟
嗔@@
嗟@@
場
奘
奚
嬴@@
學
屣
幂
幡
愛
敖
晤
桉
棠@@
榫@@
槿
橇@@
機@@
殄@@
毽@@
汨@@
泠
浒@@
渚
澹
焘
煨
牝@@
珞@@
畴@@
癸
眇
瞭
碛
笆@@
箩
繼@@
绥
罔
羰@@
舜
苋
荑
莪
號
蛟@@
裝
褓@@
請@@
識
诳@@
買
赀
赊
趔@@
蹰
遽@@
邡
酡
钎@@
阑
霏
靛
領@@
馐
鲇@@
鳥@@
½
佘@@
俟
儆
冢@@
剌@@
呓
哋
唢@@
唳
嘈
壅@@
孵
寫
帑
帚@@
怔@@
栉
桓@@
椋@@
氲
泷
涴
淨
潼@@
澎
烨
猝
珞
瑾
痪@@
盂@@
睚@@
瞽
矍@@
碇
秕
绮
臾
興
舜@@
舶
茉
茏
荳
薮
蘇@@
蘭@@
蚧
衛@@
裟
诰
貝@@
赣
跋
跖
遙
釆
鎖
鎖@@
钣
铣
镂
間@@
阖
風@@
飢
饴
魯@@
鲼
鹘
∏
偻@@
兮@@
咣@@
嚇@@
娲
婵@@
實
悄
戰@@
拽@@
斷
朊
椿@@
楸
槲
殒
毂@@
毗
氅
氤@@
涩@@
滇
爲
玮@@
璃@@
璞
瓴
砜
祚
笺@@
绢@@
脫
莠
菸@@
衢@@
袈@@
襞
證
迓
逵
遠
遲
邬@@
醫@@
醴@@
骅
骠@@
骼
鸸@@
鸾
黔
］
τ
亞
仳
佰
倫
倭@@
刎
匮
吩
呓@@
啫@@
嗳@@
囗
囡@@
圩@@
圮
塾@@
夯
嫒
嬉
學@@
尋@@
尓
巯@@
幢@@
悻
應@@
搧
曷
朦
枞@@
枭@@
柞@@
椴@@
樂@@
毀
淙@@
淪@@
滦@@
濠
煜
牯@@
獴
玖@@
珉
琉
瓤
痳
砑
硌
祜@@
稣
糅
绫
芠
苋@@
菪
蓣
蔫@@
蛱@@
蜕
蝮
蠖
親@@
诃
诓@@
谪
蹙@@
辕
钆
铒
锨
镝
镧@@
闽
難
頗
鱿@@
鲛@@
鲢
鹋
＼
・
佽
卉@@
咄
唾
嗝@@
嗥
囿
圜
埂
娥@@
嫫
宙@@
宦
對@@
嵩
幫@@
復
徹@@
忱@@
恪
懦@@
戌@@
挞@@
擀
擔@@
斌@@
晟
枇@@
査
栾@@
桫@@
榉@@
榕
歃@@
氖
沂
湟@@
澈@@
煳
狻@@
珨
癸@@
皖
眦
睐@@
確@@
竽@@
織
罅@@
羶
膺@@
芴
莪@@
薑
薜
蘸@@
螟@@
蟥
蠓
變@@
讪
谆
贏@@
赓@@
赳@@
趄
钜@@
門@@
闵
陌
隽
饒
骊@@
髑@@
髭
鲆
鳀
＃
［
佚@@
佟@@
傩
叱
咁
垃
垃@@
婺@@
嫔@@
嫨
崂@@
弁
愎
憬@@
昊@@
杷
柽@@
桤@@
椤
橛@@
殉
毓@@
況
淇@@
淙
渝@@
濮
瀑@@
焓
爿
瓒
瓯@@
痧
皎
瞴
砭
碣
笤@@
筠@@
篡
篾@@
籼
緊
芗
芨@@
茔
茕@@
萋
葚
葶
葺@@
蘋@@
虬@@
螫@@
蠡@@
褒
谴@@
赂
轶
邵
邹
郸@@
钸
铕
铰
铷
闳
陕
隋
險
離
韪
馍
鲢@@
鲶
鳖@@
鹞
麥@@
ü
仨@@
佃
佟
儘
凋
咆
嗒@@
嗨@@
嘚
坲
宓
張
憷
懼
捍
捩@@
掖@@
搐
搪
樓
殁
泗@@
湍
溘@@
煩
猊
甁
瞿
矸@@
砚@@
笏
篆
納
綦@@
維@@
纨
绫@@
羲@@
羿
翎
荃@@
菀
蓍@@
蓼
蕙
藿
蘖@@
設@@
诳
豺
負@@
蹊
蹼@@
銮@@
鎘
铙@@
锺@@
阕
隶
靳@@
飯
骜
鲠@@
鲳@@
鳔
鳢
鸩@@
鹳@@
３
+@@
丞
亩@@
侣@@
俎
傈@@
哮
唸@@
喆
嗞
圩
堇@@
夢@@
奄
孛
徹
恙@@
悱@@
愞
懋
扼
採@@
掼
斛
晏@@
機
橥
瀛
狺
玳@@
瑪@@
畦@@
疵@@
皋
皴
睢@@
睨
矫
砵
础
禮
禮@@
秉
稗
穂
篦@@
缱@@
羅
翟
聆
聯@@
肟
荙
菩
萤
蛐
蟊@@
衾
裥
褂@@
說@@
诠@@
賀
跗@@
辔
逑
連
遠@@
遺@@
邋
郸
銮
钪
钶
階@@
餅@@
養
驸@@
骟
髒
鱿
鸾@@
＊
¾
σ
‥
Ⅲ
○
乜@@
亳
亳@@
佷
俚
俣
僳@@
劭
哏
噓
嚇
堀@@
姝
娩
嫣
實@@
尬@@
廢@@
徉@@
惋
惘@@
拈
擞@@
晩
栲@@
條
樽@@
歡@@
泾
測@@
湮
溷
漩
漪@@
濂
焖@@
犟@@
玆
玷
珲@@
畦
癮
發
秣@@
筠
箸
約
終@@
絕@@
統
緹
绨
羸
聲@@
胪
興@@
芎
苄@@
華@@
蓋
藥
虼@@
蚬
螽
蟆@@
裝@@
谄
贏
蹟
轉@@
邝
酞@@
钰@@
铠
阗
陂
陛
隍@@
隱@@
隹
顆
饕
鬟
鳎
鹑@@
黯
﹑
＜
©
¼
♪
ぐ
ㄓ
ㄢ
ㄧ
丐@@
俦
剎@@
劾@@
動@@
參@@
咨
唸
單@@
嗲@@
噫
堅@@
夔
妦
姹@@
娑@@
婼
宼
屹
幪
恵
悭@@
挹@@
掛
搋
擊@@
敵@@
晏
暌
氓
沧
浣
涔@@
漯@@
濒
烹
焯
珏
瑁
疠
瘠@@
眦@@
睪
硐
祺@@
禺@@
秩
稞@@
窒
笫
筘
糯
絕
緒
纛
缒
缢@@
羅@@
翕@@
耄@@
耋@@
脩
膑
臧@@
舖
萄@@
萜
萜@@
蘭
蜴@@
袢
視
觥@@
計
談
诂
賣
赀@@
跹
踮
蹰@@
迤
逹
邰@@
邸@@
酢
錾
鏈
锕@@
镱
雙@@
雠
霏@@
靈
響
顫@@
颀@@
颉@@
馕
驽@@
魑@@
鳜@@
鸢
鸷@@
鹄@@
鹽
麒
黍@@
黢@@
鼹
４
５
乩
亟
伥
伧
伲
偃
偻
傑
卞@@
吗@@
咤
嗫@@
噁
噹
囟@@
圜@@
夠@@
嫡
嫦
尻
屉
岀
岷
崴@@
強@@
徊
怼
恁
恚
惕
懿
挈@@
暧
曙
枱
柢@@
橋
橼@@
氖@@
決
沢
泞@@
泮@@
泷@@
洮@@
溷@@
滓@@
漕@@
濡
燉
牾
狟
猷
玑@@
琏
瓿
甄
甾
畿
疳
砟
碲@@
稞
窭
笳
篾
糸
總@@
纡
缤
缨@@
耋
艉
艙
苑@@
苡
茲
荔
蒯@@
蓿@@
蛟
蛴@@
蜘@@
螬
蠃
談@@
論
講
诤@@
贲
赁
赝
趼
車@@
較
輩@@
迄@@
逅@@
逶@@
達
郅
钎
钏
铼
镗
隊
電
鞑
馀@@
骝
體
鬣
魉
鲐
鹨
黢
齑@@
﹝
＞
ㄐ
乜
仟
侥
傳@@
僦
劬@@
卅
嗟
嘹
囟
圳
埕
塊
墒@@
娲@@
婊@@
孓
寤
導
屙
岈
崛
巯
帛@@
帷
廿
弋@@
從@@
恬
惫
戸
揆
換@@
揿
搽@@
撐
撙@@
擊
斡
昕@@
暸
枥@@
栀
栾
條@@
棄
橼
毋
汜
汴@@
沤
涿@@
溏
滹@@
濕
灏
爭
犽
獐@@
獶
玎
珑@@
珩
璨@@
疖
瘋
皴@@
硂
硪
碚
磬
祢@@
筝@@
籴
紡@@
編@@
绛@@
缟
膘@@
與
舨
芘
芡@@
荃
荞
荠
荠@@
莳
蓑
藥@@
蚝@@
蠓@@
衙
衢
褫
視@@
計@@
誊
諒
谰@@
貅
責@@
踹@@
轭@@
迄
邑@@
邬
鄞@@
鄯@@
酉
酉@@
醅
醣@@
醮
鎔
鐘
钌
钴@@
钽@@
铩@@
镞
闰
隧
預@@
顧
颏@@
馔
馗
騎
骐
骥@@
鲑@@
鲥@@
鸥@@
鹗
麋
麝
è
ê
‐
℉
〃
㎝
㎡
亂
仟@@
佈
侩@@
們@@
傣
儀@@
円
凈
勐@@
呋
員
嘁
嘍
嚅
囗@@
坭
垸
埸
堞
報@@
奁
奧
奻
媛@@
嫚
宸
尢
嵊@@
巿
弼@@
彛
彷
怩@@
怵@@
愽
憧
懿@@
戕
抉@@
抒
挈
掛@@
旌
暝
杳
枳
栩
桧@@
椁
楝@@
楦
楹@@
榧@@
樟
樵
樹
橹
檞
沅@@
洌
浒
涔
涞@@
滁@@
潇
瀛@@
炔@@
焱
熱
狀@@
猢@@
痈
痦@@
碉
祼
穦
箏
箝
箬
粲@@
絲
練
纰
绛
耒@@
耧
胳
脒
舂
舾@@
茕
荸@@
莆
菘
萄
葉
蕤
薅
藁@@
處@@
虺
蛄
蛳
蜇@@
蝈
蝈@@
裾
褊@@
襻
記
诂@@
貨@@
趸@@
蹓
轲
連@@
運@@
遒@@
遜
邢
酕
銀
鎚
鐵
铨
铿
锕
锘
镅
镎
阋@@
難@@
韭
響@@
頂
願@@
颡
飑
飾
驭@@
鲦
鲳
鳙@@
鳴@@
鸶
¨
à
‧
⊿
〇
み
ケ
丐
並
侗
倉
倫@@
偈
凇
凫
刳
剀
劇@@
勐
厩@@
參
吩@@
呑
嚄
團
圾
坜
塬
壓@@
奀
妁
妺
娉@@
娓
媂
峥
嵋
嵐@@
巽
帏
帯
幛
強
彶
徙@@
忏
恣
悝
愠
愬
慊
慮
扥
扦
拯@@
捋@@
揾
擘@@
昇
晁@@
杖@@
杵@@
桕
椴
楊@@
殘@@
毀@@
氘@@
氣@@
沌@@
沭@@
泗
浔
浼
溧@@
滾
潔
濛
濛@@
煸
燿
牺@@
狙
狝
獰
玺@@
珩@@
琮
瑷
瑾@@
產@@
畚@@
瘩@@
睏
矣@@
碁
祁
禔
窨@@
笞@@
笹@@
簪@@
粽
級
紮
統@@
緊@@
绶
罡
聍
聒
脔
脘
臌
艏
茛@@
菰
蒐@@
蔺@@
蚶
蛏
衭
衲@@
褡@@
討@@
謇
诹
谗
谲@@
谶
貘
赽
跗
跡
踺@@
蹉
轾
辚
逖@@
逦
逻
醬
鉤
鏈@@
钰
铱@@
铽
锇
锑@@
锔
锷
镏@@
镐@@
闾
霎
颉
颍@@
飾@@
餅
饴@@
驽
骞
髌
髦@@
魍@@
魚
鲅@@
鲱
黥
鼢@@
±
í
·
≥
〖
ネ
ㄇ
伕
侚
倨@@
僗
刈@@
吒
吽
咛@@
唁@@
唿
啲
喋
喑@@
噱
嚴
囵@@
埙
堍
墅
妯@@
娌
婧
婫
孪
峈
嵘@@
嵬@@
帙@@
庹@@
廛
彝
忤
慾
懊
懷@@
戡@@
抨
挻
捨
捭@@
摭
摯@@
敧
旃
昀
昱
書
桧
椐
楮
榍
槍
槠
樯
橐@@
橾
欴
歙@@
殍
毎
氐
汔
沷
渋
渤
滅
潦
澧@@
煊@@
煙
煸@@
熹@@
燒@@
燧
牆
狯
獭@@
甑
畛@@
疔
疣@@
痊
睥@@
瞩@@
砦
砻@@
硒@@
碣@@
磴
祆
秭@@
稱
窸
篦
簡@@
粲
糁
約@@
納@@
結
網
綴
纡@@
缛
羧
耵@@
聞
聯
肴@@
胤
芑
苴
茚
茚@@
菝@@
華
萟
葜
葳@@
蓊@@
蔺
蕲@@
薜@@
薩@@
蛸
蜊@@
蝥@@
衝@@
衱
袛
裎
褚@@
褡
觀
觋
証
誌
誠
調
诬
豌
貔@@
贊
赧
跬@@
迸
週@@
遐
選@@
郵@@
酢@@
錄
钊@@
锝
镘
镛
镲
闆
闱
阰
陛@@
隈
隍
際
隨@@
韶@@
願
颔
颧
骊
髹
鬆
魈
鲎@@
鲚
鲮@@
鲲@@
鳜
鳴
鸲
鹦
鹫@@
麓@@
麴
鼯@@
龍@@
Ａ
}
ˇ
ζ
Ⅳ
Ⅹ
え
き
さ
よ
ノ
ㄆ
ㄚ
丕@@
乗
仞
伀
伢@@
佄
佚
佞
劑
勛
厝
吖@@
咘
員@@
啶@@
單
嘠
噼
嚏@@
嚐
嚒
坨@@
坶
垅
報
壅
夔@@
姦
姾
婕@@
媲
嫲
孃
專@@
屍
屍@@
崭
嵬
帧@@
庫
庵@@
弚
徂
徇
悒
悒@@
戀
抺
挷
掮
換
揠@@
摒
攫
攬
敕
於@@
旬@@
晔
暹
曉@@
曜
杲
栝@@
桀
桤
楸@@
榘
榣
標
樨
檄@@
檬@@
歸
毓
沔
泱
浏
浬
淩
溫
滿
潞@@
潼
煙@@
爰
爺
狡
狲
狷
猖
獵@@
玳
瑚
產
疴
瘴
療
盡
監@@
盱@@
眭
砼
碓
碼
礅
礛
禱@@
秣
窣
窩
竽
笕
笫@@
筲@@
箬@@
籃
粝
組@@
網@@
縻
绎
缷
缽
罵
耘@@
聰@@
聱@@
肮
胗
脍
腙
膻
臟
臧
芫
苤
苫
茗@@
茭@@
茼@@
荧
莒@@
莜@@
莨
莰
菏
萁
萬
葶@@
蒴
蓋@@
蕻
薏
蚵
蚺
蛘
蠅@@
衪
訝
設
詈
認
語@@
謦
诅@@
谥
貊
財@@
質
賴@@
赻
趺
蹤
輛
轳
辦@@
迤@@
迥
邊@@
邡@@
郓@@
郔
鄢
酐@@
鋒@@
鐘@@
钐
钿
铆
铳
锟
镏
镨
閉@@
閘@@
闫@@
闾@@
雞
霖@@
霭@@
韋@@
颢
飛
饫
馍@@
馐@@
驷
鲯
鳊@@
鸨@@
鸩
鸷
鸹
鹩@@
鹹
鼩
龌
８
９
{
Δ
φ
е
р
‰
№
Ⅴ
≤
〗
だ
ど
亊
佼
侔
俇
俪@@
倮
傖
傢@@
傧
儅
冊
凰
則
則@@
區
卍
協
厭
呶
哂
哙
啟@@
喟@@
喲
嗉@@
嗑@@
嗰
嗵
嘗
囝
園@@
圖
圬
圹
坋
垡
垭
垴
夾@@
妁@@
妣
妫
婧@@
婪
嬖
嬗
導@@
尕@@
尴
屉@@
屬
岌
岫
峄@@
崛@@
庾@@
廠
張@@
徭@@
忭
怛
恀
悅
惦
慣
懔
戶
戾@@
拋@@
拻
捗
捝
捯
掊
揍@@
揾@@
撓
攝@@
昙
昶
暭
朐
杼
枘@@
枳@@
柒
柒@@
柘@@
柰
栌
栲
梿
棰
椄
楓
業
楹
槁@@
槎
槟
樣@@
橛
檔
檩@@
權
權@@
歩
殚
汨
沮@@
泌
泓@@
洮
浚@@
淞@@
渭
漢
潛@@
潠
炕@@
烽
燒
爐
爻
牯
狎@@
狩
狲@@
猩
獻
珈@@
珙@@
琲
瑪
璟
甬
痊@@
痪
痱
瘊@@
癡
皋@@
盤@@
眭@@
睢
瞌
矇
砀@@
砒
砕
砩
砻
確
礤
祜
禗
禳
秏
秖
稅
竒
競@@
箕@@
糾@@
紅@@
紐@@
細@@
絞
練@@
總
繞
纒
绔
绚
绦
绯
缙@@
缡
翊@@
習@@
翕
耄
胝@@
脈
脹
腘
腦
膻@@
臉
臟@@
舡
艽
芉
芡
苈@@
苡@@
茈
萹@@
蒌
蒳
蔥
蔵
蔷
蕞
藷
虢
虬
蚩
蛩
蛹@@
蝥
螢@@
蟊
蠕
蠲@@
袂@@
裢
襯
調@@
謂
謊
講@@
謬
讀@@
谮
谳
責
買@@
賣@@
賽@@
贇
贽
趿@@
蹩
蹴
蹶
軗
辔@@
遲@@
邈
邳@@
郗
郦@@
郴
鄰@@
醐
醪
鋪
鏊
鑰@@
鑽@@
钒@@
钕@@
钣@@
钬
钷
钺
铈@@
镊
镪@@
闡
闫
阐
阒@@
陑
陬
雞@@
霁
靳
顸
飓@@
駁
髭@@
鬍
鮑@@
鲇
鲲
鸬
鸳
鹛
鹜@@
黃
黧@@
鼋
﹁
＠
Ｂ
ｄ
ō
Ψ
┮
★
た
も
ん
ゴ
セ
仄@@
仡@@
伫
佗@@
佘
佧
侪@@
俀
個@@
倏
倖@@
偈@@
偵@@
傩@@
傭
僅@@
僖@@
僮@@
僱@@
價@@
儂
兌
兩
剋
剎
剽
劄
劢
勀
勞@@
匕
協@@
呖@@
呤@@
咗
咾
唿@@
喑
喔@@
喬
嗾
嘔@@
嘡
嘣@@
嚴@@
圉
坻@@
垆
垆@@
垭@@
執
埻
塍
墮@@
壺
夙
婦
婪@@
媪
尅
岘
岜
峁
峇
崋
嵇@@
嵝
嵯@@
庒
廣@@
彆
彸
彿
徳@@
忻@@
怫
怮
恍
悃
悵
惴
愦
愭
戲@@
扌
扞
挝@@
挢
掇@@
揶
損@@
搦
撙
擇
擨
擬
斬@@
旄
旎@@
旮
昜
晝
晡
曆
曦@@
朐@@
柞
柰@@
棲@@
椭
極
榄@@
榧
榬
構
槍@@
樁
橐
歸@@
殛
毽
沆
沣
沩
涠
淝@@
湄
湫
滦
漳
潟
潢@@
潴
澌
澹@@
灞@@
灠
炜@@
炷
煜@@
燠
燮@@
燼
爻@@
牍@@
牺
狺@@
獨@@
玢
珋
珶
琰
瑛@@
璶
瓤@@
瓿@@
畈
畉
疭
痈@@
癞
癬
癯
監
盽
眙
眳
瞑
砉
砹
硖
碛@@
碞
碢
磙@@
磡
祀@@
祼@@
禫
禱
禿@@
稜
稧
穞
竕
笏@@
筁
筮
筻
箜@@
箫@@
節
篌
篼
簋
糌@@
紹
綁
綮
縮@@
绗@@
绾
缋
缶
罘@@
罟
義
翊
翴
翹
耒
耷
聖@@
肇
胨
胴
腂
腦@@
膩
臌@@
臜
舊
艄@@
芊
芾
苤@@
苺
苻
莅
莘
菔
菔@@
菡
菽@@
萬@@
萳
萹
葯
葳
蕹@@
藁
藍@@
蘼
虳
蚍@@
蚩@@
蛔
蝦
螵@@
蠋
蠡
衹
衿
袈
補@@
裼
襄
覃
覓
覜
觥
訴@@
診@@
誠@@
課
諉
諜@@
謀
護
讠
诼
诽
谡
谶@@
豕
費
貼
賜@@
贰@@
贻
趕
趕@@
趿
跎@@
踉
蹍
載
輕@@
輝@@
辊@@
辏
辙@@
辚@@
逋
適@@
選
邁@@
邕
邕@@
邛@@
郜@@
郢
郧@@
郯@@
鄱
酃
酲
釐
釦@@
鈍
鉅
錄@@
錫@@
鍛@@
鍾
鎰
鑄
钗@@
铎@@
铗
铙
铡@@
铥
铧@@
锍
镗@@
镙
镦
閉
闇
陂@@
陨
隊@@
雎
霰
頒@@
領
顔
顛@@
類
颥
飢@@
餠
駻
驚
骢
骧
鬻@@
鲠
鳊
鳙
鸎
鸱
鹱
麇
麗@@
麾
鼐
齊@@
龇
﹜
﻿
＄
７
ｍ
ｔ
￥
%@@
¬
º
á
ǐ
ˊ
˙
Π
ε
∪
⑿
┪
☆
ち
に
の
ぶ
る
ヴ
ー
ㄠ
丨
亜
仃@@
仝
仵@@
伬
佔
佴@@
併
佶@@
侑@@
俋
倬
價
儀
儸
兇@@
兌@@
冞
冪
凼
刽
剷
勖
匆
匕@@
匦
卟@@
厍
厝@@
厭@@
吶@@
呂@@
呇
呖
呡
呻
哒@@
哓@@
唒
喚
嗮
嘗@@
噴@@
嚐@@
嚟
囉
囪
囮
團@@
圾@@
坼
垤
埜
埼
堀
塚
塚@@
墉@@
墦
壽
夼
奪
娉
婌
嫮
孥
孫
宮
寧@@
尥
尷@@
層
峒
峤
崁
崃@@
崧
崮
嵐
庠
廳
彘
徬@@
忸
怙
惬
慇@@
態
慵
懶
戆
戆@@
戌
戬
戲
戶@@
戽
抉
抨@@
抶
挐
捇
掕
掟
揮@@
揿@@
搥
搧@@
搶
搾
摀@@
擁@@
擋
擾
敗
斃
斫
晟@@
暫@@
杌
杓@@
杮
枋
枓
枥
枧
枨
柺
棹
楫
槛@@
槺
樗
橄
檢
欄
歆@@
殑
毖
氵
沖
沤@@
沩@@
沬
沭
泠@@
泫
泸
洇@@
洫
洵
洹
浍
浔@@
涞
涧@@
淏
淦
淬
淵
湃@@
湟
湯
溉
溥
滏@@
滟
滢
滿@@
潲@@
潸
澧
濉@@
濯@@
瀬
灞
炝
炰
煅
爛
爼
犚
犭
狍
狎
狻
猔
猗@@
猱
猶@@
獨
獸
獺
玡
珏@@
珰
琣
琥
瑷@@
璀
璩
環@@
瓊
瓊@@
瓯
異
畹@@
疙
痍@@
痐
痤
痩
瘋@@
瘕
瘜
瘢
瘵
瘿@@
癒
癥
盉
盍
盧@@
眒
眔
眬
眾
瞠
瞷
砭@@
硗
硷@@
碡
碪
礙
祕
祚@@
秆@@
秕@@
稔@@
稷@@
穝
穰
穰@@
窠
笢
筍
箅
箧
築
簑
簷
簾
糍@@
糑
紀
紋
終
絃
線@@
縄
繇
绡
缍
缟@@
缧
罘
羂
義@@
習
翡
翦
翮
翱
耩
肟@@
胂
腳
膁
臊@@
臥@@
臨@@
舄
舸
艋
艙@@
芨
芩@@
苊
苎
苕
苘@@
荀
荜
荥@@
莊
莼
莼@@
菖
菠
菹
萱@@
葸@@
蒽
蓖
蓠
蓮
蕖
薨
藝
號@@
虷
虿
蚂
蚳
蜆
蜞@@
蜮@@
蜴
蜻
螋
螽@@
蟋
蟑
蟛@@
蠔
蠼
補
裵
褲
褲@@
褻
襯@@
襲@@
覂
討
診
詞
詢
話@@
該@@
誘
誘@@
説
諍
諳
諷
謀@@
謊@@
護@@
讶
诋
诌@@
诎
诒
诟
诠
诤
谂
谠
谩
谪@@
谯
豢
貼@@
資@@
賤
贈
赓
赜
趵
趵@@
跘
跞
踞@@
踰@@
踽
蹀@@
蹁@@
蹇
蹕
躞
軍@@
載@@
輕
輪
輯
輸
轫@@
辎
迨
逄
遄
遒
邃@@
邗@@
邛
邨
邾
鄄@@
醃
醪@@
醱
醴
釣@@
銀@@
鎊
鎏@@
鏡
鑑@@
鑽
钫
锛
锢@@
锴
镕
镘@@
镚@@
镬
阗@@
阚@@
陇
陔
陟@@
雙
雜@@
雲@@
頓@@
顼
飲
飲@@
館
驚@@
骁
骐@@
骞@@
髡
魚@@
魯
鮮
鰆
鲅
鲕
鲩
鵝@@
鹉
鹎
黇
黜@@
黻
黾
鼷@@
齑
齙
齝
龕
﹛
Ｐ
｜
£
Ø
ö
÷
ē
ň
Κ
Μ
Φ
ν
χ
Х
а
з
 
※
Ⅵ
↖
①
⑾
⒀
┦
╆
◇
●
々
〒
〡
い
こ
し
ね
ぱ
ま
わ
ニ
ン
ㄏ
ㄩ
丟
亍
亓
亷
亻
亾
仂
仫@@
伅
伛
伢
侉
侶
俅
俜
俟@@
俬
俶
値
倬@@
偛
傘
傳
傾@@
僳
儋@@
償
冋
冏
冖
冹
冾
凃
凫@@
凱
凴
刬
剉
剜@@
創@@
劂
劇
劏
劚
務
務@@
勝@@
勳@@
勸@@
匉
匏
卐
厈
吤
吥
呂
呮
呶@@
呾
呿
咡
咴
咶
哂@@
哓
哕
哝@@
哽
唓
唦
唩
唻
啁
啋
啓
啞@@
喈
嗉
嗌
嗐
嗫
嘏
嘙
噹@@
嚅@@
囖
囯
圏
圻
圻@@
坌
坵
垌
垜
埂@@
埏
埒
埗
埘
埝
埮
埴
執@@
埽
堅
塄
塗
塩
墁
増
墰
壯
壽@@
奘@@
妀
妊
妏
妗
妩
妯
妲@@
姘
姪
娈
娛@@
娠
婺
媸
媼
媿
嫘@@
嫠
嫱
孑
孫@@
孱
宓@@
宥@@
尋
尕
尙
尥@@
尻@@
屦
岢@@
崆@@
嵫
嶝
巳@@
帏@@
帔
帙
帣
幾
庁
庑
庳
廋
廑
彈@@
彗
徥
忝
怆@@
怍
怖@@
恂
恅
悱
惇
惡@@
慄
慘@@
慚@@
慶@@
憤@@
憶
懋@@
戀@@
戢
抔
拊
拋
挴
挾@@
捄
捌
捩
捿
掞
掼@@
揖@@
揚
揹
搌
搐@@
搛
搠
搴
摽
撐@@
撖
撫@@
擔
據
擧
擺@@
敉@@
敔
敵
斎@@
昚
昝
昱@@
昹
晞
暌@@
暍
暸@@
暼
暾
曚
曰@@
朕@@
杅
東
杶
杷@@
杺
枋@@
枘
枙
枞
枵
柃
柄@@
柘
柙
柲
栢
栯
桢@@
桽
桿
梑
梒
椋
椟
楣@@
榀
榊@@
榚
榤
槊
槨
樗@@
樞@@
樾
橈
檎
檢@@
檸@@
欄@@
歆
歎
歷
殁@@
殍@@
殭
殺@@
殻
毖@@
毞
毳
氹
汆
汊@@
汒
沮
泅
洘
洭
浃
浄
浯
涒
涣
淄
淅
淖@@
淞
渌
渑@@
渚@@
渻
湁
湎@@
湯@@
準
溻
滁
滗
滬@@
滯
漕
漲
潆
潋@@
潞
潟@@
濂@@
濉
濟
炀@@
炅
烔
焐
焗@@
焱@@
煊
煺
燠@@
燭
燴
燹
燻
爛@@
爨
牁
牦
犍
犍@@
犮
狀
狃
狶
猕
猢
獄
獍
獎
獚
獲
玎@@
珧
琬
琮@@
瑠@@
瑩@@
瑭
璇@@
瓠
瓠@@
甅
産
甦
甮
甶
畀
畫
畫@@
畲
疒
疳@@
疷
痌
痠@@
痲
痲@@
痷
瘌
癃
癃@@
癍
癣@@
盡@@
盤
眘
眙@@
眢
眧
睚
睱
瞏
砛
砥
砪
砬@@
砺@@
硎
硖@@
碔
磃
磙
磲
礶
礽
祫
祯@@
禠
禦
禲
秅
秞
秥
秨
秫
稅@@
稥
稦
稭
種@@
稹
穌
穑
穡
穸
窣@@
窨
窪
竄
竦
笘
笮
筌
筚@@
箅@@
篁
篙@@
篝
簀
籀
籲
籵
糞
糺
紀@@
紐
純
紙
組
絲@@
綜@@
綦
維
綱
綵
綿@@
緍
緒@@
緝
繬
繰
纙
纣
缂@@
缌
缫
缭
罅
罡@@
罨
罷@@
羨@@
羰
翌
耔
聖
聳@@
職@@
肅
肫@@
胔
胲
脅
脤
脫@@
脴
腧@@
腼
膄
臁
臃
臨
臺
臾@@
與@@
舧
舸@@
艟
艨@@
艿
芊@@
芛
芰
芶
苓@@
茁
茌@@
茴
茼
荈
荨
荭
莜
莶
菟
菡@@
菺
萇
萠
萣
蒎
蒡@@
蓦
蔟
蕞@@
薊
薩
藺
蘩
虜
蚣@@
蚪@@
蚬@@
蚰@@
蛂
蛲
蜉
蜘
蝌
螛
蟲
蠍
蠧
蠱
蠲
蠵
術
衮@@
衽
袚
袧
袮
裣
複
褔
褚
褛@@
襪
規
規@@
覽
觀@@
觊
觔
觜
訇@@
訊@@
訕
訾@@
詻
誤
課@@
謗
證@@
譫
譬
讚
讴
诜
谇
谑@@
谥@@
谰
豎@@
貞@@
貨
貴
賭
賴
購@@
赉@@
赡
赧@@
趄@@
跻
踬
躓
躜
輓
輪@@
轇
轉
轕
轹
農@@
迂
迡
迴
迺
逄@@
週
逶
遊@@
遞@@
適
遴
郄
郇
郏@@
郫@@
鄉
鄢@@
酎
酏
酗
酝
酹
醜@@
醩
釀
釋
釬
釭
鉛
鉬
鉻
鉻@@
鋈
鋒
鋤@@
錀
錨
錶
錾@@
鍜
鎬
鎮@@
钔
钤@@
铉@@
铖
铤
铨@@
锎
锲
锿
镔@@
镕@@
镟
镢@@
镤
閒
閒@@
閔@@
閡
闼
阆
阇
阋
陝
陰@@
陸
陽
隨
隱
雒@@
雜
霦
靈@@
鞥
鞦
韶
頂@@
順@@
顏@@
類@@
顧@@
顯
颛@@
颟@@
颢@@
颣
飄@@
飏
飧
餌
餸
饨@@
馓@@
馱
駕@@
駛@@
騕
騙
驗
驥@@
驸
骅@@
骓
骖
骘
骷
髈
髑
體@@
髮
髯@@
鬨
鬯
魃
鮣
鲀
鲰
鲽@@
鳆
鳇@@
鴿
鵟
鶪
鶼
鷞
鷹
鸛
鸪@@
鸲@@
鹁
鹆
鹇
鹣@@
鹮
鹸
鹾
麥
黟@@
黠@@
黵
鼯
齊
齒
︱
︾
﹩
Ｃ
Ｉ
Ｖ
ｂ
ｘ
￠


ª
²
³
ì
ñ
ò
ń
Ţ
ū
ǎ
ǜ
ˉ
˚
Γ
Ζ
Θ
Ι
Σ
η
κ
λ
ρ
υ
Л
Р
Ф
Ш
Ь
б
в
к
о
с
ф
ю
ё
‖
′
‵
€
Ⅶ
Ⅷ
↘
√
≠
⑥
⒂
⒇
┏
┓
┤
╀
╩
╬
╰
◊
♀
⸺
〨
う
ぇ
か
が
ざ
じ
そ
と
な
ひ
び
ら
り
ゑ
ゥ
ウ
ェ
エ
カ
ギ
サ
ズ
ソ
タ
ダ
ブ
ヘ
ユ
ラ
レ
ヱ
ヾ
ㄎ
ㄤ
ㄥ
㈣
㏑
丄
丌
乸
亂@@
亻@@
仡
伋@@
伔
伛@@
伿
佀
佌
佞@@
佥
佥@@
佪
佴
佶
佺
佾
侐
侑
侓
侖
侞
俓
俙
俠
俨
俳
俴
俵
倂
倓
倖
倛
倥
倮@@
偉@@
偭
側
偽
偽@@
傀
傌
傓
債
傿
僅
僊
僋
僑
僣
僯
僺
儃
優@@
児
兕
冚
冿
凐
凖
凣
凼@@
刂
刎@@
刓
刭
刲
剀@@
剒
剕
剝@@
剡
剡@@
創
劃
劃@@
劐
劓
勁
勢
勰@@
勸
匍
匢
匯@@
區@@
卬
卼
厙
厡
厣
厲@@
叇
叵
吅
吚
吳@@
咓
咙
哊
哢
哬
哵
唄
唌
唟
唵
唹
唼
啘
啞
啣
喚@@
喞
喫
喰
喾
嗍
嗱
嘔
嘜
嘰
嘰@@
噍
噏
噚
噯
嚕
嚥
嚨
嚱
囀
囫
圍
圓
圓@@
圖@@
圧
圪
圪@@
圯
垐
垚
垠@@
垲
埇
埢
埤
埤@@
埥
埬
埭
埯
埶
埾
堈
堎
堖
堙
堠
堩
堯
堳
場@@
堺
塋
塒
塗@@
塬@@
墀
墊
墚
墫
墬
墳
墻
壇
壋
壓
壞@@
壯@@
夤
夤@@
奮@@
妎
妘
妤
姒
姝@@
姦@@
姫@@
姹
娀
娛
婈
婖
婜
婤
婦@@
婬
婭
媎
媬
嫋@@
嫑
嫗
嬥
嬬
嬰@@
嬲
孳
宄
宮@@
寀
寤@@
対
尒
屜
層@@
屺
屾
岍
岙@@
岡
岡@@
岢
岣
岵
岽
岿
峄
峒@@
峓
峔
峙@@
峚
峬
島@@
峽@@
崃
崤
崮@@
崸
嵊
嵯
嶇
嶋
嶙
嶷
巖
巣
帀
帥
帥@@
師@@
帲
帳@@
幇
幣
幷
庀
庈
庝
庫@@
廁@@
廂
廒
廘
廚@@
廨
廰
弅
弇
弒
弒@@
弝
彈
彊
彌@@
彖
彵
徘
忉
忐
忝@@
忳
忻
怄
怉
怢
怳
怹
怿
恆@@
恝
恧
恫
恲
恽
悢
悫
悭
悮
悶
惝@@
愍
慇
慘
慝
慿
憂
憲@@
懇
懇@@
懶@@
懸@@
戋
戙
戛
戡
扠
扢
扽
抅
抎
抔@@
拃
拸
挹
挼
捫
捭
捲
捽
掃@@
掊@@
掙@@
掴@@
掹
掾
掿
揎@@
揚@@
揞
揤
揮
揸
揹@@
損
搖@@
搵
摅
摑
摠
摰
摻@@
摼
撄@@
撖@@
撘
撜
撥
撾
擁
擗
擠
擡
擭
擱
擱@@
擴@@
擶
攃
攅
攷
攸
敓
敘
敘@@
敯
敻
斁
斉@@
斒
斕@@
斿
旒
昇@@
晔@@
晗@@
晷@@
暄@@
暈
暈@@
暏
暪
暷
曈
曬@@
曽@@
朸
朼
杪
杲@@
杸
杻
枑
枔
枵@@
柁
柆
柝
栝
栟
栳
桄@@
桕@@
桖
桜
桴
桵
梃
梃@@
梣
梤
梩
棟
棸
棼
椟@@
椤@@
椥
楈
楊
楫@@
業@@
楮@@
極@@
榅
榇
榈@@
榮
榮@@
槑
様
樅@@
樑
樓@@
標@@
樯@@
樸
樾@@
檄
檅
檔@@
檩
欖
欹
歷@@
殂
殌
殲@@
毆
毬
毵
氇
氈@@
氕
氛@@
氤
汜@@
汴
沣@@
況@@
泂
泐
泔
泖
泭
洄
洨
洩@@
洳
洷
浜@@
浞
浠@@
浯@@
涳
涼
淆
淒@@
淕
淚
淝
淨@@
淪
淼@@
渌@@
減@@
測
渾@@
湊@@
湔
湧@@
湪
湴
湹
溆@@
溧
溫@@
溱
溼
溽@@
滂
滄@@
滅@@
滷
漒
漥
漭
漸
漾@@
潋
潍
潚
潪
潰
潲
潵
澤@@
濃@@
濠@@
濫
濫@@
濬
灏@@
灑
災
災@@
炂
炅@@
炆
炱
炵
炷@@
炻
炻@@
烏@@
烚
焯@@
煉@@
煖
煦@@
熱@@
熵@@
燀
燄
燈
燈@@
燊
燦
燭@@
爭@@
爺@@
牉
牊
牴@@
牶
犋
犒
犘
犷@@
犾
狇
狍@@
狣
狥
狪
猞
猭
猳
獅@@
獎@@
獐
獗@@
獵
獹
玊
玕
玢@@
玦
玪
玱
玴
玵
玶
珄
珇
珓
珗
珘
珛
珮
珲
珺
珼
珿
琊
琊@@
琍
琎
琑
琚
琚@@
琛@@
瑀
瑅
瑈
瑌
瑚@@
瑤
瑩
瑼
瑿
璁
璊
璍
璎
璓
璸
璺
甃
甍
甯
畂
畄
畍
畚
畛
畝
畟
畹
疃
疋
疎
疶
痁
痄@@
痺
痼
痾
痿@@
瘉
瘓
瘡
瘥
瘭
癀
癆
癎
癚
皁
皃
皈
皤
盃
盚
盜
盧
盫
盱
眀
眄
県
眗
眛
眥
眵
眻
睃
睍
睜
睜@@
睨@@
睳
睴
睼
瞀
瞆
瞦
瞶
矧
矸
矹
砀
砃
砆
砉@@
砋
砎
砐
砓
砗@@
砨
砫
砬
砯
砲
硄
硭
碅
碭
碹
碿
磉
磚
磞
磬@@
磴@@
礖
礚
礞
礡
礻
祉@@
祓
禊
禣
禦@@
禳@@
秈
秙
秪
秶
稂@@
稣@@
稰
稲
穖
穩
窀
窅
窈
窪@@
窬
窰
窺
窽
窾
窿@@
竀
竊
笄
笊@@
笚
笝
笠@@
笥
笭
笳@@
笵
笿
筂
筆@@
筊
筍@@
筢
筺
筿
箇
箦
箪
箪@@
範@@
篚
簆
簈
簒
簖
簘
簟
簥
籃@@
籈
籐
籠
籥
粄
粜
糍
糤
糧
紂@@
紇
純@@
細
紹@@
絀
絆@@
絞@@
絬
綠
綬
綳
綻
綾
緑
線
緝@@
緣
緾
縐
縛
縣
縫
縮
縳
績
繞@@
繡
繩@@
繷
繻
續@@
纐
纥
绀@@
绋
绠
绱
缃
缇@@
缐
缑@@
缙
缱
缲
缳
罂
罙
罯
罰
罴
罾
羝
羭
羼
羿@@
翋
翦@@
耑
耜
耣
耨
耪
聃
聿
肂
肈
肪
肫
肵
胙
胤@@
胩
脅@@
脋
脎
脕
脣
脩@@
腀
腆@@
腎
腟
腩@@
腫@@
腳@@
腴@@
腶
腸
膚
膠
膣
膥
膦@@
臉@@
臥
舃
舐@@
舗
舣
舦
舳
舻
舿
艶
芗@@
芘@@
芚
芟@@
芤
芧
芲
芵
苀
苂
苈
苌
苐
苖
苫@@
茆@@
茇
茍
茑
茞
茩
荂
荏
荦@@
荩
荪@@
莊@@
莌
莐
莖
莛
莮
莸
萆
萊
萞
萯
葑
葑@@
葙@@
葫
葭
葭@@
蒉
蒐
蒗
蒗@@
蒭
蒼@@
蓁
蓁@@
蓊
蓍
蓥@@
蓰
蔌
蔔
蔘
蔢
蕈@@
蕯
蕹
蕺
蕺@@
蕻@@
薔
薙
薤
薤@@
薺
薼
薿
藍
藐
蘅@@
蘇
蘧
虛@@
虢@@
虮
虴
蚐
蚔
蚚
蚨
蚨@@
蚰
蚶@@
蚻
蚽
蚾
蛁
蛈
蛌
蛎@@
蛻
蜞
蝤
蝨
蝴
蝼
螭
蟀@@
蟄
蟈@@
蟑@@
蟓
蟛
蟠
蟮
蟲@@
蟻
蟻@@
蠔@@
蠛
蠟@@
蠻
蠽
衆
衊
衎
衵
袀
袏
袙
袪
袷
裌
裒
裔@@
裨
褰
襦
襬
覃@@
覓@@
覚
覦
覷
覹
觇
觌
觏
觕
觫
觸
觸@@
訂
訊
訛
訪
訪@@
訫
訾
詞@@
詠
詩@@
詭@@
詳
誇
誇@@
誕@@
誡
誹
誹@@
諅
諺@@
謠
謫
謹@@
譎
議
議@@
讀
讓@@
诒@@
诙
谌@@
谞
谫
谯@@
谵
豈
豕@@
豬@@
豭
貓@@
負
貪@@
貸
貸@@
費@@
賅
資
賓
賓@@
賜
賢@@
賤@@
賦
賭@@
賺
贇@@
贈@@
贊@@
贖
贖@@
贗@@
贠
赍@@
赜@@
赭
趱
趺@@
趼@@
跂
跆
跏@@
跔
跣
跣@@
跫
跸
跹@@
踄
踅
踊
踌
踡
踣
踫
踬@@
踭
踯
踲
踴@@
蹒
躂@@
躄
躍@@
軍
軎
軞
軟
軟@@
軼
輅
輝
輾@@
輿
轂
轄@@
轱
轲@@
轵
轸
辇@@
辭
辯
辺
迀
迕
迗
迮
迿
逜
逡
逥
逯
遊
達@@
遘
遞
遷
遼
邂
邏@@
邙@@
邟
邠
邰
邳
邺
郗@@
郛
郜
郧
郪
郬
郲
鄧@@
酆
酔
酩
酽
醑
醜
醢
醵
針
針@@
釦
鈉@@
鈔
鈕@@
鉊
鉓
鉣
銅
銎
銘@@
銨
銲@@
銷@@
鋼@@
錐
錢@@
錥
錫
鍚
鎇
鎏
鎮
鏊@@
鏝
鏽
鐪
鑚
钇@@
钏@@
钺@@
铄@@
铍@@
铓
铡
铫
铹
锒
锓
锔@@
锖
锗@@
锞
锩
锪
锫
锬
锸
镌
镒@@
镚
镥
镪
镳@@
镴
長@@
閃@@
閘
閠
閹
闊
闔
闶
阃
阆@@
阍
阏
阡
阨
阼
陃
陉
陎
陓
陞
陟
陣
陣@@
陧
陳
階
際@@
隳
隴
隸@@
隼@@
雒
雖@@
雛
雛@@
雩
霤
霧@@
霪
霪@@
靜@@
鞕
鞯
韌@@
韓
韜
頗@@
頰
頹@@
頻@@
額
顯@@
顳@@
顸@@
颃
颷
飄
飆@@
飇
飓
餎
餓@@
餘
餘@@
餬@@
饑
馄
馇
馒
馓
馗@@
馴
駁@@
騉
騨
驀@@
驁@@
驅
骀
骋@@
骍
骯
骻
髙
髦
髫
髻@@
鬚
鬛
鬧@@
鬲
魇@@
魷@@
鮟
鮪
鮮@@
鯊@@
鰂
鰤
鱇
鲉
鲥
鲬
鲭@@
鲴
鲹
鳇
鳉
鳏
鳒
鳳
鳶
鴷
鵝
鵪@@
鶉
鶴
鶸
鶿
鷀
鷐
鷥
鷭
鷸
鷼
鸚
鸱@@
鸸
鸻
鹈
鹌
鹟
鹠
鹼
鹽@@
麈
麴@@
麹
麿
黂
黃@@
黧
黩
黪
黷@@
黼
黽
黾@@
鼋@@
鼱
鼴
鼷
鼽
齉
齟
齡
齡@@
齴
龃
龉@@
龐@@
龜
龠


︽
︿
﹍
﹕
﹚
﹞
＇
Ｆ
Ｇ
Ｈ
Ｋ
Ｒ
Ｓ
Ｔ
Ｗ
｀
ｈ
ｋ
ｏ
￡
￣
