<pad>
<eos>
<unk>
.
,
the
i
you
to
a
?
and
of
's
it
in
that
't
is
we
for
he
on
this
me
what
have
was
!
with
be
but
your
my
not
are
'm
-
...
can
know
're
do
don
just
all
so
they
no
if
at
as
she
there
like
out
get
up
about
from
one
her
"
here
him
his
an
right
or
go
'll
will
well
when
got
how
think
want
now
by
yeah
've
were
who
has
would
had
did
more
time
some
been
see
come
them
back
us
because
oh
our
going
could
okay
let
why
good
gonna
take
need
their
look
people
man
said
where
make
way
really
only
:
tell
over
down
then
didn
say
into
something
should
'd
two
new
little
any
other
never
than
too
off
which
hey
even
'
very
yes
mean
these
its
am
after
much
first
work
still
give
before
day
last
thing
life
find
help
love
re@@
sure
years
doing
those
-@@
thought
sorry
put
may
also
world
anything
most
un@@
many
through
home
great
made
every
again
away
around
night
please
uh
talk
call
long
things
being
told
must
god
keep
year
better
stop
l
guy
always
maybe
does
three
such
might
money
nothing
in@@
everything
big
ever
)
found
(
china
;
another
house
own
place
lot
feel
old
doesn
guys
room
someone
best
s
wait
won
course
kind
left
while
today
same
believe
use
wanted
next
name
son
came
done
looking
o
used
mr.
bad
says
leave
both
trying
few
enough
car
family
father
getting
went
stay
thank
t
since
job
a@@
business
o@@
saw
sir
school
coming
already
show
hear
fine
girl
e@@
s@@
head
able
real
without
each
try
men
together
talking
between
took
mother
mom
wasn
actually
listen
once
i@@
k@@
isn
else
dead
under
wrong
days
end
kill
part
nice
ask
heard
d@@
called
case
seen
care
whole
yet
ago
understand
mr
remember
start
city
baby
um
government
move
chinese
company
mind
hard
happened
t@@
en@@
cause
co@@
ok
g@@
dad
p@@
open
system
woman
run
friend
high
de@@
idea
person
face
pretty
water
wouldn
different
second
yourself
$
knew
set
boy
having
country
live
working
morning
against
until
change
week
party
hold
ready
bring
wife
turn
hope
problem
play
making
less
ted
ed
u@@
king
er
hand
point
ti@@
ing
times
important
friends
heart
far
free
es
hell
power
ts
gotta
saying
killed
probably
m
phone
al@@
side
body
taking
anyone
y@@
state
tonight
lost
ate
late
number
guess
wanna
couldn
five
meet
children
kids
thinking
bit
di@@
myself
line
ers
wants
looks
happy
makes
four
everyone
ma@@
c@@
though
haven
m@@
later
women
li@@
soon
deal
b@@
an@@
shall
pay
sometimes
matter
ro@@
market
%
n@@
thanks
ra@@
young
y
red
e
alone
l@@
to@@
ca@@
hours
means
almost
mo@@
gone
office
tomorrow
brother
gave
z@@
ting
kid
become
close
f@@
ha@@
president
small
police
blood
si@@
hit
fucking
asked
months
ar@@
during
watch
death
full
check
team
die
whatever
k
book
ated
cut
half
minutes
control
least
food
worry
door
d
la@@
stuff
huh
1
comes
rest
led
law
bed
past
couple
hands
war
lo@@
game
se@@
started
public
somebody
true
american
shot
ri@@
shit
town
easy
behind
reason
miss
al
news
sa@@
ah
hi
exactly
information
read
g
hotel
inside
con@@
light
bo@@
fire
hot
eyes
er@@
word
order
le@@
c
land
top
supposed
ma
human
story
chance
front
po@@
eat
2
happen
over@@
plan
ta@@
study
tried
hello
either
n
bank
p
trust
needs
security
h@@
gets
no@@
six
street
outside
often
knows
beautiful
child
ho@@
question
group
clear
per
living
age
st@@
ly
research
10
doctor
service
break
sit
area
walk
buy
hurt
stand
r@@
fight
america
husband
according
others
fact
so@@
ating
aren
do@@
forget
fuck
seems
v@@
de
bu@@
died
air
sleep
sp@@
met
me@@
--
along
brought
using
fun
it@@
building
daughter
excuse
minute
parents
everybody
known
early
safe
quite
dinner
crazy
on@@
white
dis@@
development
ass
gun
car@@
taken
truth
cannot
anyway
ous
south
million
possible
running
economic
special
however
companies
hu@@
western
local
telling
drink
ds
pro@@
coffee
ab@@
u
girls
goes
moment
national
sh@@
afraid
mu@@
future
married
mine
answer
b
se
waiting
meeting
including
ac@@
whether
ain
or@@
report
sing
ten
given
20
st
go@@
save
rather
wish
pre@@
hour
international
send
pe@@
cu@@
ling
north
sister
anymore
speak
el@@
himself
lose
th@@
sent
be@@
month
ch@@
perfect
t-@@
sex
pick
black
du@@
weeks
drive
paper
social
3
across
university
shut
mi@@
lives
lu@@
hate
class
mar@@
countries
words
ms
sense
/
within
feeling
00
space
test
trouble
financial
man@@
w@@
strong
large
seem
--@@
sounds
for@@
looked
based
5
per@@
damn
field
board
earth
ter
30
hospital
am@@
date
dog
list
history
ru@@
needed
road
win
ation
figure
problems
ne@@
several
key
he@@
tu@@
longer
’
general
chief
technology
fall
felt
private
turned
.@@
sound
table
tv
economy
j@@
political
risk
evidence
ship
ding
tions
boys
especially
cool
worked
wa@@
ni@@
vi@@
serious
sign
works
da@@
hair
fast
court
among
pa@@
em
price
near
finally
foreign
ahead
fi@@
poor
step
learn
lie
sort
ad@@
york
murder
support
growth
ant
offer
ks
als
boss
level
es@@
ways
playing
at@@
leaving
bi@@
gu@@
su@@
alive
stupid
anybody
states
questions
nobody
x
ans
takes
instead
lead
lady
promise
low
act
health
clean
internet
sick
middle
asking
bar@@
energy
yours
les
access
music
tri@@
breakfast
e-@@
industry
ates
lord
giving
worth
single
le
global
en
ba@@
major
return
cold
ses
choice
re
data
personal
john
tion
shoot
ded
shouldn
likely
&
te
enjoy
ones
process
pull
form
under@@
write
short
perhaps
center
management
der
piece
force
is@@
park
honey
share
west
tic
follow
third
moving
hi@@
rich
trade
united
secret
il@@
d-@@
experience
students
changed
touch
bar
4
mis@@
ally
brain
view
ton
box
available
funny
ine
policy
military
interest
pi@@
relationship
wall
ps
yesterday
drop
eye
ground
east
ons
happens
seeing
station
art
res
rate
ring
oil
pu@@
paid
missing
capital
picture
dream
sha@@
out@@
sell
attention
main
college
decided
6
spend
op@@
rooms
qu@@
sea
w
y-@@
na@@
crime
z
situation
value
card
banks
ent
pain
catch
certain
men@@
te@@
hang
ga@@
effect
english
self-@@
weren
shed
dance
mor@@
r
x@@
position
protect
although
calling
department
born
present
central
min@@
example
sed
cell
straight
par@@
kept
computer
common
japan
dr.
explain
agent
id
spent
lying
feet
forward
article
thinks
further
scared
record
cover
usually
education
'@@
recent
ice
floor
dark
voice
har@@
pass
completely
ex@@
somewhere
glad
gi@@
15
th
entire
50
ance
themselves
simple
dy
worse
attack
bitch
credit
lucky
sts
seven
ge@@
science
lunch
loved
type
ic@@
design
7
as@@
cost
welcome
expect
difficult
ball
sitting
store
caught
became
project
river
watching
natural
charge
killer
throw
s-@@
fish
rules
sub@@
books
ran
8
model
ec@@
v
upon
eight
sweet
services
ability
higher
medical
2@@
till
ke@@
cash
victim
fu@@
12
miles
army
europe
calls
ings
mon@@
star
fear
ver@@
deep
worried
ties
round
beat
investment
inter@@
pressure
bet
sti@@
dude
her@@
ter@@
jo@@
club
ked
meant
ten@@
h
ci@@
message
jack
green
ge
ity
gas
master
up@@
non-@@
mouth
des
tive
billion
prices
the@@
plans
ch
tax
ea@@
bag
markets
totally
minister
due
la
ze
theory
wi@@
certainly
analysis
da
standing
ag@@
scene
movie
100
sun
search
ler
above
decision
action
held
visit
quickly
weird
property
wedding
broke
none
queen
cha@@
island
el
size
sc@@
huge
fell
crisis
ber@@
fully
mer@@
busy
moved
song
starting
jesus
wear
involved
former
quality
gs
earlier
handle
wearing
continue
result
ve
normal
captain
itself
bri@@
ls
clothes
ment
bought
unless
current
talked
cor@@
lin@@
beijing
swear
imagine
can@@
train
quick
ph@@
wonder
fresh
ride
double
3@@
recently
media
create
growing
summer
ya
f
ty
members
practice
imp@@
london
site
stopped
provide
press
modern
ters
biggest
absolutely
following
war@@
cla@@
began
......
society
products
boat
holding
whose
ir@@
built
mark
build
drug
smart
obama
prison
ur@@
except
firm
rights
careful
drugs
interesting
gra@@
officer
results
tea
partner
ley
culture
tired
shows
respect
fa@@
french
ster
u.s.
window
language
nature
obviously
che@@
bill
trip
quiet
mad
blue
sto@@
cases
officials
ou@@
changes
killing
bur@@
9
ju@@
training
legal
patient
program
dress
ladies
writing
ying
european
finish
pri@@
issue
luck
peace
definitely
simply
interested
account
apartment
plus
bus
online
investors
plane
marriage
hurry
ff@@
mistake
showed
fair
letter
jobs
ky
i.
ming
sta@@
role
accident
tra@@
ve@@
honor
sh
stage
workers
dangerous
pping
cal@@
anywhere
mrs.
fighting
india
contact
walking
zed
broken
places
stick
mb@@
nearly
staff
fla@@
reading
japanese
realize
dear
cop
ver
agree
mission
production
tough
den@@
tree
kidding
period
bra@@
keeping
difference
choose
gold
address
demand
sales
reach
driving
seemed
allowed
seriously
complete
lawyer
daddy
putting
desk
os
hong
points
focus
wrote
match
sion
video
girlfriend
der@@
prove
vo@@
machine
helped
file
code
grow
debt
bye
related
ja@@
wine
christmas
wake
shop
british
mal@@
amazing
popular
hmm
restaurant
apple
ned
include
style
judge
lower
slow
allow
numbers
areas
track
sen@@
pen@@
eating
expected
suddenly
buddy
treatment
pool
sold
foot
d.
fe@@
ev@@
gh@@
maker
ness
church
angry
nuclear
carry
fault
gives
ke
join
systems
sky
safety
rise
beginning
total
david
push
ren@@
ched
count
games
ary
med
planning
whoa
blow
screen
hasn
consider
travel
stone
film
learned
official
base
apparently
happening
feels
cars
cra@@
boyfriend
performance
a.
rock
li
similar
4@@
ful
com@@
wow
final
fix
finished
zing
lived
extra
figured
fo@@
re-@@
spending
insurance
ies
ator
towards
gentlemen
et
construction
passed
cent
shi@@
fly
missed
appreciate
11
detective
sin@@
ia
col@@
forever
40
evening
teacher
mm
onto
kong
ner
neither
skin
parts
ic
ker
product
proud
traditional
helping
ves
plant
wonderful
ite
radio
arm
names
famous
wind
yo@@
bigger
seat
ki@@
hoping
clearly
lines
turns
ations
ess
issues
disease
cur@@
guest
accept
sal@@
success
leader
rule
saved
environment
cancer
director
necessary
calm
guests
cops
rec@@
patients
19@@
birthday
terrible
spot
ger
arms
george
responsible
client
dec@@
ard
lots
ors
stock
pp@@
anti@@
student
potential
written
grab
damage
selling
nation
increase
prime
raise
beyond
ey
television
weight
ing@@
caused
target
hole
opportunity
truck
tor@@
willing
strange
effects
played
source
region
century
closed
flight
fit
im@@
ously
relax
operation
favor
exchange
leaders
bear
career
lies
knowledge
memory
professor
application
suspect
amount
term
standard
powerful
au@@
competition
ta
weapon
picked
co
ins
liked
horse
hide
michael
fin@@
percent
s.
ss
twice
nine
gift
located
suit
worst
camera
cross
ff
loss
il
star@@
ka@@
ko@@
fat
dollars
subject
surgery
fired
mat@@
washington
est
location
community
surprise
dying
thousands
wood
doubt
note
created
soul
ders
grand
spirit
back@@
method
kiss
otherwise
fund
resources
forces
season
likes
notice
mp@@
ancient
investigation
largest
airport
rates
heavy
manager
leading
gen@@
mess
sad
avoid
glass
immediately
afternoon
lab
my@@
teach
ideas
anti-@@
trial
pl@@
stuck
member
leaves
lock
5@@
acting
named
terms
speed
lea@@
network
tor
dri@@
ping
tes
speaking
pulled
ys
nor
despite
comfortable
mile
sur@@
planet
sis
mil@@
uncle
gate
ce@@
sleeping
ches
favorite
ence
remain
shoes
losing
reported
original
wil@@
federal
gar@@
u.
remains
costs
ck@@
honest
sam
suppose
bodies
eli@@
race
supply
developed
chi@@
van
village
animals
hundred
dr
teaching
victims
begin
jail
page
google
cat
pictures
we@@
bal@@
particular
ry
fl@@
dly
animal
groups
finding
cre@@
drunk
event
25
offers
smell
weapons
super@@
quit
mention
fruit
checked
admit
decide
feelings
levels
records
average
russia
beach
pan@@
shing
tre@@
failed
ne
upset
ha
learning
marry
mc@@
tur@@
ste@@
bathroom
physical
]
[
vote
ended
lake
professional
contract
1@@
ism
promised
bs
ven@@
trans@@
al-@@
guard
beer
post
san
add
drinking
mate
flat
ang@@
conference
bridge
concerned
seconds
studies
wh@@
hearing
agreed
lied
cities
eventually
cute
ning
plenty
received
medicine
apart
treat
locked
cri@@
daily
dra@@
ck
herself
indeed
bio@@
protection
suggest
reports
san@@
wal@@
executive
xi@@
conditions
witness
ser@@
exit
ap@@
dry
firms
forced
union
germany
spring
warm
crap
arrest
tr@@
direct
structure
scientists
easier
sk@@
weekend
basic
britain
asia
cli@@
approach
france
roll
korea
forgive
..
ar
unit
evil
goods
cup
lan@@
parking
staying
waste
agency
walked
ben@@
heads
forgot
corner
paying
des@@
danger
dropped
va@@
lar@@
stu@@
ad
driver
ger@@
cells
besides
positive
traffic
listening
condition
hand@@
content
particularly
nu@@
justice
surprised
alright
activity
empty
opened
lt
dar@@
web
tie
stories
campaign
image
bel@@
don@@
german
advice
whoever
customers
bottom
cho@@
ii
micro@@
#
moon
range
material
emergency
administration
ie
impossible
lay
serve
election
speech
americans
jump
bomb
sexual
easily
features
flowers
sho@@
families
ob@@
sive
cr@@
criminal
directly
kitchen
blame
nervous
bunch
burn
specific
bl@@
female
reasons
designed
magic
dreams
ty@@
shower
series
chair
lat@@
tion@@
influence
q@@
purpose
bird
char@@
followed
researchers
mountain
hall
older
raised
24
spread
fore@@
orders
shes
russian
battle
equipment
strategy
ourselves
rain
mes
wondering
plu@@
senior
tly
gr@@
africa
spoke
ving
funds
win@@
kick
taste
various
tru@@
iron
population
successful
ed@@
opening
buying
fer@@
and@@
committee
tional
impact
net
bea@@
council
healthy
therefore
bullet
ends
sting
hungry
mental
schools
rid
corporate
ments
mama
parties
ators
bringing
neck
ari@@
lovely
photo
copy
county
responsibility
ani@@
br@@
ered
lation
challenge
ong
software
events
ai@@
strength
color
ish
pal@@
agreement
wide
believed
individual
statement
shooting
tro@@
greater
path
meaning
gre@@
frank
square
wing
guilty
latest
mobile
surface
duty
tic@@
stars
employees
ly@@
pregnant
ear@@
release
18
fied
tight
domestic
del@@
below
dogs
tape
conversation
income
effective
high-@@
keeps
owe
gotten
progress
prepared
you@@
bro@@
7@@
comp@@
details
mary
ol@@
escape
sa
sy@@
freedom
band
guns
heat
innocent
cy@@
faster
loves
ther@@
hadn
block
closer
hy@@
lights
opinion
friday
peter
kers
signed
considered
est@@
paris
tom
doctors
measures
stole
faith
signs
mac@@
cultural
changing
fill
ul@@
behavior
threat
cry
function
everywhere
beauty
cat@@
limited
pleasure
thousand
weather
california
male
sun@@
ged
fri@@
aware
possibly
ching
birth
ton@@
wild
milk
ce
6@@
ances
ian
excellent
fool
smile
enemy
knowing
turning
air@@
arrived
direction
steal
dollar
ji@@
ll
lo
ali@@
ticket
sight
reform
ships
ging
discuss
advantage
sted
tics
tells
holy
lack
weak
toward
interview
leg
g-@@
ines
appear
ved
friendly
improve
skills
sees
refrigerator
highly
cards
tan@@
character
non@@
march
expensive
ung
produce
val@@
mel@@
han@@
nose
offered
brothers
civil
joe
…
ford
covered
laws
thy
stri@@
000
familiar
gay
one-@@
reality
generation
mp
smoke
len@@
discovered
dirty
thus
develop
soldiers
gging
uses
hero
zone
ka
ised
nations
authorities
christ
bul@@
sea@@
hardly
joke
defense
feed
camp
proof
hiding
becoming
adult
matters
player
ban@@
noticed
commercial
falling
quarter
flying
response
developing
hundreds
connection
claim
draw
tiny
added
idiot
brand
bre@@
governments
realized
ths
version
trees
users
rose
showing
secretary
includes
16
breaking
mike
meat
methods
sunday
activities
m.
shanghai
politics
scale
authority
sports
ear
appears
mer
tt
ble
cap@@
significant
a-@@
legs
ms.
starts
ang
far@@
bottle
pack
winter
regular
afford
setting
bone
mostly
charges
pants
shopping
active
taught
somehow
500
forest
ster@@
ns
england
tal@@
ny
grew
becomes
bon@@
grade
mass
60
ocean
correct
organization
task
monday
obvious
grown
giant
rising
sector
ss@@
separate
squ@@
status
efforts
down@@
shift
boo@@
dating
sat
effort
tin@@
ited
deserve
eggs
9@@
talks
ori@@
fed
load
pop
industrial
balance
cru@@
mid@@
tests
whom
tour
israel
complimentary
headed
ing-@@
harry
greatest
plants
shirt
streets
text
knife
excited
barely
blind
offering
movement
ality
ery
un
currency
hal@@
paul
taiwan
required
files
los
truly
hanging
filled
0@@
strike
zi@@
negative
released
rent
museum
str@@
bor@@
exercise
brown
pla@@
inv@@
arrested
houses
fil@@
hel@@
ku@@
district
runs
millions
mit@@
dev@@
wor@@
basis
garden
gri@@
14
recognize
clo@@
province
destroy
microwave
que
den
distance
bedroom
hill
provided
chicken
in-@@
cro@@
co-@@
shu@@
stress
nor@@
heaven
ably
enter
pieces
pat@@
mommy
well-@@
clock
ours
announced
james
inn
new@@
s.@@
keys
finance
coach
pin@@
thoughts
yo
gged
bright
complex
storm
doors
fake
kin
failure
armed
hea@@
species
faces
dressed
ined
reached
200
tors
device
sending
clients
extremely
shape
understanding
fro@@
helps
....
joint
southern
lit@@
sake
centre
din@@
planned
ra
vision
2010
c.
football
previous
harder
ges
phones
concern
indian
border
vehicle
benefit
flow
exist
core
lating
upstairs
map
prefer
papers
survive
anger
trading
bother
fire@@
degree
ill
goal
saving
awesome
pped
unique
2008
route
crew
returned
relations
fuel
m-@@
notes
section
18@@
assets
ering
scientific
intelligence
crying
yep
ore
signal
sters
hor@@
ok@@
tis
birds
sions
reduce
sel@@
highway
coast
lieutenant
stic
dealing
na
steps
port
dies
letting
treated
published
smaller
budget
smoking
dan
ordered
work@@
businesses
bastard
sale
confidence
fre@@
request
factory
hat
ooh
solution
iled
gun@@
ot
beds
por@@
bla@@
ii@@
compared
dancing
prevent
congress
prepare
apologize
attorney
charlie
ears
17
print
photos
windows
murdered
environmental
materials
flu@@
stood
et@@
secure
climate
row
congratulations
via
all@@
letters
bru@@
cen@@
cook
mentioned
pretend
asleep
fan
wo@@
ingly
sides
els
fortune
chemical
command
di
projects
gal@@
rare
pic@@
assume
ils
served
meanwhile
teeth
yu@@
sla@@
breath
division
def@@
chain
ile
cheap
connected
goddamn
cake
carried
spo@@
universe
edge
estate
movies
stolen
illegal
laugh
whenever
s--@@
p.
mayor
sco@@
operating
soft
mexico
ben
heading
sor@@
factors
non-smoking
violence
ages
eh
lin
auto@@
suite
mail
saturday
suicide
ki
benefits
fashion
increased
perfectly
cher
cer@@
alarm
included
asian
bloody
painting
powers
j
transfer
knock
cel@@
dic@@
managed
13
june
shares
claims
tickets
sy
complicated
8@@
watched
lee
blo@@
tuesday
partners
loo@@
water@@
apply
newspaper
basically
gla@@
mini@@
invited
sch@@
split
ensure
ho
answers
trick
farm
cutting
darling
dr@@
divorce
black@@
fication
brings
ory
prince
sudden
agents
crash
players
kinds
meal
balls
suggests
land@@
puts
moral
kes
logy
ure
low-@@
pper
ought
throughout
ay
tony
cul@@
interests
addition
attempt
neighborhood
threw
carrying
currently
fy
screw
comfort
solve
colonel
ei@@
sons
ray
manage
cuts
april
customer
tin
labor
receive
thin@@
jane
goodbye
rice
bush
stayed
aid
ft
seek
nuts
wan@@
profit
nic@@
sweetheart
operations
actual
drinks
northern
speci@@
review
kar@@
ws
tend
believes
on-@@
chest
communication
dare
enterprise
mood
annual
warning
happiness
cal
electric
package
poly@@
tea@@
je@@
standards
falls
facilities
shown
fixed
app@@
commission
tar@@
owner
buried
ur
hired
sugar
bound
of@@
chairman
alism
ghost
marks
pre-@@
fun@@
internal
snow
bones
capable
ner@@
em@@
lift
actions
bond
sites
bath
ces
wed
options
officers
wound
decisions
ens
deliver
pair
tation
hol@@
launch
high-speed
types
inf@@
pattern
destroyed
facebook
ig@@
roof
fellow
multi@@
digital
2009
finger
ana
unfortunately
younger
independent
pe
thi@@
son@@
rescue
silver
usual
chu@@
writer
ture
winning
talent
democratic
experts
bite
wave
policies
collection
measure
engine
singing
wash
folks
inflation
tw@@
remove
sweetie
pul@@
therapy
finds
italian
paint
swa@@
shots
july
wealth
aries
cream
require
fra@@
option
yellow
fail
background
consumers
urban
useful
stomach
nowhere
sil@@
henry
banking
moves
ward
library
hidden
institute
walls
critical
awful
increasingly
ridiculous
yed
cast
technical
80
>
ets
head@@
lar
cs
humans
secrets
iraq
mag@@
advanced
satellite
surely
virus
k-@@
schedule
tt@@
committed
sensitive
carbon
pur@@
leads
larger
creating
eu@@
to-@@
forms
gang
lers
troops
loose
post@@
laid
lon@@
trace
hopes
sli@@
ser
metal
checking
ale
settle
ending
massive
accounts
scra@@
iran
causes
gg@@
qui@@
italy
zation
kinda
pocket
ca
hen@@
generally
zz@@
primary
link
concept
magazine
wise
thursday
presence
personally
nick
valley
ran@@
religious
fingers
expert
stra@@
super
o-@@
i-i
ir
bucks
sets
yard
multiple
rac@@
chocolate
tered
acts
era
models
association
buildings
mps
slept
cable
league
romantic
vin@@
e.
fee
attacks
shame
ely
plate
slowly
circumstances
recovery
fishing
tech
consumer
gy
risks
vers
lets
gon@@
loud
engineering
sm@@
zo@@
belong
sergeant
established
holiday
pal
figures
ach@@
mo
stronger
assistant
nights
crowd
fantastic
op
facing
ep@@
fbi
proper
prints
yuan
ham@@
relevant
breathe
soci@@
concerns
clu@@
ites
rough
clinical
foundation
regional
homes
ist
units
teams
plastic
emotional
teachers
provides
soil
korean
bonds
ron
bas@@
jury
pit@@
brilliant
tools
burned
objective
thin
entirely
opposition
marketing
principle
september
silly
stan@@
aside
ee
tower
spar@@
housing
gain
mi
object
woods
clark
steel
babies
harm
plays
nie
solid
picking
sarah
capacity
introduce
testing
10@@
fourth
eu
smo@@
off@@
uni@@
characteristics
va
hire
,000
desire
aged
long-term
documents
journey
noise
mea@@
lesson
produced
juice
ther
naked
license
pas@@
flo@@
ney
pushed
zes
pr@@
determined
horrible
gro@@
ising
dick
ko
lonely
stable
bay
pot
revolution
bullshit
understood
fr@@
royal
eastern
reaction
q
fields
wednesday
st-@@
joy
detail
mum
affairs
dent
possibility
tall
bun@@
mountains
guide
expecting
appeared
facts
suffer
lately
attacked
audience
who@@
grace
badly
chicago
tip
by@@
asshole
introduced
temperature
vic@@
continued
joined
-year-old
makers
od@@
victory
argue
tied
transport
0
memories
robert
dy@@
ped
rush
focused
tical
coat
angel
vel@@
cameras
drove
lac@@
sooner
zhou
dor@@
additional
nearby
cked
bags
ordinary
highest
leadership
tel@@
colleagues
afghanistan
dun@@
shock
waffles
sharp
shy
r.
za
wet
artist
trac@@
taxes
senator
cation
kim
plan@@
tears
australia
dumb
pure
downtown
hopefully
chances
considering
dre@@
ents
max
mistakes
fallen
vice
facility
chose
logical
items
suffering
uk
feature
han
hin@@
ye
ise
golf
soldier
burning
january
mic
distribution
ugly
trained
bike
institutions
screwed
ham
bob
spy
carefully
blu@@
honestly
lev@@
described
tter
cia
reputation
instance
attitude
angeles
guards
decades
vacation
bat@@
hunt
pen
solar
dust
relatively
switch
ministry
emerging
warned
chil@@
bell
bol@@
desert
governor
disaster
disappeared
angle
ative
jealous
t.
delivery
funeral
bb@@
fate
berg
dig
existing
maintain
survey
author
ical
bleeding
remind
run@@
politicians
iting
passing
texas
wang
owned
doc
struggle
monster
bo
shake
mainly
factor
increasing
bread
loans
payment
relationships
guarantee
nurse
fiscal
rea@@
sin
suites
tho@@
90
ners
limit
messages
suggested
princess
citizens
ville
cheese
identity
manufacturing
requires
billy
economies
jim
low@@
listed
devil
debate
democracy
lab@@
overall
perform
stal@@
oc@@
fought
ker@@
cleaning
roo@@
canada
slu@@
-based
score
december
euro
argument
meters
mul@@
hood
images
opposite
october
studied
sty
aunt
convinced
pulling
spanish
enti@@
commander
exciting
august
ken
affair
geo@@
spoken
ai
spain
formed
labour
ful@@
pig
suffered
dd@@
gam@@
rome
dge
regulations
wire
raising
2011
70
studying
temple
severe
violent
45
she@@
bureau
castle
loan
express
res@@
neuro@@
blocks
smith
300
freak
accused
alized
sword
false
analysts
mon
driven
resi@@
odd
greek
two-@@
hear@@
associated
boring
fle@@
lion
rat
throat
spi@@
cousin
youth
swimming
identify
controlled
kin@@
rer
sia
comment
hon@@
iling
faced
enterprises
mble
mrs
sources
reserve
20@@
exact
pounds
confused
abo@@
aircraft
ever@@
flower
spare
stat@@
yer
unusual
whi@@
are@@
devices
le-@@
stealing
mia
mirror
emb@@
serving
historical
matic
zer
santa
eable
2007
brave
channel
classes
stands
affect
an-@@
ex-@@
handed
sexy
liber@@
richard
stan
wi-fi
tested
profile
slo@@
nas@@
lawyers
equity
wireless
alcohol
entered
hurts
november
surveillance
variety
slightly
conclusion
las
unlike
duc@@
breathing
1.@@
majority
mou@@
hunting
values
abroad
holds
pray
rou@@
pacific
accepted
steve
suck
bury
pie
conflict
golden
festival
touched
allows
confirmed
ically
advance
host
inner
motion
pushing
hollywood
anna
regret
22
genius
placed
dated
valuable
gh
incredible
sec@@
jacket
normally
proposed
boston
post-@@
views
charged
gran@@
vegas
deals
counter@@
republic
tail
cl@@
dea@@
tically
tele@@
toilet
hyper@@
21
permission
waited
grandma
innovation
mechanism
pakistan
stores
ina
branch
pizza
radi@@
upper
celebrate
acid
bil@@
desperate
procedure
tran@@
cloud
sca@@
enemies
hook
salt
cking
ga
psycho@@
ade
pun@@
supp@@
combination
delicious
self
custody
vast
vol@@
pho@@
vehicles
applied
entry
incident
ants
experiment
button
warrant
borrow
visiting
greece
crimes
dozen
shoulder
journal
regi@@
website
brazil
fancy
palace
claimed
efficient
index
appropriate
p-@@
book@@
african
fying
lands
stream
dragon
bro
rural
sm
songs
throwing
crack
indi@@
tongue
seeking
mur@@
communist
administrative
sharing
thu@@
log@@
sation
achieve
goo@@
chuck
kicked
removed
ken@@
19
creative
gener@@
tank
curious
christian
fac@@
woke
charles
hur@@
yang
circle
disc@@
garage
oun@@
tal
lips
35
attractive
riding
bit@@
computers
wea@@
practical
three-@@
dam@@
atmosphere
tries
sand
ski
trigger
technique
de-@@
affected
applications
stake
pil@@
ace
display
dna
fans
alex
mers
programs
ology
see@@
mystery
daniel
inch
l-@@
launched
fifth
scare
blew
babe
danny
waters
witnesses
boom
ze@@
sheriff
user
forgotten
consumption
horses
ignore
poli@@
ceo
profits
15@@
issued
equal
approval
arts
ero@@
insane
green@@
invite
residents
foo@@
threatened
ya@@
appointment
plea@@
respond
wel@@
engaged
mixed
protecting
establish
and-@@
gene
expression
p.m.
tone
fal@@
glasses
nar@@
ruin
tting
electronic
promote
cou@@
pissed
shared
cab
positions
gers
sized
tac@@
deeply
pres@@
tool
pon@@
mix
chosen
determine
zero
fel@@
worker
sar@@
itation
struck
trend
our@@
sentence
forth
pes
luxury
roads
shar@@
handsome
prize
refused
i-@@
ba
cing
att@@
meter
st.
math
long-@@
electricity
importance
coun@@
managers
competitive
opportunities
tion-@@
fucked
personnel
ban
suits
marine
depends
ono@@
appeal
fur@@
loving
gates
bills
es-@@
microsoft
platform
bid
collect
strategic
downstairs
rage
reasonable
largely
ently
explanation
hung
overseas
discussion
causing
rely
play@@
wheel
read@@
waves
fol@@
pilot
sit@@
cares
cure
medi@@
corruption
grave
machines
wit@@
coal
visitors
moments
chin@@
eve
infection
madam
gy@@
cin@@
losses
silence
shel@@
ppers
requirements
scary
ease
remote
grant
repeat
kit@@
executives
owners
closing
egypt
poison
ank
confident
consequences
elements
entrance
assault
bin
diet
experienced
tub
exposed
jimmy
liver
registered
pol@@
unable
aim
junior
islands
ences
23
essential
merely
symptoms
ups
title
extreme
telephone
judgment
literature
pet
pills
connect
ats
egg
novel
with@@
cooking
dish
dal
o.
ty-@@
closely
dan@@
hearts
tissue
sol@@
grateful
io@@
tations
belt
convince
cap
conduct
chris
mid-@@
mother@@
religion
revenue
ecting
jumped
hun@@
laughing
drawing
proved
swim
personality
friendship
pel@@
recession
fu
replace
shadow
kingdom
republican
describe
parent
properly
aw
presidential
marked
pa
storage
may@@
ideal
vin
continues
home@@
securities
dump
meetings
wer
asset
turkey
van@@
individuals
ries
gods
cab@@
er-@@
bars
principles
seats
deputy
inc@@
sof@@
typical
navy
mbling
differences
ron@@
nan@@
minds
ow
advertising
alternative
mic@@
territory
all-@@
thor@@
choices
iike
lic
hated
midnight
tons
martin
approved
supplies
candidate
combined
pt
graphy
widely
pages
industries
existence
flash
les@@
tab@@
terrorist
sample
flat@@
hil@@
us@@
anc@@
resistance
discussed
loaded
sen
thomas
william
classic
nerve
unlikely
bobby
high@@
relative
beating
decent
pleased
af@@
ssi@@
tures
2012
jun@@
stro@@
morgan
sna@@
beg
robbery
degrees
revenge
tted
breaks
document
continental
mber
drag
dered
sport
genetic
grandfather
radiation
hydro@@
tradition
dness
butt
bie
grass
-up
accessible
nation@@
injury
ro
winner
cooperation
intended
naturally
programme
trapped
end@@
”
stations
lau@@
reference
courage
routine
rin@@
tear
graduate
brains
impressive
regime
sni@@
after@@
abandoned
precious
hit@@
traveling
delivered
wherever
temp@@
thro@@
tle
disappear
gor@@
ryan
clever
domin@@
purchase
earn
hits
mode
tte
amenities
hitting
represent
pride
chase
confirm
grounds
panel
bir@@
appearance
trusted
candy
farmers
priority
treating
voters
alization
economics
lates
leg@@
rapid
trash
underground
employee
selection
visual
returns
relief
yogurt
kate
temporary
characters
literally
that@@
staring
explo@@
outta
arrive
boost
charity
export
liar
ell
30@@
wolf
florida
glo@@
spacious
ceremony
defend
uniform
rolling
silent
elsewhere
occurred
punch
du
lcd
prof@@
sheet
spec@@
counter
plain
sey
brief
initial
cks
trap
creation
neighbors
chat
employment
th-@@
basement
flesh
frame
chen
hard@@
ren
linked
protected
efficiency
refuse
gym
processing
deb@@
email
lane
muscle
monetary
script
lover
se-@@
perspective
ars
acy
nah
drew
pra@@
academic
ack@@
judges
wisdom
childhood
ji
mination
house@@
encourage
oned
settled
sul@@
passion
root
venture
cos
baseball
immediate
a.m.
searching
kevin
thrown
chip
zu@@
mall
dean
backed
law@@
roman
kno@@
organic
enjoyed
lou@@
multi-@@
pink
operate
examination
frozen
decline
holes
pointed
screaming
ruined
tokyo
permanent
remembered
helpful
phase
any@@
dates
nope
technically
assure
sacrifice
grandmother
trail
philosophy
stocks
worthy
emp@@
wanting
fears
minimum
contain
bad@@
atory
database
thou
twenty
explore
monkey
sisters
exp@@
begins
disappointed
gosh
ry@@
properties
bug
hairdryer
technologies
awake
hotels
identified
00@@
privacy
providing
boxes
infrastructure
challenges
eg@@
knocked
pin
sand@@
nat@@
demands
tracking
broad
ette
ards
lounge
person@@
prior
ans@@
shore
slip
ency
adam
murderer
sno@@
toast
harvard
equ@@
theater
bes
gru@@
injured
persons
belongs
thief
explains
e-mail
officially
assistance
si
dol@@
entertainment
ics
chy
*
gentleman
manner
shops
2000
laundry
closet
maid
generous
gl@@
campus
spell
eled
brian
crossed
stock@@
liquid
night@@
panic
0s
controls
reduced
depression
investigate
shh
sav@@
swing
attached
collapse
warn
dur@@
teen
patterns
16@@
bust
scheme
unemployment
belief
electro@@
lessons
recall
eri@@
'am
accounting
ced
stre@@
allowing
defence
jerk
vac@@
ao
techniques
tren@@
couch
ini@@
mining
empire
hoo@@
packed
ts@@
cycle
appointed
ce-@@
clean@@
oning
bin@@
commit
soup
damaged
logist
proposal
jones
long@@
fli@@
suspects
ultimately
regions
tile
february
ti
rocks
soviet
completed
elevator
regulation
explained
shan
2.@@
networks
deposit
discover
eric
fairly
gil@@
funding
gather
trauma
27
mmy
begun
jet
backup
limits
stin@@
olympic
consistent
jan@@
pea@@
rings
ston
bits
analy@@
photo@@
homicide
annie
darkness
vari@@
pain@@
targets
power@@
com
covering
objects
ve-@@
backs
miami
mped
studio
earthquake
ining
senate
chapter
restaurants
sely
doub@@
rever@@
adopted
decade
acked
commitment
contains
exports
filed
flag
drawn
ly-@@
mates
remained
attend
agencies
fe
freeze
nee@@
anne
shoe
bride
acted
squad
stops
habit
alert
checks
charming
goals
elections
miracle
eaten
prisoner
atten@@
previously
rapidly
clothing
stea@@
ack
session
painful
revealed
con
explosion
2006
asks
cleared
parliament
mali@@
mini
nasty
mas
visited
mac
steady
cross-@@
savings
tch
drama
sh-@@
raw
scar@@
var@@
evaluation
practically
mation
neighbor
2005
strip
xi
corporation
17@@
ads
monitor
dil@@
vampire
blin@@
chan@@
conver@@
earned
stairs
alize
dro@@
solved
stranger
hoped
bullets
enjoying
kills
ruling
lifetime
tively
wings
quo@@
ali
award
disp@@
someday
stability
direc@@
logists
sounded
convenient
wounds
unsub
vic
sky@@
answered
constant
regard
sometime
furniture
conservative
smooth
adults
bly
elle
sk
abuse
pad@@
impression
impressed
resource
minor
dow@@
kings
random
swee@@
cy
wind@@
reward
seal
motive
mount
latin
homework
deeper
lobby
superior
tou@@
contracts
andy
ght@@
band@@
impro@@
priest
mercy
sec
treasure
taxi
diseases
clinic
volume
za@@
punishment
leaf
presented
rude
climb
combat
shell
tiger
ach
cle@@
fewer
oxygen
survived
mmm
outdoor
clinton
investments
logic
bang
walks
pose
dropping
stroke
yi@@
missions
narrow
esti@@
fies
day@@
ill@@
worries
ancy
menu
lun@@
warming
hypo@@
gorgeous
know@@
milli@@
agricultural
unknown
protein
academy
deny
even@@
iphone
yourselves
escaped
taylor
exposure
pay@@
sorts
west@@
list@@
reas@@
extraordinary
joining
principal
tracks
red@@
emperor
johnson
francisco
roger
bubble
click
clue
elected
promotion
scott
illu@@
orange
sal
wn
ber
constantly
necessarily
stays
tz
corn
ex
gui@@
lan
dumped
vulnerable
assuming
aw@@
brow@@
kins
settlement
heavily
shi
gen
glu@@
intense
ple@@
equipped
mortgage
invest
missile
mun@@
lung
singapore
wore
discovery
tory
ll@@
gross
improved
reveal
champagne
mainland
wallet
commerce
returning
skill
anniversary
ano@@
ening
granted
nut
snow@@
cereal
odds
owns
booth
functions
basketball
determination
expand
native
freaking
ac
scientist
walter
.-
alien
pity
bored
fever
handling
partly
independence
aggressive
comple@@
films
transportation
ily
payments
samples
compete
n-@@
prisoners
chasing
sue
val
tering
28
ened
warehouse
cock
pace
pollution
sn@@
hates
increases
400
avenue
cats
stepped
jerry
landing
dirt
mal
mask
arab
pardon
seed
26
dave
peaceful
garbage
nail
dle
gear
newly
quar@@
tus
capture
kle
specifically
motor
reporter
length
threatening
thick
broad@@
formation
fran@@
mono@@
lings
candidates
skull
fees
fraud
awkward
institution
scope
ee@@
physics
pit
vit@@
bra
sig@@
ashamed
posted
ections
eye@@
serial
rarely
landscape
gifts
aff@@
feeding
yield
republicans
ye@@
convenience
kyle
sha
repair
sum@@
certificate
actor
eling
gn@@
sle@@
abilities
formal
bi
foods
jac@@
murders
vital
cau@@
criticism
organized
wasting
cleaned
strict
everyday
inten@@
poverty
~
e.@@
ella
aci@@
battery
jersey
short@@
counting
ids
consciousness
hills
signature
fold
significance
ddy
dynasty
remaining
accurate
historic
tap
wars
nest
bli@@
chart
eng@@
recorded
dest
amy
serves
su
organizations
conce@@
leak
snake
knees
chi
description
exists
piss
inde@@
item
cheating
tommy
vietnam
beneath
stand@@
bless
dealer
tain@@
couples
denied
gar
75
treasury
rape
foot@@
tan
claire
l.
rats
burden
communications
outs
johnny
architecture
bull
good@@
founder
uncomfortable
offices
channels
destiny
flies
guilt
recommend
subjects
twitter
reforms
barack
footage
arranged
bowl
ide@@
slide
dramatic
tty
hurting
aspects
secre@@
show@@
survival
xes
ruled
smells
torture
gie
half-@@
stor@@
assumed
legend
creatures
crucial
producing
rachel
stopping
symbol
ven
enforcement
trunk
votes
admitted
adding
ppy
a.@@
blown
messed
universities
chips
gap
replaced
concert
emer@@
episode
sion@@
foster
surrounded
stones
duck
--and
defeat
patri@@
tism
pipe
retail
comments
tioned
gue
promises
dig@@
0.@@
dining
nate
passengers
pete
ddle
boun@@
economists
singer
jake
behalf
meantime
moscow
sum
performed
sible
useless
carl
arthur
epi@@
pastries
declared
tives
managing
intellectual
surgeon
curse
gan
string
demo@@
scheduled
manhattan
wood@@
free@@
loser
noted
enormous
alliance
alo@@
asi@@
estimated
pole
48
bab@@
ption
external
mir@@
sher
tai@@
tips
destruction
divided
forming
istic
experiences
bow
jiang
wives
burst
ess@@
diagnosis
speaks
14@@
passes
pee
typically
brush
expansion
shaped
wu@@
nightmare
ski@@
struggling
succeed
cabinet
cker
captured
dence
expectations
headquarters
improvement
tiv@@
electrical
blog
mutual
presents
urgent
agriculture
b.
psychological
theme
ah@@
ble@@
purse
recognized
solutions
aging
etc
procedures
unto
auto
kit
sian
ine@@
patho@@
biological
concrete
contrast
‘
clouds
eal
jud@@
mature
shor@@
suggesting
conventional
powder
autumn
dawn
deserves
compensation
muslim
rat@@
cement
mouse
founded
tent
stretch
indicate
rob
critics
suspicious
2-@@
cit@@
reporting
whore
bran@@
improving
fic@@
patrick
rey
ere
painted
chick
emily
tourism
dal@@
colors
inci@@
sandwich
stly
sweat
worldwide
folk
reaching
observation
inspection
supreme
goodness
graphic
theories
motor@@
break@@
immune
ize
ld
organs
bag@@
digging
dru@@
injuries
tension
larry
pha@@
loc@@
wards
sie
cave
syn@@
reliable
blast
maintenance
entering
assembly
clin@@
nam@@
chemistry
exam
flu
ght-@@
mobility
gus
comman@@
height
preparing
elizabeth
kissed
racing
aling
earnings
flew
occur
resolution
sucks
yan
arrival
emotions
newspapers
door@@
toy
educational
element
quietly
rick
ama@@
customs
landed
sheets
deficit
suspected
gained
gradually
32
blair
cer
mothers
phenomenon
economist
editor
locker
posi@@
spirits
tious
ust
centuries
lor@@
miserable
threats
contest
diamond
shuttle
lending
protest
ssy
ect
min
sheep
sors
summit
bail
mister
photograph
wei@@
embarrassed
informed
it-@@
spiritual
oul@@
railway
wealthy
consu@@
dia
household
glory
jason
resort
spin
brea@@
gee
insist
output
wishes
cow
evolution
wer@@
allies
articles
fridge
tunnel
boards
buil@@
alley
joey
convention
delay
satisfied
crown
deck
stem
assessment
cock@@
whit@@
helicopter
ous@@
conducted
extended
shooter
connections
ol
decor@@
majesty
announcement
charm
buffet
divorced
mere
underneath
effectively
sty@@
witch
incredibly
ann@@
hei@@
gray
ately
grabbed
numerous
planes
tennis
contemporary
resist
edi@@
ggy
opera
creature
kat@@
lest
investigating
matches
hu
mping
nia
signing
gdp
lig@@
monitoring
ops
shield
care@@
minate
performing
physically
virginia
inspired
pathetic
wrap
lish
tex@@
dial
grid
reverse
roy
stein
declined
rival
spon@@
thr@@
aii
d.@@
intelligent
buyers
beside
dynamic
rabbit
grand@@
listened
mas@@
motherfucker
pretending
beings
error
discipline
liberal
slipped
tumor
casino
coo@@
me-@@
,@@
jackson
iness
packing
fundamental
links
washed
aye
democrats
nonsense
pan
assi@@
phil@@
pound
sean
second-@@
atlantic
human@@
mysterious
prote@@
-i
terrorists
deaths
topic
weakness
accordance
servant
timing
bee
wage
grandpa
occasion
ownership
pac@@
peak
jewish
lit
turing
voices
pays
ises
gel
kelly
fort
reflect
so-called
wat@@
log
firing
qualified
key@@
loyal
amp@@
constitution
embarrassing
virgin
ambulance
fresh@@
regarding
grain
remarkable
transferred
tured
selfish
originally
coincidence
bible
doc@@
engineer
potentially
shipping
amounts
cancel
29
bec@@
intention
wins
pitch
detailed
practices
apo@@
school@@
blowing
frequently
tube
illness
vegetables
che
fantasy
vo
aah
comparison
dity
gulf
lows
represents
compare
over-@@
champion
loyalty
zi
filling
interstate
provisions
tim
crystal
premises
sofa
hug
gur@@
rab@@
jer@@
reception
rolled
fence
tops
tto
poetry
twi@@
paperwork
smiling
adventure
gir@@
languages
-and
default
fox
lars
passenger
quarters
recording
attract
gall@@
guessing
rational
berlin
select
40@@
rol@@
tivity
craft
definition
intel
penny
drives
hot@@
shine
para@@
structures
argued
ement
generate
spokesman
tless
extent
stressed
tual
dation
tale
archi@@
ambassador
shortly
zoo
kilometers
sins
tier
unhappy
regulators
spac@@
criminals
retired
layer
surrounding
touching
maximum
sab@@
boots
cents
collected
bacteria
ireland
pro
catching
noble
strongly
ultimate
dering
fea@@
fi
knee
os@@
wounded
brands
chang@@
fan@@
gm
grey
tes@@
chloe
tun@@
insur@@
representative
rocket
kissing
possession
scenes
beaten
recognition
complain
mit
tables
fighter
humanity
lessly
nit@@
crack@@
establishment
robot
someplace
2004
hunter
king@@
motel
bombs
camp@@
emissions
tens
flood
disorder
outfit
strategies
tricks
jo
lined
supported
apology
atri@@
citizen
1-@@
cigarette
some@@
argues
gathered
kidney
tourists
concentrate
server
artists
rejected
roughly
towns
alities
breast
opti@@
sink
chamber
crush
readers
13@@
sought
doll
eddie
oni@@
registration
bat
voted
vul@@
absolute
gains
app
rope
hostage
medication
arti@@
bomb@@
constitu@@
drops
imagination
saint
ght
outcome
dges
fir@@
roots
tooth
ate@@
beef
psychology
scratch
wasted
ache
designer
anytime
first-@@
liberty
lic@@
outstanding
reserves
equally
hospitals
statements
favour
salary
chef
mming
cont@@
loading
offense
sophisticated
wheat
expressed
lungs
drivers
instructions
blood@@
boats
infected
yn@@
amazon
intend
sustainable
secondary
ane
moreover
toxic
universal
kel@@
killers
pillow
receiving
attempts
courses
interior
ssing
fix@@
ili@@
spots
toys
mud
attracted
handled
jon@@
scream
bel
components
compound
extend
fs
legislation
liter@@
bears
cage
comprehensive
copies
engagement
fires
patrol
worrying
badge
plat@@
mmer
recover
ss-@@
hardware
examine
pile
frequency
int
ky@@
pm
vel
extra@@
ration
contrac@@
rip
auction
diplomatic
israeli
minded
tine
wipe
welfare
mexican
transition
fred
rese@@
guidance
negotiations
skip
dose
dozens
elli@@
acks
adap@@
amanda
nec@@
simon
wages
answering
hm
alan
musical
premium
arian
ich
kicking
depressed
dispute
invented
joking
lec@@
precisely
surprising
thee
ash@@
butter
scent
exclu@@
ri
soccer
bing
hers
vent
virtual
ano
anxiety
patch
chers
recovered
state-owned
zy
bearing
observe
pleasant
py@@
acute
dedicated
keen
heroes
jumping
palm
selected
bble
cour@@
separated
seven@@
andrew
jin@@
behaviour
chemicals
visible
sively
stimulus
tari@@
relation
side@@
tribe
alter@@
behave
mist
sign@@
hip
shelter
tta
beast
involve
significantly
treaty
disgusting
fits
bankers
overnight
blade
liu
od
civilian
fairy
ratio
wu
communicate
lighting
master@@
phy@@
beans
jewelry
statistics
yelling
relatives
sub-@@
scal@@
slave
cir@@
greatly
susan
arrange
depend
engage
inspector
protests
pursue
200@@
approximately
busted
stru@@
vis@@
ffing
gol@@
retirement
sticks
wr@@
j.
hedge
invisible
scores
courts
lip
louis
analyzed
guitar
habits
dreaming
coalition
cruel
shareholders
pointing
vali@@
eth@@
patience
v.
3.@@
involves
mond
tia
ethnic
fax
emotion
estimates
prom
regularly
dc
investor
kil@@
manufacturers
testimony
tioning
factories
reinfor@@
alike
clubs
syndrome
ghosts
gram
grows
rows
tragedy
stag@@
2003
jokes
brit@@
cha
column
destination
dic
experiments
cred@@
daughters
bitter
suitable
talented
him@@
vessel
alist
analyst
carter
successfully
swi@@
thri@@
conscious
tasks
twin
check@@
opposed
circu@@
confess
confession
somewhat
pregnancy
qi@@
tag
berry
thanksgiving
frankly
sneak
xed
creates
jar@@
medium
locks
spa
—
blue@@
defined
ed-@@
ffs
findings
shaw
tally
ati@@
contents
grou@@
supporting
med@@
sixth
wrapped
expenses
mmed
prayer
ross
buck
involving
locations
beth
locate
assignment
protective
tionally
ink
scandal
hair@@
zar@@
crossing
genes
homeless
immigration
occasionally
cared
depth
duties
refu@@
separ@@
bou@@
til@@
blocked
closest
engines
regulatory
tals
lap
lf
mat
mented
proceed
troubled
canadian
writers
burg
descen@@
fon@@
lah
sett@@
counsel
lations
but@@
educated
mes@@
pulse
year@@
generations
time@@
differently
wa
ick
kidnapped
alu@@
cann
register
tle@@
no-@@
burns
reducing
arguing
commodity
fron@@
rated
signals
cotton
arrangement
homo@@
strengthen
gently
origin
rises
31
om
dging
praise
crow@@
halfway
agenda
ckers
50@@
pau@@
medic@@
sacred
thirty
36
fat@@
g.
tune
promising
rounds
tionary
wired
custo@@
i.@@
subway
anxious
cheer
distant
fathers
ita
ium
regarded
preparation
sequ@@
achieved
papa
purposes
ash
wondered
gut
matt
conditioning
conscience
mice
powered
australian
cky
nails
nau@@
fit@@
overcome
experimental
fluid
fts
contradic@@
stered
copper
ler@@
perfor@@
tourist
producer
stabili@@
150
aimed
cheat
directions
embassy
irs
sac@@
counts
jeff
modi@@
–
fellas
georgia
hid
revolutionary
the-@@
failing
instruments
mber@@
assigned
civilization
paintings
pc
195@@
canc@@
partnership
ln@@
rob@@
humor
lli@@
restrictions
ank@@
ter-@@
cher@@
deli@@
dishes
gli@@
testify
update
yu
mour
situations
gentle
ske@@
suspended
ci
dragged
examples
fleet
aled
cameron
coverage
processes
socialist
duke
recon@@
rivals
aver@@
opens
organ
prin@@
cheaper
makeup
sher@@
strangers
floating
iring
jack@@
kie
gravity
idol
moder@@
warrior
chaos
fitness
noon
ort
rela@@
42
balcony
cheers
fighters
functional
insisted
coma
difficulty
dressing
itated
laptop
rail
sits
aching
characteristic
heal
ora
premier
burger
terrorism
artificial
surrender
55
seattle
sory
bold
gambling
jin
plates
safer
thesis
hai
begging
irish
pee@@
voting
drank
fruits
percentage
absence
anonymous
emma
drill
heated
buck@@
electronics
obsessed
pro-@@
haw@@
mill
laboratory
lator
regardless
serv@@
vet
bloo@@
discount
indoor
josh
objection
adopt
bot@@
ceiling
define
follows
kets
implementation
pple
sealed
coin
gossip
lecture
junk
mbs
participants
rep@@
underwear
ino
punished
basket
gathering
gibbs
life@@
pump
rich@@
vag@@
mato@@
grades
immunity
sou@@
tax@@
tropical
ades
context
interrupt
web@@
cigarettes
cliff
departments
lend
rot
abu@@
galaxy
grief
hydr@@
ounds
pets
integrated
intervention
denti@@
import
insu@@
strikes
--i
protocol
specified
tra
deci@@
dou@@
meals
sausage
travelers
buyer
yl
god@@
pussy
choosing
safely
seeds
unexpected
bishop
oring
gallery
911
afterwards
ener@@
propose
squeeze
hitler
participate
pec@@
sten@@
wre@@
isolated
reporters
terrific
adds
conten@@
cooked
draft
five-@@
instant
chess
questioning
sten
radar
victor
dat@@
troubles
aids
poker
scan
tire
costume
gement
chronic
full-@@
mari@@
complaint
ized
what@@
automatic
category
sends
elite
engineers
mid
supporters
teddy
contained
deadly
integration
shocked
25@@
belly
magnetic
rivers
billions
introduction
ological
ath@@
carrier
extensive
acces@@
3-@@
covers
particles
shoulders
--the
coke
guts
russians
joseph
steam
competent
sang
memorial
photographs
600
component
conf@@
shrink
weed
attempted
ja
po
road@@
step@@
cabin
trains
38
dant
dock
creepy
delu@@
pension
planted
mau@@
washing
betrayed
installed
ram
hop
essentially
olympics
sells
tang
developers
vy
realistic
catholic
expanding
libya
que@@
judging
thailand
reduction
assist
eager
expense
gum
stry
tha@@
custom
finger@@
flip
souls
bow@@
onic
short-term
invested
exception
mighty
lock@@
ny@@
satisfaction
yor@@
99
dale
del
inevitable
invitation
prospect
continuing
penalty
radical
alibi
graph@@
plug
speaker
stephen
cart
iner
jordan
passport
reader
spit
tment
associate
bean
legitimate
modest
prefer@@
needle
enhance
harbor
nominal
reli@@
slight
walker
happily
hou@@
karen
phrase
amid
boot
stabbed
equivalent
exclusive
facial
ffy
occupied
commen@@
cross@@
ggers
supervision
undercover
writes
analyze
respon@@
4.@@
cried
fer
bear@@
chea@@
divi@@
exhausted
posed
cargo
cookies
evi@@
scenario
wan
32-inch
broadcast
ni
eats
compromise
open@@
ut
aded
chairs
intru@@
difficulties
anged
kra@@
plot
sau@@
colon@@
lifted
printing
react
lincoln
syria
chill
ential
n.
compu@@
cozy
risky
silk
stle
substance
andre@@
fiction
mars
nursing
adver@@
lean
movements
persi@@
tian
stel@@
diamonds
gin@@
indicates
liability
hiring
dutch
jungle
formula
ici@@
structural
anic
c-@@
chin
ected
productivity
refer
shark
toe
translation
ude
carries
classified
crashed
non
wee@@
bbed
dancer
imagined
oriented
pockets
whereas
madame
pope
keeper
massage
productive
oured
spotted
colleague
parked
plac@@
hence
rank
33
k.
utili@@
wheels
submit
cocktail
depo@@
laying
lovers
messing
metry
piano
too@@
95
delicate
qing
terror
farmer
itali@@
rubber
foolish
inven@@
strictly
jews
lu
tastes
branches
directors
heritage
mines
ey@@
imports
iso@@
steak
az@@
heart@@
angel@@
appetite
booked
part@@
sauce
sei@@
carpet
embrace
emerged
mean@@
correctly
publicly
jan
alists
fair@@
ounce
diver@@
yards
gal
promoting
vable
presentation
investing
196@@
ambitious
announce
debts
ena
off-@@
ow@@
poem
spra@@
than@@
yi
celebrity
flows
oliver
scru@@
hammer
apparent
authorized
ef@@
fingerprints
grow@@
pret@@
starving
elegant
financing
robbed
simpli@@
tattoo
admire
lists
romance
alice
audi@@
solving
tat@@
37
common@@
pack@@
predict
angels
four-@@
germans
instrument
minority
oral
twelve
wears
dom
shaking
theft
ara
gary
leather
technological
biology
spreading
classroom
dict@@
fried
laser
cated
legally
terminal
encouraged
lily
negotiate
observed
partial
patent
virtually
ministers
brooklyn
fa
minated
double-@@
edward
existed
horn
lled
lur@@
notion
monthly
reads
ree
vessels
bles
ch-@@
concentration
lightning
raped
resolve
din
mbo
advantages
crops
arrangements
automatically
nato
parker
veri@@
pis@@
abby
calendar
invasion
muscles
referred
20th
correc@@
entitled
meets
pru@@
tang@@
zhang
yel@@
expi@@
holidays
ay@@
dding
inform
label
beats
crop
dents
hat@@
65
circuit
hay@@
snap
authors
brun@@
civilians
expor@@
extrac@@
mann
requested
collapsed
genuine
ille
literary
soda
stadium
unt
cop@@
dder
winds
cea@@
gordon
acceler@@
initiative
ripped
aqu@@
turn@@
gloves
ipad
transmission
unbelievable
specu@@
sufficient
bby
cruise
lance
salad
take@@
composition
dia@@
pad
abandon
aspect
containing
eliminate
endless
measured
row@@
poin@@
revenues
communities
fifty
rating
strain
fascinating
subscri@@
wilson
aro@@
bugs
crowded
exhibition
printed
competitors
eff@@
handful
password
sticking
threaten
trials
ada
soa@@
toes
angela
codes
nity
compli@@
maj@@
scrat@@
taliban
tide
kansas
pine
fam@@
sures
tar
estimate
hau@@
pour
safe@@
circles
donna
scri@@
bert
cans
nes
proven
thed
2001
controlling
paradise
scu@@
ura
passage
protec@@
goldman
tobacco
freezing
initi@@
phoenix
ques
statue
transaction
upside
worn
actress
rally
sing@@
bend
memor@@
sings
contacts
oldest
ware
capitalism
prevention
resume
servants
vas@@
bottles
fights
hard-@@
harsh
maria
recep@@
swiss
approve
arguments
clay
rumors
yn
beloved
elled
reservation
pursuit
restore
bench
entrepreneurs
kitty
kri@@
sack
bron@@
derek
ge-@@
interviews
lowest
punk
recommended
twins
wayne
ading
alised
generated
indonesia
jerusalem
mentary
psychic
roman@@
blamed
inches
blessing
ire
permit
autopsy
implement
mise
preliminary
unity
classical
lls
nings
super-@@
therapist
iser
execution
climbing
intu@@
repeatedly
zers
android
ass@@
complaints
dee@@
mar
deserved
requirement
bei@@
biting
designs
fierce
gos
m.@@
villages
charging
trucks
buff@@
masters
planets
acquired
distribu@@
dominated
exten@@
polish
rio
industri@@
jay
obe@@
ith
ached
dged
o.@@
p.@@
exemp@@
fabulous
marines
rear
miller
produces
profound
suggestion
concerning
ization
mentally
obtain
plo@@
searched
wizard
-the
conspiracy
cultures
prominent
sers
temper
attended
cattle
integrity
ital
pill
saudi
cardi@@
discre@@
phi@@
rebels
tapes
uring
accent
avi@@
trends
unfair
ese
frightened
rocky
yen
bud
ouring
dge@@
dreamed
finest
lasting
mize
mly
diversity
middle-@@
net@@
state-@@
unconscious
won@@
ari
eric@@
excitement
how@@
ists
nal
fur
ghten
induced
mechanical
brad
commonly
dos
pers
honour
notic@@
im
liquor
mani@@
mpy
pigs
representatives
dental
eing
escort
essence
leo
oxi@@
theatre
backing
metres
pollu@@
toler@@
contrary
perimeter
pressed
publi@@
2nd
avoiding
commodities
dealers
wol@@
collective
empha@@
outer
transformation
journalist
forcing
negoti@@
prospects
terry
3rd
question@@
ridge
contractor
accu@@
angu@@
aud@@
world-@@
lifting
sole@@
artistic
bureau@@
headache
replacement
theoretical
there@@
borrowed
describes
globe
howard
orbit
promo@@
sel
suff@@
sus
thing@@
au
comb@@
dependent
eries
lewis
continent
dong
gent
journalists
real@@
refer@@
stated
brad@@
demanding
gaining
tori@@
1000
dless
employed
neutr@@
corn@@
goat
one@@
purple
thea@@
blessed
collar
annoying
deton@@
dealt
ghtened
haul
prob@@
supervis@@
surge
vest
great@@
lazy
petty
sat@@
wen@@
colo@@
fas@@
fusion
halloween
nevertheless
roommate
substantial
widespread
worlds
depending
frac@@
smarter
ie@@
producers
resident
collecting
excessive
blank
dominant
heels
spray
capit@@
cheated
jam@@
ssion
betting
lon
1990s
confi@@
enable
fixing
hang@@
suc@@
bed@@
fty
audition
continu@@
defendant
rolls
spectacular
vault
betty
discussing
ph
sever@@
sofabed
extre@@
graph
kir@@
mini-@@
oked
triple
elderly
extension
ignored
legacy
reminds
convicted
demon
ris@@
worm
respected
sovereign
wider
worship
5.@@
boarding
bruce
defin@@
fled
just@@
predicted
traders
valentine
simp@@
stab
barrel
deaf
metric
protesters
swallow
terribly
-and-@@
arch@@
heating
laden
mam@@
resulting
rub
actors
hes@@
initially
scotland
bee@@
km
static
aboard
cular
flexible
insi@@
meta@@
torn
kh@@
responsibilities
sunshine
videos
sydney
chop
counselor
5-@@
approaching
hec@@
ial
mba
punish
visits
fame
locals
tracked
adjust
bosses
hooked
huang
idi@@
tablet
challenged
subtle
tails
donor
fted
ick@@
volunteers
advise
breach
floors
imf
twist
y.
eurozone
ities
repeated
cooperate
imperial
pressing
stepping
directed
expects
missiles
polls
banned
bastards
punc@@
800
ison
7.@@
airlines
grams
obtained
parks
ple
surprisingly
beam
complaining
putin
wiped
bacon
borrowing
holders
anta@@
awa@@
parade
poisoning
ut@@
devoted
mons
pearl
deposits
qua@@
stimu@@
tyler
cke@@
funded
ste
volunteer
air-@@
ez
knight
nerves
traces
bent
ffed
ssed
imper@@
magical
rene@@
accidentally
chen@@
colour
hostile
organisation
vil@@
zo
focusing
latter
prescription
sci@@
freaked
satur@@
diabetes
indians
pron@@
surgical
album
happier
laura
posts
6.@@
attractions
guided
medal
mont
ordin@@
southeast
verse
endor@@
hamp@@
xing
inst@@
outlook
tit@@
allergic
bull@@
kidnapping
boy@@
diego
gang@@
silicon
gan@@
strings
honored
disin@@
inspiration
retreat
contribute
experi@@
mao
tragic
mol@@
mper
identification
kan@@
mati@@
applying
artery
-you
quote
soap
achievement
ancestors
manual
stark
tel
transactions
1st
manu@@
mbled
katie
loop
mili@@
ranks
lly
nancy
19th
47
consideration
centers
competing
elec@@
sustained
year-@@
believing
caution
conqu@@
frequent
mel
contro@@
laughed
t.@@
vampires
distracted
reflects
sprin@@
'clock
blonde
forecast
residence
robin
shirts
contribution
gender
ination
lawn
mob
nur@@
operator
victoria
brick
cracked
gies
questioned
cope
detect
escal@@
fee@@
inc
nasa
preserve
sibility
sober
gues
illustr@@
luke
margin
ola
four@@
importantly
polite
alleged
dignity
blows
come@@
fails
guardian
precise
socks
awareness
bleed
davis
doubts
endo@@
eness
opinions
valu@@
vou@@
conduc@@
magne@@
operative
cling
defensive
forum
magazines
paranoid
sses
trailer
baby@@
bility
inhi@@
lisa
som
install
lap@@
lated
rumor
coward
geor@@
solo
wen
carlos
yan@@
corrupt
contin@@
favourite
gation
inventory
ironing
toss
breeding
divine
elephant
filing
leisure
revi@@
striking
marrying
nin@@
roses
sole
bare
cafe
represented
nowadays
ony
proph@@
responded
retro@@
sweep
switched
ue
ak
ax
nap
wolves
relaxing
2002
accidents
eless
here@@
kest
professionals
rental
tched
terrified
asses
bout
tanks
appreciation
celebration
contribu@@
lining
nurses
persuade
flights
leap
valid
forgiveness
sail
ming@@
progre@@
targeted
tters
ves@@
dug
traveled
tre
consulting
drawer
ecological
fabri@@
mus
reflection
trips
bonus
controversial
excess
kal@@
lame
lousy
offshore
-what
alle@@
apps
atomic
dam
expertise
sara
employers
peop@@
regu@@
backwards
corpse
dried
flowing
islamic
poll
scrip@@
tomb
commissioner
constitutional
expanded
foreigners
maps
rain@@
bic
correspon@@
f.
healing
promoted
abstract
alpha
fear@@
holder
lifestyle
nutri@@
yahoo
adjacent
diary
gger
judicial
puppy
rebel
relaxed
remo@@
sanctions
faithful
tess
quantum
smel@@
countryside
lamp
macro@@
occurs
romney
sequence
ts-@@
weekly
cord
fatal
towel
yon@@
berries
centr@@
clearing
polar
portra@@
way@@
yields
elder
gi
ku
practicing
reck@@
shoo@@
spite
temperatures
adoption
craw@@
leverage
tled
yell
av@@
buzz
fting
gad@@
ggle
lighter
popu@@
deer
loads
teenage
borders
conta@@
naval
sciences
six-@@
spill
suggestions
traded
eternal
harmony
isa@@
jam
ene
examined
houston
presen@@
reaches
thieves
tricky
cations
circus
exam@@
altogether
intern@@
jesse
pale
accomplished
offensive
rhe@@
risen
dable
palestinian
phil
bia
mity
poisoned
concluded
inqui@@
24@@
cran@@
hawaii
colored
seller
wra@@
2013
arctic
claiming
gency
moo@@
nathan
opp@@
proportion
seoul
tful
wooden
charlotte
comic
ethical
visitor
gardens
ghted
grip
tary
bac@@
burnt
mistress
oh@@
parti@@
ball@@
bp
obs@@
stanley
tici@@
aches
bump
elu@@
impress
thirsty
adverti@@
bargain
employer
enthusiasm
loses
anced
coastal
fare
ive
rifle
wei
haz@@
ity-@@
moron
skilled
slice
sp
60@@
bathtub
convincing
fetch
hunger
marke@@
sanc@@
sex@@
detec@@
manufacturer
porn
addi@@
distr@@
exagger@@
garcia
rs
shadows
cape
rushed
tox
advised
antly
b-@@
columbia
innovative
maxi@@
stubborn
ethics
graduated
reminded
specialist
dismissed
halt
ohio
parole
seventh
stakes
uncertainty
requests
tooth@@
alizing
consent
lad
sta
susp@@
assa@@
bauer
finishing
indicated
stuffed
vio@@
casual
drain
michelle
penis
tionist
weir@@
casey
glit@@
oo@@
ress
sally
soli@@
speculation
aims
cocaine
optimistic
skinny
tible
44
ambi@@
challenging
honeymoon
intent
valued
dive
forests
phra@@
portfolio
affects
detectives
leon
regre@@
triggered
cho
divide
evalu@@
stages
balanced
mentation
beard
excee@@
permitted
restricted
stamp
crushed
encing
quantity
rho@@
sperm
cis@@
executed
of-@@
viol@@
wreck
elena
inity
paths
rev@@
thouse
etary
fulness
hon
milit@@
single-@@
compromised
h.
merry
scen@@
throne
.00
bc
fast-@@
oath
sharply
slaves
-to-@@
circum@@
dist@@
peace@@
preferred
time-@@
disagree
nephew
prosecu@@
survivors
abi@@
bankruptcy
clown
inted
peri@@
tao
wells
puzzle
top-@@
airline
cate
dessert
equi@@
hail
transplant
tremendous
attribu@@
colorado
mistaken
+
cuba
encouraging
hai@@
inj@@
masses
necklace
unions
vation
-no
classi@@
courtesy
defending
dian
harvest
jeez
prey
alongside
capitali@@
feared
franc@@
gau@@
photographer
blah
cian
liness
mankind
membership
beliefs
buddha
confusion
dresses
genic
imposed
mists
periods
ester
fabric
horri@@
rod
this@@
websites
colleges
stored
wicked
ethan
id@@
infor@@
knocking
nes@@
nies
sw@@
tribal
gabriel
insult
ringing
teenager
lawsuit
misery
testi@@
bees
collabor@@
marshal
qualities
author@@
publishing
roles
stir@@
ums
scar
thai
fond
magnificent
stanford
blanket
watches
brutal
fragile
kindness
zer@@
dul@@
lucas
proposals
sunset
conclusions
intensive
evol@@
horror
itting
pati@@
prosperity
ritual
traitor
ann
barn
dull
archa@@
friend@@
scout
tendency
c.@@
chains
considerable
dialogue
injection
lier
borne
chal@@
consi@@
cooper
framework
sucker
drum
feng
freely
indic@@
jeans
kor@@
logan
lucy
secured
breed
businessman
disrup@@
hua
molecular
nel
wis@@
34
birth@@
intimate
main@@
eyed
north@@
cured
fren@@
poland
refin@@
tends
cole
cruci@@
influ@@
operated
cam
compo@@
ees
penetr@@
receipt
succes@@
visa
diag@@
humble
mour@@
shelf
anks
celebrating
exercises
in-room
ab
ashes
graduates
separation
ction
ila
involvement
noti@@
pest
potter
pus
shipment
arizona
ath
doug
greg@@
shifts
density
departure
detroit
exhi@@
poet
similarly
barry
primarily
attending
portion
right-@@
batteries
defeated
impre@@
lex
logically
meth@@
rup@@
ata
carolina
conven@@
dit@@
ects
marie
prosecution
scholars
tactics
bour@@
buddies
delayed
encounter
ety
senses
williams
dani@@
heroin
violation
8.@@
pork
ration@@
bait
clon@@
detention
rai@@
39
kennedy
physi@@
programmes
stare
ures
winners
agreements
edition
guaranteed
junction
shout
ak@@
watch@@
9.@@
eo
fiance
forbidden
vigor@@
carriage
fist
itor
ounded
yers
approaches
pies
americ@@
ression
scored
snack
surplus
tail@@
wrist
gover@@
ort@@
propri@@
shining
tories
acquisition
ington
interaction
justi@@
races
spider
acceptable
combine
evaluate
distributed
earth@@
featuring
fif@@
jenny
broader
echo@@
hydrogen
ious
males
supposedly
activ@@
governance
damned
kur@@
switzerland
tained
canal
catherine
consultant
gas@@
nab@@
pp
tina
85
chees@@
diff@@
diplo@@
exploration
luggage
prece@@
promp@@
attacking
belonged
identical
pat
privilege
sectors
syste@@
tournament
twisted
dead@@
deluxe
demonstrate
rehear@@
suppliers
transi@@
abortion
admini@@
cleaner
computing
confessed
raises
short-@@
springs
wel
bachelor
briefly
corp
deadline
griev@@
potato
profession
supper
wished
cookie
fru@@
fundamen@@
hd
skirt
arrow
cowboy
disputes
northwest
provincial
yale
boo
fuckin
jonathan
spe@@
styles
assured
conclu@@
dened
envi@@
fai@@
impose
iner@@
wester@@
devo@@
futures
residential
thumb
elev@@
pledge
chelsea
spaces
00000
delta
mode@@
prick
programming
shave
six@@
spee@@
adjustment
bei
ego
establishing
lian
mated
yl@@
chang
justin
neil
obstruc@@
awards
commu@@
joy@@
nicely
profitable
reci@@
rot@@
afghan
asp@@
bicycle
ellen
fitting
homeland
liquidity
nea@@
remin@@
hybrid
opponent
admir@@
confirmation
counted
declare
resolved
thrilled
vibr@@
waking
decei@@
iced
installation
municipal
surve@@
bothering
materi@@
serena
shallow
subsidies
unfortunate
allo@@
dell
farming
steven
sweater
ica
instinct
oper@@
ox@@
uri@@
expose
oneself
operators
jean
leng@@
oli@@
shire
clearance
cratic
judged
other@@
popularity
ato@@
filthy
kn@@
ohh
sizes
eigh@@
fracture
peoples
southwest
curiosity
gly@@
hem
muslims
raid
shipped
tant
actively
adi@@
basi@@
franklin
michigan
poo@@
river@@
south@@
understands
us-@@
woo
clues
no.
commerci@@
differenti@@
suspicion
x-@@
250
conversations
hardest
ltd.
refers
stall
tender
unclear
construct
cree@@
eighth
alistic
ambition
archy
egyptian
eur
explode
lease
ov@@
politically
prosecutor
recogni@@
snea@@
stun@@
ute
vigil@@
-yeah
atro@@
cereals
domain
eagle
itate
kidna@@
ln
parallel
sunlight
whirlpool
cyber@@
free-@@
maintaining
sity
ssions
tense
approached
barrier
compul@@
ection
harvey
iranian
possibilities
tai
ttle
urge
yin
conviction
luc@@
northeast
smugg@@
stack
supports
t--@@
amen
kilo@@
metro
opponents
scand@@
currencies
hockey
spends
yoga
aliens
casting
distinct
rays
fella
monsters
quest
reali@@
seized
intentions
oxford
qing@@
surprises
sympathy
array
groo@@
len
referring
sional
download
rhy@@
talents
depen@@
fter
machinery
ousness
arena
complained
jazz
sexually
witnessed
appro@@
bald
child@@
pond
43
intact
mainstream
melt
representing
tortured
vir@@
comedy
foul
interpretation
purchases
screwing
slap
swept
toll
aero@@
bucket
graduation
inappropriate
liv@@
nanny
rel
rig@@
attraction
chlor@@
deser@@
esses
idiots
ment-@@
resu@@
usa
meds
prep
whale
connecting
frustrated
hamas
ice-@@
mark@@
season@@
stiff
urs
arrives
policeman
reply
semi-@@
stering
treatments
wai@@
constra@@
government-@@
insight
mos
or-@@
pd
quit@@
sensors
vice-@@
vodka
whip
ice@@
operational
orleans
recipe
ankle
deal@@
detected
emerge
guil@@
holdings
strongest
vaccine
menting
passionate
sickness
chicks
instincts
compar@@
dg@@
fiber
interface
paragraph
reactor
versus
“
messy
paren@@
virtu@@
widow
inher@@
matched
molly
ascen@@
dog@@
lators
envelope
extract
pricing
sore
swore
asis
d.a.
discussions
forty
holmes
politician
wagon
geno@@
arabica
jacob
organize
rest@@
supervisor
temporarily
-year
donald
downs
exploring
lative
shment
struggled
acknowledge
arch
evolved
expe@@
farms
honesty
russell
slaughter
bombing
canceled
diagnosed
teenagers
thre@@
allegations
breeze
manners
ongoing
path@@
pedi@@
proves
snat@@
big@@
disturbing
concepts
ew
frost
modified
open-@@
ouse
possess
scholarship
accomplish
lemon
sphere
stically
ax@@
corps
u.@@
ahh
ddled
guidelines
ingredients
will@@
admiral
dine
explaining
grasp
interrogation
treats
vegetable
audio
chancellor
destroying
helen
households
mole
spin@@
subsidi@@
fis@@
hint
block@@
caring
christ@@
cocoa
delighted
jar
laced
lling
origin@@
pennsylvania
praying
ation@@
booze
comm@@
corporations
dor
groom
heck
probe
zen
1,000
700
bau@@
container
giants
presidency
sour@@
ues
visu@@
championship
dennis
hatred
make@@
s--
stair@@
buys
networking
aaron
asser@@
circulation
kun@@
mail@@
martial
mbles
cali@@
essing
horizon
mobili@@
relieved
anism
depic@@
dioxide
dual
obligations
resear@@
secretly
shan@@
wl
advances
deemed
disagre@@
motorcycle
myth
persu@@
ris
sketch
sweden
vie@@
weigh
bai@@
boxing
viewed
1999
chongqing
flame
frankie
legis@@
nearest
pentagon
fifteen
liverpool
tales
audit
eno@@
esp@@
immigrants
taining
zealand
frank@@
insects
outw@@
underlying
vis
waiter
wash@@
excuses
smu@@
brass
kan
lapd
tage
acceptance
decides
explosive
publicity
retire
versions
cognitive
crude
hen
lik@@
mei
ral
sor
eli
purchased
shorter
aer@@
lene
vain
conflicts
corners
h-@@
manife@@
propor@@
valve
.com
life-@@
sung
ultra@@
accompanied
ditch
f-@@
investigated
sso@@
affir@@
bases
liqui@@
restric@@
rit@@
sep@@
suitcase
dn
influenced
locking
privately
von
accepting
contacted
lottery
ou
tability
w.
alexander
bothered
chun@@
mummy
pier@@
pulls
rash
reluctant
transform
writ@@
picks
abs
intri@@
jen@@
jurisdiction
occasional
oscar
perception
repa@@
cough
ec
es--@@
sche@@
solu@@
ud
bitches
ffle
hh
hostages
neat
pper@@
ship@@
team@@
third-@@
towers
agu@@
faul@@
garden@@
mason
oxide
blake
carrie
gunshot
harold
mild
rapi@@
shenzhen
wee
-a
func@@
oven
targeting
tiles
avoided
migr@@
aspi@@
climbed
conservation
sage
urged
blocking
coins
coordin@@
doe
exchanges
exi@@
marcus
ordering
publish
shoots
restra@@
shre@@
tolerance
trea@@
trillion
consult
insists
obligation
exer@@
horse@@
mr@@
neighbours
olivia
owed
salv@@
seas
28@@
cements
character@@
clerk
concer@@
fastest
fountain
ladder
lana
lics
spies
tamp@@
declaration
demonstration
flush
ghts
lords
morgue
oping
plasma
shen@@
cakes
cataly@@
lia
spinning
tery
where@@
21st
72
arriving
carol
essay
incoming
prayers
pursuing
sunny
aesthetic
asive
backyard
contemp@@
dallas
ddling
implications
travels
wraith
cautious
dumping
gloo@@
gratitude
incar@@
interpre@@
remembers
vian
acquire
bells
emotionally
interviewed
kon@@
thunder
violet
cows
el-@@
ired
mathematics
novels
revol@@
temper@@
12@@
7th
congressman
dissi@@
gradu@@
thou@@
bets
compliment
impo@@
ports
attempting
doubled
handi@@
itable
kent
minus
stance
unstable
disposal
martin@@
owen
tial
anim@@
imported
jiang@@
nutrition
olive
reviewed
snor@@
stunning
xie
alties
moses
potatoes
advis@@
blunt
jeremy
psycho
scor@@
4-@@
activists
breads
deterior@@
div@@
handy
provinces
squi@@
9th
affection
airplane
hallway
mustn
organi@@
subur@@
illa
interven@@
nonetheless
processed
psy@@
utility
ds@@
lethal
ound
'all
dip
forehead
ign@@
shouting
cand@@
developments
dial@@
reject
responding
spike
46
6th
dants
faculty
moderate
picnic
popped
rented
tougher
confusing
helmet
instantly
storms
vacuum
expo@@
hurricane
jehovah
sandy
twenty-@@
associates
inal
mechanisms
sucked
tackle
thful
butter@@
designated
feast
forensic
hus@@
led@@
peanut
ratings
slower
deri@@
ek
fisher@@
hack
internation@@
julia
virtue
wandering
delivering
emphasis
rehearsal
scenery
ani
bott@@
massachusetts
metri@@
possessed
analyzing
fertili@@
lois
pancakes
pr
unprecedented
anci@@
cemetery
discusses
hp
merger
thermo@@
travelling
sages
satisfy
slowing
accounted
betray
cloth
designing
integr@@
pirate
provo@@
accoun@@
bies
relating
sym@@
y--@@
adorable
fall@@
implan@@
man-@@
pap@@
swords
theirs
accompli@@
achievements
cups
shortage
alter
bolt
diana
mm-hmm
clip
envy
lyn@@
oma
radius
spark
sper@@
tains
aven@@
brazilian
distress
nap@@
interference
suici@@
applies
binding
creativity
ferry
harmonious
sentiment
mies
morality
premi@@
repu@@
ttering
demanded
gina
matching
preven@@
resistant
seeker
4th
boundaries
cardiac
poems
schemes
seri@@
bled
interfere
nano@@
nex@@
roy@@
set@@
stink
town@@
alisation
buttons
feedback
hong@@
metals
tu
venti@@
creek
hosp@@
mach@@
mcgee
reckon
reflected
altar
farther
gee@@
mative
neu@@
wait@@
awfully
dimensional
uno@@
41
ast
buddhist
curb
grocery
rescued
spectrum
touches
withdraw
arabia
coinci@@
demonstrated
disper@@
encies
fav@@
greg
perio@@
bunny
glorious
justify
scotch
affili@@
bubbles
erup@@
hospitality
linda
proving
rebecca
schoo@@
xin@@
@
arm@@
compre@@
introduces
itch
rant
removing
sarkozy
your@@
ashley
displays
disturbed
lions
tles
euro@@
prohi@@
waitress
activated
agre@@
constructed
designers
dope
elementary
let@@
ot@@
poses
postp@@
rati@@
respects
squir@@
submitted
diversi@@
habit@@
pirates
rhythm
stur@@
univer@@
video@@
bloom
finances
inquiry
neal
perceived
sid
techno@@
vise
athletes
bic@@
discou@@
enter@@
illusion
lamb
ller
petro@@
ranking
remarks
sincere
battles
butterfly
mized
torch
tter@@
admission
ases
bling
float
mixture
monica
monkeys
om@@
well-known
aggre@@
ature
fork
intimid@@
substan@@
tibet
tits
toyota
islam
issu@@
sandwiches
sensible
smiled
1,@@
hl
molecules
sessions
1980s
ade@@
disadvanta@@
ender
imag@@
lt@@
manag@@
pub
tablets
thir@@
10,000
cane
clar@@
histori@@
nazi
purchasing
seemingly
tactical
urine
weaker
year-old
drought
institu@@
inte@@
jour@@
mbers
pier
absurd
architect
assassin
cheek
dancers
lou
ounding
sneaking
accommodate
cease
dynamics
iler
kam@@
ligh@@
revo@@
verify
dar
dream@@
iraqi
obj@@
oes
palmer
ressed
aga@@
cel
distor@@
hub
laun@@
layers
photograph@@
rode
supplier
whis@@
beau@@
devi@@
entr@@
flash@@
glaci@@
goose
grandson
input
ae@@
collec@@
cooling
cus
dime
disabled
manipu@@
marsh@@
ov
underwater
ap
elding
favors
pops
rus
sharks
sworn
tti
execu@@
flir@@
gps
hunters
obli@@
reviews
shepherd
9-@@
cheng
damages
deliberately
misunderstanding
rides
shrimp
villa
day-@@
ead
fools
grin@@
it.
margaret
pag@@
scopic
thoroughly
ng
oy@@
reed
secon@@
sodium
vor@@
whoo
adapt
colli@@
disor@@
frog
hank
heights
maintained
motiv@@
oce@@
packages
seasons
composed
federation
julie
labs
pakistani
thermal
warfare
amendment
listing
prophet
sections
simultaneously
countless
eco@@
irrit@@
owes
puzz@@
retain
sburg
aria
astoni@@
barriers
capabilities
closure
demons
disgu@@
duction
gesture
gig
interfer@@
inti@@
lens
naughty
sies
upgrade
villa@@
cherry
daylight
logistics
mineral
addiction
argentina
by-@@
diner
lick
ough@@
verdict
bands
bass
bbing
har
oped
rang
anthropo@@
confidential
dick@@
lodge
rence
sorrow
6-@@
candles
doo@@
flouri@@
hart
ion
juli@@
legi@@
nine@@
ority
pepper
aly@@
beg@@
cies
clou@@
compassion
continuous
diving
ex-wife
info
amongst
arrogant
aviation
champions
disappointment
karl
merge
sadly
sucking
thorough
albert
anthony
cally
oatmeal
overwhelming
shir@@
tasty
atlanta
burg@@
dish@@
embar@@
rotten
balloon
itors
iv@@
ong@@
scattered
swea@@
tedly
xia
ough
shotgun
smashed
traditionally
apologi@@
appli@@
calcu@@
courtyard
criteria
institutional
misses
needing
tray
bis@@
blend
brac@@
bud@@
fish@@
shade
xy
deni@@
echo
precip@@
profes@@
seasonal
snacks
tee@@
apologies
caroline
gering
hoods
ranch
resp@@
separately
indication
ju
margins
candle
doin
lements
preventing
tum
unnecessary
barri@@
dentist
flin@@
investigator
mercury
monk
severely
shook
astrono@@
dis
fry
intra@@
discipl@@
evan
eves
fortunately
motivated
rock@@
wildlife
bore
conserv@@
intern
measuring
thread
affecting
ama
chased
invention
participation
spas@@
villagers
cassi@@
obey
offerings
replic@@
ribs
simu@@
tract
austin
begged
collateral
good-bye
jessica
moon@@
rehab
sniper
snu@@
stain
sudan
trophy
brooke
conducting
discharge
eliminated
flames
tali@@
worthless
bal
casualties
critici@@
dden
ignoring
liberation
ona
peter@@
realm
sailing
weekends
brussels
decorated
delight
foreign-@@
numer@@
perfume
resignation
tore
butcher
ces@@
clear@@
consensus
gued
hooker
plague
pouring
prone
ringe
tas
transformed
briefing
capability
drowned
incu@@
naive
routes
strai@@
tually
warren
whistle
5,000
addresses
philippines
recommendation
reunion
reveals
vince
ballet
gest
lesbian
miranda
tica
u.s.@@
baltimore
caesar
dragging
francis
hal
icial
lang@@
lind@@
meaningful
retailers
runner
succeeded
wig
arr@@
barbara
corridor
e-mails
incentive
researcher
utterly
wheelchair
allegedly
breasts
calculated
chew
gaming
gin
itating
lasted
ning@@
rack
vocal
analyzes
ancing
baked
cooler
cut@@
exploded
hillary
inhal@@
meteor@@
mickey
mortality
tness
vague
0-@@
business@@
incentives
inviting
sley
slut
tech@@
bail@@
bidding
catalo@@
counter-@@
hui
ira
licen@@
marshall
namely
phosp@@
tough@@
tribu@@
civili@@
explosives
gaz@@
isolation
rail@@
reconstruction
_
beers
lakes
mattress
pickup
scan@@
sentences
span
zip
appreciated
contra@@
heh
jade
manchester
pengu@@
setup
spir@@
subsequent
teii
cle
nightmares
tack@@
1998
af
ania
bounce
congressional
connor
if@@
mailed
osis
prescribed
presi@@
screens
analyses
grill
imaging
necessity
austerity
credibility
euros
exotic
gment
light@@
morous
performances
whe@@
alaska
camps
neutral
shove
ssive
dumb@@
elaborate
extraction
husbands
merkel
restored
tensions
ado@@
mating
priced
turtle
woo@@
bridges
canyon
carbon@@
filter
illinois
smoked
uniforms
5th
7-@@
assisted
drown
omin@@
peers
spencer
subsi@@
summari@@
campaig@@
chopper
formu@@
holly
myo@@
nett
now@@
poured
practi@@
rig
wers
wishing
--a
accuse
ala
champ
cover@@
fau@@
forgetting
gamble
influential
macy
ouch
plun@@
resting
supermarket
tours
traced
youngest
downturn
oak
particip@@
respectively
shifting
smar@@
thoughtful
camping
curtain
deter@@
flavor
motivation
responses
resulted
salmon
arab@@
glove
gments
ini
lateral
soo@@
wrec@@
，
baker
fications
north-@@
preserved
richer
xinhua
ana@@
disk
dramatically
reportedly
reserved
scep@@
seated
whiskey
120
bon
desperately
hic@@
mah@@
nobel
sali@@
settings
trusting
laughter
lia@@
nega@@
pencil
references
sic
dow
mens
wax
demonstr@@
fec@@
patty
stine
zzle
5.00
brenda
erie
feder@@
pipes
ransom
slim
sse@@
unemployed
-in-law
ater
furious
jec@@
samsung
seize
skep@@
wron@@
contributions
cun@@
deficits
ill-@@
losers
momentum
uc@@
uncertain
determin@@
doomed
hearted
jon
lacks
queens
righteous
vor
dot
layout
obsession
plaza
ranging
spokes@@
dishon@@
errors
ms@@
rap@@
riot
runway
tages
ting@@
addressed
augu@@
coff@@
desires
draws
experiencing
fireplace
inevitably
intensity
monsieur
planting
sim@@
swedish
traditions
cide
cooperative
critic@@
requ@@
ring@@
robots
satellites
tibetan
addict
dynam@@
embo@@
inspec@@
instruction
kung
observers
room@@
shri@@
tality
apartments
att
hears
best-@@
bum
regards
specialty
ug@@
assess
broadway
europeans
fireworks
hats
hiking
investigations
lowed
nina
prescri@@
zones
antibiotics
autonomous
bailey
chee@@
dense
dexter
ech@@
effectiveness
kov
relate
rewards
vering
compliance
cons
environ@@
longest
metal@@
narrow@@
red-@@
smi@@
alise
hand-@@
migration
rug
syrian
teaches
vial
amne@@
disney
elo@@
guangzhou
isa
matthew
preten@@
breakdown
dings
fucker
gaza
orientation
stray
apples
awa
fuse
near-@@
rap
scars
semester
bree@@
dice
motors
persistent
philadelphia
portrait
them@@
visions
amber
corresponding
pesti@@
presti@@
zzy
awarded
dles
employ
lacking
photography
specialized
yup
benjamin
condi@@
creep
grounded
prompted
spying
steroids
well@@
banker
dome@@
esting
mobil@@
seif
vary
vicious
collins
detection
gents
girlfriends
ideology
small@@
bey
broker
china-@@
contributed
harmon@@
measurement
pi
radioactive
recy@@
texts
transparent
wonders
anyways
consequence
grac@@
jor@@
portugal
twee@@
dling
fast@@
iy
provi@@
sights
spinal
stalking
synthetic
wh
chickens
chro@@
cuisine
firmly
hallucin@@
lingu@@
milan
tings
unlea@@
dangers
followers
handing
jamie
mills
say@@
w-@@
5000
age-@@
dman
esa
folded
recal@@
reminder
shiny
sured
watson
bamboo
blur@@
exhibit
publication
reactions
recei@@
topics
vertical
adul@@
compa@@
ements
farm@@
helpless
hydra@@
lure
moore
spine
accountant
agrees
cals
despair
eva
gon
margin@@
met@@
mitch
oid
ruins
sable
stir
throws
bulk
chic@@
delhi
disappoint
govern@@
suspension
troy
accusing
atus
coll@@
confuci@@
grim
transplan@@
banana
cles
mulated
priests
yon
diverse
katherine
1.5
ace@@
asy
elaine
fang
instruc@@
rober@@
affordable
copy@@
dictionary
ental
financi@@
introducing
news@@
rede@@
voy
ables
compounds
concu@@
hoo
mona
nic
ples
brain@@
ene@@
exac@@
execute
liking
sick@@
straw
translate
allen
categories
dvd
span@@
surf
tick
todd
anno@@
ante
ast@@
courtroom
cow@@
feds
figuring
fog
gery
ghs
madrid
mbo@@
observ@@
probability
servers
wy@@
30s
armor
blaming
coroner
foun@@
fraction
inations
investigators
susta@@
acknowledged
admi@@
alcoholic
arity
aster
buffett
cluster
communic@@
fuels
gic
harmless
highness
mccain
nis@@
noah
pipeline
poss@@
stretched
beaches
concentrated
destined
forensics
gno@@
inherited
ipo
valry
2014
ambitions
ela
faint
fen@@
irrelevant
jing@@
mp3
shocking
thers
wit
alli@@
cm
crowds
father@@
guar@@
ira@@
railroad
renminbi
solic@@
coordinates
d-up
gle
pyongyang
refugees
tants
actu@@
differ@@
launching
lifel@@
consider@@
conso@@
cuff
curriculum
debris
deco@@
genesis
get@@
lang
ltd
maya
medieval
ories
panels
purely
qi
believ@@
condemned
rang@@
shells
situated
societies
spoon
curren@@
mediterranean
quoted
rubbish
supportive
vincent
't@@
bilateral
bully
buses
ckles
doo
females
fries
greedy
hemorrha@@
lauren
negotiating
occupation
pod
populations
rer@@
sar
sensitivity
termin@@
trades
-like
64
adjusted
endea@@
midd@@
mph@@
blea@@
confront
consists
curve
deeds
entity
fashioned
notify
peninsula
tossed
warriors
coffin
doms
hanna
hook@@
ninth
partner@@
transm@@
-out
cely
hypothe@@
lay@@
mansion
sentenced
taiwanese
costly
episo@@
gold@@
good-@@
particle
provider
sophie
yton
alex@@
ech
haunted
kes@@
osa@@
pharmaceutical
slaugh@@
umbrella
ae
boulevard
celebrated
cellphone
enjoy@@
enjoys
fooled
hable
inflic@@
physici@@
sement
tapped
viewers
20s
boobs
bus@@
cambridge
disturb
electr@@
gian
hill@@
jackie
marty
offended
priv@@
south-@@
withdrawal
worms
ancest@@
banquet
condem@@
ibm
inability
martha
orn
sweeping
tative
tches
chur@@
left-@@
ose
stran@@
veteran
whatsoever
arily
atlantis
bizarre
crawl
expres@@
format
furnished
ite@@
lowering
nitrogen
ply
public-@@
slee@@
updated
appropri@@
bapti@@
hall@@
nets
reti@@
shakespeare
skies
titles
'ii
.you
altered
colonial
dium
drilling
founding
paper@@
plea
policymakers
reid
screening
corro@@
meth
ratt@@
amateur
gated
mart
mint
teenth
anie
assu@@
ep
sight@@
swap
vanished
aa
abundant
adju@@
billi@@
resigned
think@@
yle
10-@@
generator
jets
kai@@
kramer
logo
proble@@
spoil
steep
1997
bowling
cade
hobby
swell
symptom
then@@
ure@@
51
bited
burgers
cad@@
convert
copyright
danced
finals
mod@@
pilots
primitive
uter@@
benef@@
christine
ct
rell
tenth
tsunami
absent
adviser
ands
assumption
beneficial
chan
curtis
dong@@
sheer
sweets
wheel@@
-in
baghdad
ghty
masks
pes@@
prag@@
salesman
semi@@
substitute
\
absorb
blackmail
casin@@
christians
earl
ground@@
lenders
portland
settling
smash
smiles
stu
ticism
viral
wade
charts
eld
ria
scre@@
shutting
stati@@
stling
tch@@
verte@@
availability
boar@@
chec@@
dir@@
graphical
greeks
intro@@
iter@@
izing
madness
mind@@
nick@@
crane
dys@@
engli@@
fortunate
jaw
operates
randy
schedu@@
synchron@@
terr@@
thompson
ark
churches
cinema
co-operation
fertility
functioning
hannah
pause
toxic@@
brennan
feu@@
jun
physician
reckless
rogue
scrambled
sichuan
cursed
exter@@
foreman
knives
synthesis
elling
pressures
preva@@
rier
sony
surfing
transit
addic@@
descri@@
equality
exc@@
pick@@
reagan
uri
arium
bagels
bingo
conveniently
hs
kid@@
noodles
poorly
squa@@
batt@@
bernard
breakthrough
dex
glue
socialism
sweating
vals
bronze
businessmen
cited
fuckers
gia
itive
lim@@
polit@@
retri@@
simulation
stret@@
18th
ges@@
shapes
thunder@@
gown
hr
intel@@
tec@@
tham
vows
afri@@
analo@@
distraction
gasoline
greenhouse
impul@@
infant
iook
minu@@
paste
sadness
spil@@
struc@@
tance
abducted
banging
glow
implemented
intensi@@
maggie
organ@@
proceedings
survivor
tolerate
ective
malaysia
median
midst
nelson
nish
pear@@
reverend
sexuality
stics
viable
combining
couid
crunch
gym@@
limo
lipstick
lis
lunar
mt
slowdown
swan@@
carriers
cili@@
comparative
indiana
kies
monopoly
cheng@@
colony
decrease
dispatch
enhanced
hormone
imbal@@
paras@@
raining
bene@@
harmful
harris
hob@@
ramp@@
rebuild
baggage
dominate
lei@@
puri@@
spacecraft
spoiled
52
abra@@
anda
authentic
depar@@
disorders
melting
rah
vitamin
derived
flav@@
ggling
psychiatrist
psychologist
remembering
resign
dep@@
drowning
lehman
less@@
mph
relen@@
slowed
wires
01
cosmo@@
damaging
failures
hath
heavens
intermedi@@
lads
modu@@
peasants
propaganda
quitting
robust
small-@@
successor
accusations
adequate
adri@@
harv@@
improvements
lessness
licit
mick
mortgages
proteins
chambers
det@@
ility
incur@@
luckily
prostitute
realise
shareholder
sleeps
symbols
batch
cheer@@
mont@@
seizure
sonny
trump
-free
arse
colle@@
cracking
cycles
deployed
displayed
fossil
fulfill
isla@@
lawrence
norway
queu@@
recipi@@
refuses
skirts
tain
taneous
wakes
bracelet
christopher
connec@@
develop@@
drin@@
flooding
glance
innocence
nel@@
willingness
ange
commun@@
discoun@@
duct
enli@@
freddie
graham
granny
legendary
quicker
recommendations
recor@@
removal
companion
corporal
coup
hormones
kee@@
mounted
spectac@@
49
anderson
ideological
infla@@
jew
kne@@
organisms
snakes
counterparts
denial
greet
hiv
poster
skiing
chester
einstein
generating
headaches
interrupted
mater@@
nora
smelled
crab
ints
jel@@
mption
occasions
percy
pid
plano
portable
spur@@
sued
workplace
wrong@@
asthma
dryer
graphics
grun@@
ignorance
messenger
pools
punched
recruit@@
speeches
stab@@
stuart
were@@
annu@@
carved
far-@@
nickname
scienti@@
snapped
sporting
t--
tos
tunnels
accuracy
assassination
colorful
obesity
overtime
attitudes
bias
biscuits
celebrities
guarantees
keith
narrative
pains
rations
suited
superi@@
turkish
atu@@
brew
ceremon@@
flirting
inheritance
navigation
provision
racial
rose@@
dispat@@
jian
obstacles
platforms
polar@@
porch
sour
stunt
timer
victori@@
welcomed
zations
derivatives
hollow
legiti@@
n.@@
presu@@
recur@@
rushing
t-up
tice
crimin@@
dairy
framed
infections
karma
kicks
pony
regulated
smartphone
spa@@
sse
tened
ugh
e.g.
exploit
ole
perry
compass
cue
ecb
hosts
py
scripts
stam@@
tee
turner
bani@@
bu
disasters
easter
medium-@@
scholar
seeks
vine
zombie
armies
cola
exceptional
more@@
rains
sway
tuni@@
warding
develops
genus
insect
panda
parliamentary
retali@@
scho@@
statistical
stles
superf@@
disa@@
e--@@
presidents
priorities
roller
42-inch
aiming
b.@@
brake
cerebral
consume
gangs
hatch
predic@@
tribes
absor@@
ancies
crises
inter-@@
ore@@
ral@@
recruit
vanity
wonder@@
collaboration
honorable
infinite
niece
sub
syl@@
turb@@
dylan
mathematical
modeling
pairs
rando@@
reg@@
spilled
swallowed
capitalist
certi@@
chet
crea@@
crews
cylin@@
eleven
goddess
juan
negotiation
nicholas
nigger
reckons
reson@@
salvation
yea@@
compelling
complications
cushi@@
dances
eds
occupy
relieve
richest
som@@
stern
summary
angles
browser
bypass
immense
petrol
repay
rodney
stash
tioner
kru@@
mony
nan
pupp@@
tomy
consul@@
endure
explic@@
fuss
hopeless
mentor
ridi@@
yao
complexity
delete
dwell
hemo@@
hero@@
juices
lent
manship
maritime
pupils
switching
appreci@@
briefcase
comforts
converted
destructive
disturb@@
ever-@@
feeds
haircut
holo@@
lla
publisher
surviving
yankees
aisle
equation
gree@@
hn
mississippi
unpleasant
wendy
bot
cancelled
describing
embedded
heav@@
occu@@
whales
zoe
1970s
advocate
antique
comparing
forbid
smallest
sponsor
triumph
ukraine
authori@@
casu@@
encountered
ferr@@
navi@@
prosecutors
refusing
sculp@@
shaft
steer
distinction
drawings
drift
freezer
park@@
rison
antonio
bao
caribbean
deed
distract
enters
recla@@
zen@@
50,000
appealing
blan@@
jong
p.d.
rubbing
steering
twit@@
wing@@
alternate
caro@@
conno@@
dd
deciding
dimensions
disap@@
discrimination
hazard
me.
mega@@
outbreak
ppled
tab
timel@@
variation
accompany
acious
cook@@
crats
desirable
elia
erical
kindly
lightly
logs
marathon
mored
quantitative
representation
aesthe@@
alpha@@
announ@@
beta
destro@@
divisions
dubai
kenya
khan
kidnap
mage
symboli@@
37-inch
57
dious
emails
inqu@@
manufacture
ord
prevented
scaring
warden
careers
controversy
dreamt
guinea
replacing
sided
supplied
void
allison
art@@
aug@@
bles@@
consoli@@
convic@@
getaway
hike
infer@@
itely
limitations
produc@@
psych
sammy
simul@@
sustain
taxpayers
volatile
weak@@
week@@
big-@@
conclude
dele@@
freight
marble
sleep@@
sympathetic
ase
hose
kick@@
lender
playground
reno@@
tubes
water-@@
yourseif
54
gins
high-tech
interest@@
precision
stant
thereby
traits
cled
consumed
degra@@
enced
inspire
knu@@
recommen@@
shorts
tracy
absorbed
calories
dough@@
gib@@
heather
legislative
motives
openly
patron@@
ranked
simil@@
speakers
tempted
turmoil
woul@@
delightful
iiy
illegally
nomin@@
pam
sakes
specially
strengthening
ei
evolutionary
incidents
iri@@
liable
meditation
ox
permanently
traumatic
young@@
aluminum
die@@
elevated
jacked
ket
organizing
qual@@
real-@@
rhetoric
adoles@@
anticip@@
bark
booking
bourne
campaigns
comprehen@@
ener
hier@@
micro-@@
muffins
notably
oxy@@
tightening
wick
workshop
bacterial
correlation
distinguished
east@@
ligence
transp@@
utilization
yman
board@@
guangdong
individu@@
libyan
merit
mil
ml
mri
numbered
painter
ried
sman
white@@
wilderness
aggression
antar@@
centres
clause
disclosure
forth@@
governing
ind
leaning
popcorn
proc@@
tration
atively
doctrine
earing
fili@@
fortunes
gars
inspiring
nt
program@@
prou@@
telescope
acknowle@@
ambush
clone
conception
elect
flooded
fluctu@@
icious
rand@@
unpredictable
activate
cc
diesel
enabled
kremlin
smoo@@
vs
wed@@
bows
chile
fitted
freed
nucle@@
ound@@
shee@@
tha
tuna
volcano
apy
cellular
cist
colin
credible
insured
learnt
ramp
unrest
8th
exams
icing
jenna
lef@@
leton
rand
sellers
sensi@@
spreads
abe
arise
barbecue
basin
congre@@
cries
embarrass
ests
jok@@
moms
quarantine
shly
tires
adv@@
archives
attach
eternity
gravy
jah
overwhelmed
residue
shu
venice
ald
fag@@
fo
fractures
ido@@
indul@@
ling@@
marina
optimism
reacted
reuters
titude
architectural
cosmic
donors
headlines
influences
marking
mee@@
optical
panicked
releasing
religi@@
respective
ruption
scam
viewing
100@@
argu@@
clan
confronted
daw@@
go-@@
limit@@
mei@@
myanmar
ventures
2,000
58
acu@@
catches
chap@@
crashing
creditors
cuban
cycli@@
flexibility
harassment
muff@@
pto@@
veins
=
admits
bler
brook
desired
limb
liner
minating
mortal
pione@@
rejection
threshold
for-@@
hawk
kle@@
quad@@
reservations
thick@@
53
abnormal
acquisitions
attrac@@
capsule
confis@@
fanta@@
hum@@
landlord
lowered
ricky
stent
veness
assad
continuously
il-@@
lant
merlin
mn
perfection
standardi@@
aband@@
ami@@
builds
cam@@
cious
focuses
frustration
gat@@
glen@@
hesitate
home-@@
kis@@
mug
noisy
oregon
pretended
private-@@
sarca@@
tasted
tuck
ample
bitter@@
damon
eci@@
eo@@
heir
inclined
lear@@
netherlands
outlets
pending
progressive
stings
athlete
erase
gab@@
matically
quet
scares
seldom
suburbs
towels
transparency
walt
buffalo
fatty
fic
host@@
lone
mad@@
oversight
paro@@
presumably
publishers
roast
ruining
slack
3000
confer@@
detained
felony
jealousy
marty@@
morpho@@
oney
pillar
rem@@
samp@@
seminar
stupi@@
warran@@
chev@@
chinese-@@
corrup@@
diplomacy
frontier
phar@@
proces@@
56
cannon
dragons
exha@@
interrupting
itary
luci@@
museums
oceans
taller
tified
cd
comply
devastated
entertaining
forgiven
journalism
leu@@
licensed
manages
usage
wic@@
xiao@@
applicable
emplo@@
exerc@@
flynn
highlights
medic
preference
sarge
solitary
territorial
arbitr@@
calcium
choir
ckle
ea
gio
goin
heartbeat
precinct
rainbow
scottish
unusually
updates
battlefield
benefici@@
formerly
gens
ht@@
ius
lav@@
leen
perpe@@
shop@@
astro@@
denver
earning
entrepreneur
laughs
lisbon
mock
rim
splendid
anesthe@@
full-time
liz
mitchell
mold
savi@@
scenic
shments
sloppy
ural
wallace
youtube
.i
bathing
cousins
cup@@
das
flags
hbo
innov@@
itarian
mations
offset
proximity
skeleton
stefan
swelling
tarily
tianjin
-it
aring
bedrooms
bravo
dled
hacked
iron@@
marriages
orium
rockets
triangle
80@@
axi@@
bak@@
comrade
coral
hammer@@
jennifer
mie
wiii
chau@@
comb
compatible
cture
devastating
diplomats
electri@@
kay
neural
peti@@
probation
renaissance
slam
smack
smartphones
spells
airports
biopsy
gious
hottest
ima@@
insul@@
itly
jing
justified
porter
retrieve
specify
viruses
ardo
buster
chu
contaminated
fes@@
morphine
ope
realised
sear@@
wrestling
62
charter
consuming
deceased
earliest
flee
ger-@@
hosting
lower-@@
sacrificed
stro
vocational
abused
advisor
disguise
farewell
large-scale
packaging
pse
sovereignty
accordingly
blackout
complic@@
counterfe@@
placing
psy
saul
vein
wild@@
accumu@@
aspirin
body@@
developer
ghtly
humanitarian
memorable
mir
parameters
rack@@
strate
use@@
beautifully
concep@@
gro
kidneys
leaked
needles
peach
reign
swit@@
whisper
consistently
crow
donation
easing
exterior
ipod
objec@@
projec@@
summers
-that
bbc
bumped
clarity
compas@@
directory
fing
invent
pples
proposition
reactors
cater@@
costumes
dai
dizzy
documentary
gate@@
icia
narcotics
sensor
swift
wander
bench@@
calli@@
imperi@@
jeopardi@@
juvenile
restructuring
sentimental
strat@@
sure@@
sushi
teen@@
zhen@@
anten@@
bartender
buddhism
chewing
dim
dough
exor@@
galac@@
idle
ignorant
lem
miners
outing
respiratory
right@@
sponsored
succession
cheeks
chron@@
dency
melinda
nailed
nixon
r.@@
scarlett
self@@
shal@@
uranium
automobile
cket
compe@@
consequ@@
distinctive
gei@@
gu
mechanics
natur@@
serum
aiso
appren@@
ballroom
decisive
denying
ectively
gauge
hips
hut
meaningless
megan
pic
pumpkin
puppet
renewed
trusts
66
altitude
cell@@
contractors
incomes
maneu@@
shifted
sounding
stric@@
aler@@
caves
discretion
exile
expedition
impulse
meredith
odd@@
pam@@
panties
prototype
scum
sensation
shru@@
taker
you.
behold
blur
dens
donkey
folder
mirrors
nag@@
nov@@
unveiled
ao@@
clau@@
gel@@
holi@@
infectious
ital@@
jammed
lingly
mings
nicer
scrub
translated
anyhow
brig@@
gul@@
lloyd
oil-@@
packs
pictured
sleepy
spr@@
supersti@@
tionism
tow
bred
counseling
delegation
dem@@
highlight
likewise
receipts
rescu@@
robe
tas@@
techn@@
wes
accommodations
belgium
dash
grad
litigation
partially
portal
prayed
steadily
tightly
avoi@@
chooses
hudson
kiddo
musician
nikki
pact
providers
racist
sacrifices
warmth
acres
chapel
chiefs
comfortably
distinguish
hara
historically
like@@
lum
market-@@
maturity
quick@@
seals
vie
achieving
appre@@
coats
diane
fade
fooling
gene@@
harper
manipulate
slipping
zzling
8-@@
carcin@@
edges
elded
every@@
formally
fox@@
pledged
smuggling
violated
10th
arbitration
arians
chie
fisher
healthcare
madison
neighbour
receives
rocke@@
rusty
shin@@
steal@@
tise
weddings
blogs
brations
duce
ductions
examining
forged
greed
lington
particu@@
premature
ptions
stimulate
tipped
transmit@@
unti@@
--it
asy@@
earthquakes
engaging
heroic
incen@@
labor@@
lasts
lizzie
marx
mini-bar
ound-@@
plainti@@
sculpture
00,000
burial
cracks
dley
dolls
expendit@@
issuing
killings
love@@
renowned
sales@@
ttes
vanessa
warmer
anya
arsenal
assholes
blackberry
busting
documented
energy-@@
esteem
fier
heli@@
inser@@
l.@@
moderni@@
monument
ody@@
refl@@
saves
travel@@
embarrassment
frequ@@
geography
jes@@
lobb@@
manifest
stripped
view@@
width
blond
competence
ctu
epic
essly
furthermore
interact
mcdonald
mics
oracle
scrap
snuck
swo@@
trademark
98
conservatives
hunch
impati@@
model@@
ourse
poorer
reacting
rewarded
seis@@
sire
anticipated
butt@@
cafeteria
ffer
human-@@
hypno@@
israel@@
louisiana
mounting
nationality
neighbour@@
pinch
propel@@
shelves
slightest
terrifying
tini@@
ttered
vengeance
ventri@@
68
abdominal
assembled
declining
est-@@
filming
pistol
satan
yar@@
anche
competitiveness
cost-@@
enri@@
evident
foam
mailing
marijuana
mixing
offs
oppose
pow@@
radio@@
reasonably
recognise
terrace
15th
brandon
choreo@@
deepest
disappointing
dous
eb
governmental
grabbing
guy@@
metaphor
mism
plead
requiring
scrutiny
squea@@
construc@@
cult
healed
origins
orthodox
predecessor
psychiatric
quake
quantities
rowing
sas
yoffs
ational
cellar
chandler
dana
diagnostic
face-@@
grove
identifying
ingredient
juven@@
klaus
larity
nicole
obstacle
orgas@@
popping
pyramid
ram@@
sedi@@
showers
story@@
thrust
asse@@
bedding
cruel@@
dome
hacking
interactive
irrigation
robo@@
satisfying
suing
thank@@
tz@@
unite
warnings
brief@@
confined
deliver@@
differ
dimension
evacu@@
exclusively
imminent
ino@@
mountain@@
naomi
philip
ripe
shrin@@
spatial
sson
bites
cative
fingerprint
handwriting
manufactured
multip@@
sachs
shit@@
soaring
speeding
whisp@@
87
alternatives
centi@@
crappy
dimini@@
ested
gil
lid
mission@@
opa@@
organisations
pia
refined
seating
sinking
spiral
toronto
atoms
behaviors
bruises
compani@@
corner@@
guessed
herd
intersection
oper
pumping
seth
sticky
thetic
yacht
accep@@
campbell
cend
considers
eng
louder
nev@@
notebook
romans
screen@@
tapping
centri@@
cryp@@
gence
infin@@
insulin
keyboard
kling
memo
migrants
scopy
substances
tearing
tomato
1994
at-@@
curtains
health-@@
line@@
oni
recruited
rum
sailor
tuber@@
11@@
albu@@
arming
atom
commands
eth
knock@@
melissa
merchant
ruthless
tainment
tdown
trou@@
willie
yeah.
2.5
bats
beck@@
certified
geek
ginger
lowing
maryland
part-@@
romeo
sleeve
sol
suffoc@@
sunrise
tresses
bribe
danish
sl@@
staged
turbul@@
900
arma@@
conceived
conversion
hilarious
offspring
pulmonary
stence
unlimited
yang@@
contempt
craig
dependence
flown
gases
ggles
incre@@
ley@@
org@@
pillows
poisonous
praised
quinn
thal@@
unified
utter
vi
waving
wrath
wright
enthusiastic
generals
hangs
regulator
77
amazed
ammunition
arities
bake
blow@@
casts
crawling
drone
ert
fragments
humiliated
percep@@
raymond
roi@@
shoppers
simpler
strategi@@
swine
trails
traveler
assassin@@
assur@@
claus
dad@@
donations
dudes
eni@@
fuzzy
hairy
inning
luxurious
organised
phenomena
procee@@
stants
stures
astronaut
bind
erm
fatigue
fibers
hipp@@
pomp@@
shattered
swan
timely
varieties
1990
caps
eous
epidemic
flock
infiltr@@
kier
onion
sleeper
tate
tuous
voluntary
witz
3d
cas@@
courthouse
cultivation
drac@@
drums
embryo@@
forecasts
insert
lux@@
manned
mb
mn@@
norman
ornam@@
programmed
rabbits
ralph
somalia
synthe@@
taipei
admired
boeing
brakes
draw@@
gg
grab@@
patents
sby
tighten
toxin
tuition
vacc@@
abraham
athletic
bb
calculate
co-ordin@@
costa
cott
exhau@@
flag@@
nevada
notch
reduces
salon
samantha
tom@@
ux
accelerate
alas
appearing
compact
consultancy
lean@@
objectives
probable
rough@@
self-defense
strap
wardrobe
booming
feathers
featured
floods
mongo@@
nursery
palestinians
roof@@
suspici@@
-yes
collision
columns
copenhagen
guarded
mitting
permits
pessi@@
printer
recovering
stled
applicants
audrey
hell@@
jupiter
kenny
lobster
ls@@
pedia
poles
princeton
rebound
rita
tish
torna@@
upright
achi@@
dummy
gag@@
humiliation
ians
joan
nam
remotely
shields
strau@@
confor@@
consciously
evacuate
genuinely
ironic
nigeria
persuaded
realizing
sport@@
spotlight
stamps
teens
tvs
12th
asted
comfy
educ@@
huawei
hush
inequality
ition
leon@@
module
newest
nokia
sauna
sorship
undo
conquer
helicopters
implic@@
jewel@@
lunatic
miracles
oi
scouts
stop@@
submarine
ador
daisy
ellis
gni@@
hereby
immuno@@
nickel
rio@@
segment
skin@@
streams
1995
88
bella
completion
expec@@
freaks
gett@@
mack@@
merchandise
pimp
professors
steel@@
steroid
thered
trump@@
undermine
whereabouts
bladder
environments
herbs
linking
musicians
petition
phen@@
poten@@
raged
refor@@
revealing
seni@@
stella
accurately
asts
behaved
breaker
brody
dao
evapor@@
fills
indicating
irony
lump
numb@@
occupa@@
peasant
quarter@@
roosevelt
stressful
substitu@@
tonic
travis
tribute
twea@@
wes@@
athens
auc@@
donate
freshman
inclu@@
lor
minimal
plains
remarkably
risking
skating
apollo
disputed
genetically
glimpse
heel
isab@@
jur@@
libraries
lucrative
outcomes
psychotic
seafood
sorted
taxation
trafficking
vegetarian
vement
anchor
authorization
blink
philosophical
pig@@
ecosystem
ft@@
grandparents
impor@@
invest@@
labels
lamb@@
loneliness
mandatory
mck@@
privileged
strapped
tching
voyage
almighty
carnival
cartoon
criticized
electoral
fairness
practiced
prefec@@
pudding
replied
salaries
xu
zeus
amic
bounty
circular
cogni@@
freder@@
fugitive
garlic
participating
predators
rookie
scans
takeover
tley
valuation
wines
collap@@
desh
do-@@
ensuring
gand@@
jelly
pierce
shouid
sino-@@
touch@@
verbal
backpack
disclose
expressions
flattered
max@@
opy
osity
scarce
sco
tighter
acking
barcelona
cottage
duncan
endangered
ethiop@@
halls
loosen
mortem
razor
tattoos
wren@@
wto
afflic@@
boyfriends
cody
handcuffs
passive
ruler
sensing
signat@@
vani@@
76
boiled
comparable
desktop
dilemma
globalization
high-end
mercedes
risked
shawn
shrinking
skipped
sma@@
turf
xiao
burke
cathedral
conve@@
galaxies
pand@@
refriger@@
scat@@
type@@
unlock
86
alty
appearances
before@@
carson
clea@@
coffee@@
condom
coul@@
guarding
qualify
tangible
temptation
tis@@
x-ray
bernanke
centric
credits
declar@@
enchan@@
fukushima
heal@@
manny
pinned
relaxation
relying
rib
statu@@
threatens
triu@@
upcoming
variable
waist
biography
bubb@@
depres@@
implementing
nanjing
nico@@
qin
strengths
tease
tigers
banner
better@@
neighbor@@
payroll
peru
puni@@
ric
scissors
shitty
ska
sutton
gifted
hughes
itative
outlet
paraly@@
refuge
remedi@@
saw@@
stretching
sums
temples
wary
whites
ballistics
cholesterol
dinosaurs
favorites
murdoch
nod
protocols
resour@@
alien@@
barb@@
bushes
expressing
frag@@
graft
hairs
iii
lively
mization
nypd
oly@@
perce@@
spectro@@
ate-@@
chatting
constructing
depressing
empiri@@
gim@@
indulge
linear
marker
obliged
puerto
robbing
sip
spouse
stream@@
whack
ased
assumptions
base@@
brotherhood
capped
dismiss
doro@@
elders
fiona
hive
ivy
jected
julian
loft
maine
nouri@@
reasoning
revel@@
rie
sary
speeds
alizes
dai@@
demoli@@
higher-@@
miti@@
nikita
noises
proj@@
venus
bangkok
denmark
dump@@
easiest
famil@@
knights
melon
raging
scarf
shane
sorting
tended
thic
volumes
-off
broadcasting
calculations
crusa@@
dreadful
intake
micro
nigga
predictable
prop
rhin@@
ruby
schu@@
silver@@
solo@@
stinks
thankful
thes
transfers
24-hour
artillery
broadly
credentials
freel@@
ghtest
membrane
minerals
oz@@
reliance
solely
stripper
suffers
systematic
two-thirds
villain
wales
algorithm
balancing
bourgeo@@
colombia
denny
escor@@
limbs
mouths
stared
wholesale
zhu
advisers
bmw
butler
certainty
fertilizer
grass@@
jewels
loy@@
mans
oo
rots
surveys
trim
16th
famili@@
frater@@
getic
matrix
neur@@
phies
secrecy
tying
choke
cism
diges@@
dors
finch
kai
kni@@
lac
light-@@
nationwide
okay.
pel
rebellion
reese
renewable
shand@@
stereo@@
v-@@
applause
beverage
compensate
contestants
dson
evacuation
expectation
lebanon
persecu@@
thy@@
un-@@
whispering
--you
93
certificates
committing
erous
immer@@
inland
jumper
mumbai
peculiar
racks
rif@@
rina
rous
acids
commissioned
deno@@
exquisite
gular
inflammation
lymp@@
pins
recycling
tempting
therapeutic
aristo@@
caller
condoms
defended
definite
dominance
esome
gaddafi
got@@
resili@@
sheng
siber@@
stalker
vascular
welcoming
bers
billionaire
cheerleader
clear-@@
distribute
enlar@@
fellows
initiatives
injected
instructor
melted
prediction
regrets
stler
venue
vored
workforce
yong
asion
cigar
corp@@
dt
eman@@
harrison
pai@@
parado@@
sands
schizophre@@
vand@@
's@@
activist
dded
guang@@
informal
knot
mandarin
out-of-@@
restrial
resurrec@@
tification
unification
vely
vow
whipped
backward
cence
convict
icians
observations
peek
proliferation
savage
severed
understandable
womb
accord
coc@@
cyclo@@
delays
deployment
dod@@
entertain
fascin@@
founders
hay
intercep@@
interpret
kisses
lage
mable
mis
seren@@
taped
tiest
um-@@
vivid
vomit
bay@@
chunk
cleveland
consultation
dav@@
democrat
demonstrations
elephants
eyebrows
flaws
hung@@
i-
jules
kaza@@
kota
magi@@
old-fashioned
orph@@
phoned
ppings
scanning
spontaneous
stove
streaming
tao@@
tball
train@@
utah
alexand@@
anas
awak@@
bian
composite
eland
griff@@
habitat
monu@@
patio
pens
tex
total@@
wisconsin
2015
bankrupt
bomber
boundary
disappears
gour@@
hiro
infrared
keepers
mysteries
notorious
pos@@
prosperous
sadd@@
structured
thrill
wall@@
associ@@
blues
cavity
closes
cricket
footsteps
jap@@
jill
kshire
suscep@@
try@@
ziva
adven@@
autism
avatar
bang@@
centered
chim@@
coon
dag@@
fier@@
handles
measurements
murphy
nicky
orial
proceeds
swim@@
upward
yelled
zed@@
behavioral
civilized
eligible
imperson@@
ingham
inging
marrow
nazis
ropes
sements
theori@@
tique
bonnie
docks
ellie
exceed
maniac
mer-@@
michel@@
nun@@
oon
peg
potassium
prac@@
socially
understand@@
05
59
aces
advocates
arrests
astronauts
churchill
classification
disc
gnant
kh
magnitude
obscure
renovated
rigid
tasting
vens
vienna
71
admitting
bank@@
besto@@
caliber
coordinate
disman@@
eco-@@
freddy
hypothesis
intentionally
medicines
pedestri@@
recruiting
trouble@@
vagina
bunker
calculation
discri@@
instructed
landscap@@
mole@@
panama
pathy
quic@@
releases
wling
04
abduc@@
batman
beck
breath@@
bree
clumsy
competitor
decision-making
defect
doyle
duplic@@
een
ele@@
emo@@
hip@@
monks
mytho@@
preservation
reb@@
respectful
slope
vowed
check-@@
chlori@@
chocol@@
competi@@
cunt
duration
efficiently
enfor@@
enzyme
eti@@
florence
honda
ingent
iove
marital
merchants
merged
offence
outsiders
pasta
struggles
swinging
tehran
through@@
worth@@
appointments
awaits
bet@@
catho@@
cler@@
facilitate
ffe
have@@
oste@@
righteousness
seless
shoul@@
slavery
song@@
spor@@
toring
trun@@
vintage
adventures
aerial
ander@@
beasts
budgets
electron
geous
haras@@
indefin@@
iowa
ranger
rex
rotation
skil@@
02
blind@@
bonuses
citizen@@
fling
hound
informa@@
mous
ninj@@
prank
quo
sam@@
torate
trousers
.he
63
belgian
commemor@@
comment@@
ence@@
freeway
marvelous
mix@@
neglected
paula
specialists
stil@@
straightforward
attracting
avo@@
carpen@@
dang@@
dwel@@
expan@@
guiding
orphan
pir@@
suring
velocity
chun
deploy
depor@@
districts
doff
ebay
fiable
kirk
preceding
regulate
rene
saddle
survi@@
ammo
bikin@@
citigroup
dau@@
hetero@@
immortal
kyo@@
mandate
morris
raft
ritu@@
ssi
terrain
tiveness
toil@@
91
aboli@@
accidental
assaulted
bread@@
condo
deserted
expelled
forge
minnesota
muhammad
potent
slides
ambigu@@
appeals
hea
hopeful
jefferson
positively
ppling
relies
repairs
rulers
adhe@@
anomal@@
attic
aul@@
disclosed
exca@@
extending
irresponsible
mckin@@
pet@@
plain@@
s-and
spring@@
toby
tro
undertake
unic@@
variables
|
12-@@
accountable
anatomy
driveway
emphasi@@
graded
parenting
quanti@@
sag@@
scales
sly
specifications
tibility
austria
axe
bath@@
betrayal
ej@@
eship
extrater@@
mec@@
overly
prof
samuel
surgeons
thood
bedded
constitute
indu@@
jung
kia
propag@@
pursued
67
82
capitol
confron@@
cuffs
eur@@
f.@@
fc
heed
jackass
maiden
medications
mongolia
moz@@
nomination
occup@@
pervert
61
anging
beware
cip@@
conditioned
confu@@
dispen@@
ex-husband
genetics
jit@@
livestock
lment
natalie
oblig@@
soy
varied
vietnamese
alia
alzheimer
characterized
coordination
disappearance
gaze
honey@@
jose
oundly
pioneer
readily
allowance
coher@@
enables
lefto@@
moisture
olds
overhead
override
pastor
plateau
posters
precau@@
right.
slump
sprink@@
startup
tenants
authentic@@
bodyguard
boosting
christianity
copied
ethanol
eved
jedi
judah
lash
perpetr@@
pike
queen@@
rine
ryp@@
snee@@
workout
xu@@
1960s
abling
catering
defects
dye
eared
harmed
note@@
orderly
sabotage
symbolic
'the
1991
97
acle
cele@@
communism
detector
hk
ier
janet
lawmakers
mechanic
mely
much-@@
napo@@
screams
shang@@
stake@@
unk
white-@@
xist
anni@@
arly
beng@@
chrysler
enforce
mbing
medvedev
partisan
philosopher
senti@@
shaved
sparkling
starve
sup@@
transpor@@
xin
adapted
antidote
brooks
dane
dner
etc.
evidently
homecoming
imposing
intends
meteor
moto
scler@@
screw@@
tary-@@
vau@@
cables
collector
containers
d--
dots
dresser
encourages
gren@@
haun@@
readings
symp@@
wal
1992
chemo
extin@@
foundations
gly
loo
marching
monroe
preci@@
stee@@
ado
arabic
artifact
chili
cose
fei
kane
lif@@
municip@@
parachu@@
presenting
prompt
referendum
revised
washer
84
appeti@@
camel@@
confuse
navigate
ounced
policemen
prosp@@
reset
tags
trust@@
alled
arresting
berkeley
catastrophe
clearer
discovering
exits
glee
inmates
itz
jama@@
libr@@
mae
magician
outfits
perf@@
privileges
repeating
respectable
roll-@@
smoothly
whil@@
ami
baking
dicate
dinozzo
enlightenment
guan
ican
ight
jumps
lust
nai@@
orch@@
pimp@@
reconsider
stat
strick@@
torres
adjusting
advisory
bam@@
boasts
brand@@
carri@@
douglas
globally
hunted
joh@@
jointly
matory
no.@@
revive
tely
tionality
weighed
adrenaline
ckets
cocon@@
congratulate
disgrace
inferior
interns
itations
polis
remedy
screws
tized
twe@@
00-@@
accommodation
appen@@
dening
dp
equities
feminine
gative
independently
monitors
mush@@
nsa
strangled
subordin@@
tara
territories
ane@@
cc@@
cheerful
dumpster
processor
quali@@
quir@@
ruth
shei@@
ssin@@
vier
1996
aning
bikes
circumstance
craf@@
delegates
edu@@
favour@@
harbour
hotter
irrational
lite
loid
money-@@
portuguese
rebel@@
spaghetti
stina
17th
columbus
cultivated
deep-@@
drunken
euph@@
fulfilled
geez
gerald
informant
joints
militants
nesses
pots
recreation
regain
toiletries
tutor
ultra-@@
wrink@@
alling
chimp@@
consultants
cough@@
deliberate
observing
physiological
relev@@
restraint
unexpectedly
unreasonable
verge
autonomy
believer
clara
dew@@
elbow
expo
geneva
grapes
gray@@
incapable
kash@@
mical
must@@
port@@
streak
tactic
theli@@
adams
alison
bill@@
blin
colours
equals
fini@@
gles
instability
lature
maids
philipp@@
pilgri@@
tequila
accomplice
clari@@
conspicu@@
desi@@
ducks
licence
mma
nutrients
posing
posting
relay
splash
swings
tissues
treasures
violate
word@@
zable
allocation
amusement
audiences
bial
boul@@
comforting
dences
dorm
dural
grave@@
pals
pursu@@
scha@@
secular
volunteered
bangla@@
cartel
cin
consulate
coupon
dagger
entities
flor@@
gating
headline
lectures
pep@@
stumbled
ticking
amusing
assorted
boil
caffeine
careless
chatter
connects
gospel
inscri@@
joshua
jr
on.
phara@@
poke
sanctuary
spea@@
tomatoes
traps
u-@@
wool@@
abdomen
abundance
astronomers
bathrooms
console
cosmetic
eline
emergence
essive
exceptions
hee
infra@@
murderers
poop
repea@@
spla@@
stible
tariffs
textbook
thirst
trainer
100,000
96
andro@@
appar@@
canvas
concentr@@
critic
gb
montana
moroc@@
multilingual
narrator
old-@@
ologist
proto@@
pumped
reef
researching
volcanic
apprais@@
coded
defaul@@
demon@@
diabe@@
geon
goats
hemisphere
lyrics
mosqu@@
overheard
oy
pros
sant
thrive
tow@@
unwind
weaknesses
aha
ander
corri@@
defining
ecology
ev
facil@@
fundra@@
grease
horny
loudly
oria
theastern
tones
unacceptable
uncovered
vings
wal-mart
wou@@
eclipse
gastri@@
geons
humph@@
jump@@
logged
marc
microscope
migrant
par
restoration
sourcing
spur
3,000
babysitter
d--@@
darn
der-@@
dodge
ented
gangster
indicators
inspi@@
paralyzed
paramedics
peer
pensions
resent
scoring
sn
stitches
testament
yland
ames
defender
exporters
junkie
metropolitan
prefers
splitting
squeezed
supplement
th-century
tumors
ught
vladimir
81
abduction
alabama
austri@@
bans
coer@@
conflic@@
ector
graceful
hamilton
homemade
imaginary
massacre
organizational
petroleum
quarterly
reservoir
strangely
unci@@
warrants
weakened
accelerated
beverly
chari@@
chromo@@
claudia
ena@@
engineered
orchestra
paw@@
poli
reluc@@
searches
stimul@@
subsidiary
14th
aber@@
conspir@@
crushing
diagno@@
dinosaur
dislike
granddaughter
identi@@
lori
muscu@@
on-site
prohibited
prolonged
qaddafi
venezuela
94
acul@@
airborne
coronary
cortex
coven@@
doom
grenade
icially
imagining
lanter@@
lionel
operatives
resentment
revolution@@
stabbing
tango
'm@@
comrades
contracted
cupcakes
flour
horns
icon
insights
jacuzzi
lamp@@
ould
outgoing
predictions
shouted
stevens
thms
unarmed
uts
administrator
call@@
compelled
discharged
downward
force@@
hour@@
ices
implies
kang
lai
lawful
moody
persian
placement
protects
punishing
retailer
typing
11th
ampli@@
culated
fest
frightening
malcolm
metaph@@
methodology
pharmac@@
predator
preparations
quin@@
toxins
barre@@
bricks
cardinal
chopped
classmates
darker
distinc@@
fers
hog
immigrant
insider
interrog@@
liabilities
murray
peel
pharmacy
restraining
rider
straighten
swamp
traction
truce
ultrasound
unil@@
borough
deposition
haif
heim
intestinal
kha@@
kho@@
moun@@
nothin
reflecting
sherlock
sri
under-@@
unting
amp
battalion
berlusconi
box@@
grudge
inject
instal@@
ret@@
surren@@
surroundings
treason
valen@@
yla
albeit
attachment
comet
grandchildren
interro@@
lander
locally
mutation
proposing
scotty
swollen
transferring
transmitted
wri@@
abide
blades
borrowers
branded
cani@@
card@@
christina
doorstep
editing
lamps
metho@@
mourning
otic
quan@@
stresses
syrup
ula
winding
zz
audit@@
buzz@@
color@@
demic
drugged
eh@@
eso@@
infir@@
inflam@@
lam
mandy
slot
stems
stipu@@
strokes
stroll
transported
ww@@
barking
cils
disappearing
dus
essness
favorable
feather
healthier
ideals
incomplete
neglect
pointless
realization
robbers
sium
sunglasses
surgeries
acqua@@
announcing
deficiency
heavier
initiated
interactions
ip@@
jab@@
leop@@
magnet
mammals
mu
mund
sidewalk
tranqu@@
accustomed
arou@@
barrels
court@@
cupcake
dea
domini@@
ern@@
essor
excep@@
financially
globalisation
isolate
lds
moni@@
proxy
recognised
sai
sap
trajectory
tton
w.@@
winston
abor@@
addicted
adop@@
bulb
cers
commitments
consecutive
cool@@
efficacy
equilibrium
fore
fuck@@
herb
local@@
markers
mascu@@
prepa@@
rico
rigged
shrine
subsequently
wire@@
acupun@@
bage
bedtime
carto@@
correction
creator
determining
dition
enses
grading
lemon@@
metabolism
nc@@
numb
observer
ols
profiles
vibe
abu
ales
beacon
beverages
chief@@
depths
eleanor
gio@@
groceries
happ@@
hav@@
john@@
medals
organism
overlooking
resen@@
rocking
schmidt
ture-@@
weal@@
yoff
aby@@
advan@@
ady
anca
aqua@@
arded
arsen@@
bio
booty
bration
configuration
deception
egyptians
geological
grants
hungary
indigenous
individually
intellectu@@
kel
neg@@
offend
oversized
pavi@@
pless
riches
scanner
stin
swe@@
trader
zhu@@
73
academics
bate
burton
cauca@@
confrontation
decreas@@
dee
edie
eleg@@
evic@@
frontal
horizontal
inadequate
prejudice
riots
rods
spared
barclays
bren@@
devotion
disciplinary
electromagnetic
ghua
haiti
hend
initiate
koreans
pronounced
reggie
rejo@@
weigh@@
adequ@@
annually
anony@@
apocaly@@
asylum
awhile
charis@@
choking
confirms
decoration
dwarf
explanations
fluids
frau@@
fury
graves
imprin@@
inable
maintains
pads
stabilize
state-run
surfaces
violations
.it
101
adopting
arrows
cairo
counsel@@
crib
delivers
eration
essions
follow-@@
hyde
indone@@
integrate
lever@@
norm
norwe@@
page@@
percu@@
phony
recre@@
wool
bothers
cyto@@
discover@@
guerri@@
hass@@
heavenly
jab
journals
lip@@
lotus
mapping
offenders
sliced
tarian
temporal
tioners
urbani@@
valet
69
appoint
delic@@
empa@@
insulting
leaking
linger
methane
metropolis
micro-refrigerator
pawn
porno@@
pren@@
riley
routinely
sants
sock
starbucks
swif@@
teller
vom@@
wrists
zard
allergies
chad
civic
earns
econo@@
faking
fiancee
fruit@@
hating
identities
manipulation
mubarak
munich
notable
og@@
rooted
strive
twin@@
witches
180
absorption
bending
bureaucracy
chorus
coupled
culo@@
dient
discreet
enz@@
grapher
invalid
iss
lex@@
parall@@
phantom
poetic
postal
sailors
satisfactory
shovel
texting
tucker
underestimate
undoubtedly
defen@@
enzy@@
happiest
hunan
insol@@
interviewing
marco
plausible
risk-@@
shaken
sixty
travelled
valent
volatility
waff@@
chest@@
eg.
fect
felix
fm
gested
ghtful
intervene
musi@@
pseu@@
strengthened
tire@@
vanilla
weighing
79
bah@@
chrome
coast@@
crystal@@
ense
knowle@@
leys
peripheral
sein
superman
umb@@
vity
waste@@
wet@@
yangt@@
40s
alber@@
barnes
boiling
crun@@
dians
ding@@
flipped
insufficient
isms
lesser
marketplace
multinational
passports
rents
strains
sweaty
tae
tennessee
thic@@
zy@@
--that
amsterdam
arson
collections
dama@@
humiliating
hyst@@
infrin@@
interpreted
king-@@
modernization
mone
oklahoma
originated
out-@@
prostitutes
sch
screamed
tribunal
advertisement
amaz@@
automotive
decreased
dier
doses
dows
edit
foli@@
ichi
nell
phic
sorry@@
sullivan
swat
televisions
thirteen
vendors
zai
13th
92
arter@@
autograph
briga@@
bry@@
crystals
demonstrators
ectomy
ede
extravag@@
frustrating
geographic
i.e.
juliet
kindergarten
mccar@@
millionaire
notified
pollen
qualifications
slick
sterone
stew
110
1993
20-@@
accumulation
assemble
atmospheric
axis
categ@@
clowns
economic@@
enthusi@@
gna@@
infants
janitor
lace
manipulated
nun
of-the-@@
onal
privati@@
robinson
siege
so-@@
acade@@
accessories
artie
bach
bloomberg
breakup
cardio@@
cardiovascular
carla
condu@@
consen@@
country@@
cucu@@
cynical
dedication
freaky
inhabitants
kindle
lockdown
moth
prostitution
sad@@
spice
stationed
trau@@
wald
wong
yemen
arteries
catastrophic
disrespect
downloaded
flawed
gwen
hides
honors
inary
insanity
kabul
kentucky
lumin@@
mish
mista@@
never@@
nova
paci@@
pneumonia
sheppard
sincerely
soo
sped
stained
supple@@
vanc@@
viewer
89
acher
auntie
barred
blooded
cac@@
countermeasures
cy-@@
dixon
extor@@
kathy
ke-@@
nial
ome
shun@@
superb
vegetation
veterans
anes@@
deep@@
dist
enhancing
intersect
kilometer
knit@@
lore@@
mina
pening
sational
subli@@
alig@@
bibli@@
covert
cs@@
diarr@@
dolphins
glowing
gover
hideous
manuel
pittsburgh
platoon
rehabilitation
semen
skate
sket
subconscious
trin@@
verification
weeds
zach
assignments
ati
charitable
considerably
dividen@@
hometown
listens
lubri@@
nationalist
newton
remark
tman
al-qaeda
bacter@@
balloons
belonging
bulls
casing
demographic
face@@
grind
ioo@@
kee
leigh
lynch
onions
pol
predicting
predicts
provoke
subpoena
suit@@
thel
upgraded
venom
wiki@@
yunnan
,,
cambodia
deleted
dinners
explored
frames
guides
guin@@
limiting
match@@
oak@@
proof@@
s0@@
starters
stripes
tially
troubling
wholly
wi
applau@@
brat
iv
learns
likelihood
meltdown
provoked
race@@
rainy
reversed
rial
robber
shack
strait
vulner@@
withstand
arc
attorneys
bruising
convertible
cosme@@
defl@@
dest@@
digit
grains
hoe
jection
jess
keller
lag
nude
rumours
slash
strong@@
telecommunications
tian@@
variations
vendor
virgin@@
ala@@
bition
bryce
clarify
darwin
debt-@@
denies
disposition
economically
editorial
ference
islamist
malaria
marilyn
oppo@@
pu
shakes
sps
systemic
acry@@
addressing
atm
attendant
bod@@
communists
e--
erased
gabe
hsbc
occurrence
pigeon
populated
qualification
rounded
spect@@
stool
textile
waits
03
adrian
allied
bitten
cant
cultiv@@
cultivate
cz@@
daring
debut
embraced
erra
fashionable
fie
garment
garre@@
inherit
melody
patriotic
royalty
runners
ser-@@
shen
tong
uh-huh
viney@@
alleg@@
brighter
disobe@@
drug-@@
extinct
gencies
greeted
ib@@
monaster@@
mously
per-@@
safeguard
sai@@
sonic
thereof
vatican
。
applicant
citing
cloak
crooked
demen@@
fantasies
foreclo@@
iceland
interim
kinson
mafia
migra@@
nicolas
opposing
ronald
slapped
subjective
veter@@
adverse
camel
chinat@@
connecticut
desp@@
egg@@
exploitation
fleeing
franchise
holland
induce
lee@@
new-@@
onaires
pounding
presume
prospective
recalled
sper
acity
anges
crust
derson
drop@@
eyel@@
fungus
grape
highlighted
innovations
jpmorgan
lava
legends
loa@@
peanuts
repri@@
souvenir
strawberry
thinner
tist
vitamins
acquaintance
allergy
ardy
bailout
diap@@
disciples
encry@@
housekeeper
incorporated
indicator
jamas
leonard
mizing
pox
reviewing
sparked
studios
veto
78
alge@@
aller@@
bribery
caster
cipation
concealed
concessions
contagious
etto
gaby
generates
hog@@
hostility
intimacy
outline
rainfall
redun@@
rmb
sals
slammed
thor
tidy
urging
weap@@
20,000
cohen
congo
constructive
datab@@
dget
ership
finland
gigantic
haired
laundering
mali
mality
mortg@@
mushrooms
owing
proposes
restless
revelation
rigor@@
siblings
wanda
2,@@
behaving
benign
brink
diameter
diapers
escaping
ied
imprisonment
larly
mets
monitored
oops
piease
real-time
refreshing
restor@@
sso
stical
swir@@
thel@@
victi@@
wardly
zhao
anxi@@
architects
cherish
claws
combines
compartment
council@@
crosses
decay
explicit
moonlight
occurring
outrage
repeti@@
ses@@
slippery
tents
vocabulary
yout
1980
arthritis
babylon
backstage
begin@@
chaotic
clyde
dders
disability
disposable
educate
eliminating
flex
hosted
licensing
mitt
neurons
omel@@
shocks
sionary
sliding
slit
summoned
troop
weary
83
aneury@@
conn
crac@@
czech
donated
excu@@
famine
guo
inspect
lynette
milky
philanthro@@
uprising
advertis@@
clocks
grammar
ip
jeffrey
money@@
nerd
once-@@
prague
specific@@
squee@@
thera@@
unwilling
affi@@
aggrav@@
apologized
brokers
evolve
leaks
merits
neighboring
omar
reliability
smartest
spicy
sugar@@
tool@@
unaware
weights
which@@
bunk
coding
commanded
dwar@@
encoura@@
essi
frea@@
irregular
misp@@
num
optimal
saints
skul@@
asting
ballot
communicating
consolidation
messa@@
messi@@
orphanage
physicist
realizes
remorse
selective
sufficiently
adel@@
aggressively
bn
coaches
cology
convey
culate
edgar
fluore@@
fortress
lays
lookout
owl
peaks
rendezvous
rons
scenarios
sebastian
walk@@
withdrawn
algae
attacker
attributed
baths
croco@@
danger@@
mega
payback
projected
replicat@@
ribbon
scoo@@
soy@@
superhero
theoretically
tium
80s
ambu@@
compla@@
disen@@
gracious
injustice
ivan
juicy
mson
mustard
outrageous
owning
rep
reproductive
rightly
stalled
vending
vern
alian
boris
buz@@
cadil@@
congen@@
disastrous
ditional
encrypted
extinction
intriguing
johan@@
lanes
oz
paralysis
roundabout
shampoo
squirrel
tracker
assign
bber
bond@@
canni@@
clock@@
concen@@
euro-zone
excellence
gou@@
homici@@
kine@@
kjv
lakers
mandel@@
netanyahu
paycheck
pil
piles
richar@@
sine
tread
weaken
worsen@@
xon
zhi@@
zzie
2020
annoyed
chick@@
dark@@
elvis
genome
hygiene
impaired
installing
issa
jeep
locke
misunderstood
nut@@
outright
porsche
retarded
spelling
stains
thriving
tify
tripped
yes@@
allevi@@
dece@@
haley
high-profile
lifts
nd
nominated
plunge
sations
scorpi@@
shaping
spirit@@
symphony
terior
74
brendan
brunch
close@@
committees
conglomer@@
deprived
dictator@@
drun@@
editors
explor@@
indispen@@
insisting
java
koso@@
low-cost
minorities
possessions
pyra@@
scumbag
telecoms
thyro@@
worl@@
zhejiang
asap
bailed
blankets
boxer
brace
dawg
destin@@
disrupt
documentation
drake
fibro@@
flat-@@
imperative
inau@@
lov@@
murdering
rea
sane
semic@@
sixteen
aka
belong@@
conc@@
elas@@
gong
ician
intercept
liqu@@
onto@@
piracy
relied
shipments
stephanie
tuned
wake@@
wering
08
alogue
amy@@
chez
cyber
gravitational
maze
oud
start@@
xiang
boyd
dab@@
guer@@
moi@@
pater@@
shness
thead
24-@@
angie
davi@@
ecu@@
gloria
hel
jeop@@
ontario
qaeda
telecom
woody
achi
balli@@
confir@@
deleg@@
hacker
hassan
heng@@
mosque
una
-in-@@
deutsche
gn
humili@@
sophia
burgh
kurt
mario
poster@@
anch@@
brother@@
guaran@@
jil@@
molecu@@
orchest@@
shman
succee@@
swal@@
tivi@@
voy@@
1989
betra@@
census
eck
establi@@
fidelity
floo@@
fus
hugh
int@@
miguel
mingham
xter
icy
solit@@
thar@@
cot
envel@@
holm
hop@@
inno@@
adam@@
ns@@
ots
quie@@
schwar@@
sionally
still@@
sylvia
anian
burma
pher
sheri@@
beth@@
dorf
millennium
serge@@
ssively
adjust@@
arbit@@
capri@@
350
70@@
sect
singh
yama
yor
é
aur@@
candi@@
ek@@
pix@@
wear@@
conrad
respec@@
reyno@@
veronica
zhi
feel@@
nis
ape
brilli@@
outsi@@
pti@@
zel
baba
camer@@
capsu@@
jet@@
sail@@
welling
sities
volk@@
arrog@@
cn@@
momen@@
ori
bis
contr@@
text@@
10000
anium
dedic@@
volun@@
vp
edit@@
explorer
mack
overwhel@@
zucker@@
140
gely
instor@@
ps@@
rust
rement
behavi@@
jie
shers
sincer@@
taxpa@@
terri@@
zzi
beli@@
investi@@
kow@@
lis@@
near@@
cry@@
kahn
volu@@
ape@@
ell@@
iti
sabo@@
sexu@@
stewart
bicy@@
conn@@
jose@@
shil@@
ware@@
anese
sual
accom@@
cise
sev@@
top@@
recru@@
sion-@@
vista
wns
06
dolph@@
imprison@@
nood@@
ause
broo@@
dame
inger
melo@@
reen
advoc@@
bbs
blog@@
consist@@
ghting
palest@@
phenomen@@
yanke@@
ail@@
bern@@
mor
nik
straw@@
vors
neighb@@
pher@@
philosoph@@
sie@@
stes
hyp@@
ean
eus
exces@@
paulson
vu@@
world@@
？
kov@@
lyle
phillips
vert
artif@@
compens@@
dily
logies
desper@@
jeff@@
ubs
christi@@
class@@
rue
starter
09
confin@@
ular
duced
hd@@
parano@@
affor@@
hybri@@
mats
strations
algori@@
cas
blon@@
cine@@
depu@@
ece
aspir@@
coura@@
mpo@@
octo@@
uto@@
defici@@
ghter
mpi@@
dv@@
entrepre@@
matri@@
chel@@
semin@@
vey
bos
mc
patro@@
ros@@
trigger@@
brook@@
coupl@@
oph@@
replac@@
silic@@
volcan@@
fail@@
caff@@
glori@@
mingly
ml@@
nei@@
zomb@@
endu@@
responsi@@
secu@@
sympa@@
vege@@
xim@@
assaul@@
auth@@
yun@@
90@@
accomp@@
battle@@
ester@@
liam
merrill
tels
pierre
beauti@@
eval
ferred
judi@@
linux
name@@
1988
ater@@
cnn
notori@@
radic@@
ray@@
ag
conte@@
lins
pneu@@
strang@@
chair@@
cp
instru@@
oner
130
gram@@
split@@
50000
assemb@@
hawa@@
pois@@
vene@@
1.2
ault
deta@@
inda
zon
argen@@
atic
iro
mathema@@
mitted
spher@@
alco@@
cctv
efs
essed
festiv@@
exa@@
expre@@
destruc@@
tility
ake
comfor@@
olymp@@
technic@@
figur@@
foreig@@
rout@@
cil@@
congr@@
defend@@
feld
liest
naz@@
refre@@
whir@@
ela@@
fda
hurri@@
import@@
io
pene@@
cellu@@
genu@@
plc
wo
reco@@
dingly
help@@
achiev@@
ducing
07
10.@@
liti@@
reu@@
zon@@
g20
kenne@@
pot@@
aig
eau
employ@@
patter@@
vail@@
cep@@
deliber@@
faction
pon
hide@@
teles@@
1.3
1979
appe@@
escap@@
fashi@@
merri@@
celebr@@
thal
administr@@
disea@@
murder@@
stewar@@
stries
1987
speech@@
<
atric
fati@@
jas@@
docu@@
diso@@
mg
uti@@
volunte@@
practic@@
stor
uation
enders
nik@@
sert
wher@@
é@@
anth@@
erable
chand@@
chry@@
23@@
ghtening
lob@@
tenant
share@@
unch
mathe@@
pizz@@
8.00
flori@@
half@@
happen@@
jects
unve@@
diac
feat
neys
elabor@@
essen@@
bai
ich@@
mexic@@
pota@@
stol
encoun@@
gible
memb@@
rying
stration
chann@@
corpor@@
design@@
morph@@
offic@@
turer
ckey
160
1986
sionate
1985
ghten@@
micha@@
rais@@
impli@@
neph@@
opport@@
toral
window@@
anato@@
daf@@
pulated
requi@@
tees
beh@@
champion@@
bul
invol@@
accor@@
insp@@
possi@@
thur@@
divor@@
isi@@
schi@@
uary
usu@@
eties
fia
gress
gather@@
caine
dict
distingui@@
mises
untie
ctic
eel
favor@@
sud@@
thless
toms
sitter
arri@@
strasse
displa@@
lement
gations
cathe@@
milton
phone@@
jim@@
dread@@
cere@@
gger@@
4000
conveni@@
hemi@@
uh-@@
zeal@@
chuan
decla@@
stron@@
offici@@
republi@@
pharmaceu@@
sition
tok@@
depri@@
df
ink@@
rist
senten@@
youn@@
compromis@@
ony@@
antibio@@
centu@@
isite
lyn
mone@@
traffic@@
360
lyri@@
1500
instinc@@
logi@@
surg@@
oul
199@@
advo@@
drow@@
perfec@@
machin@@
penn@@
atar
proce@@
ylon
igno@@
tments
crat
ior
kish
piec@@
stub@@
cos@@
evo@@
look@@
steph@@
vide@@
197@@
acqui@@
agri@@
congratu@@
disco@@
pics
situ@@
delines
marvel@@
1982
cd@@
culous
ef
ject
nba
princip@@
again@@
aren@@
mately
skype
unbeliev@@
shou@@
ukra@@
125
genous
naissance
supre@@
ttery
enor@@
furni@@
parag@@
pical
revolu@@
orien@@
sser
taneously
mob@@
okie
phy
deplo@@
effec@@
suppor@@
bachel@@
phili@@
inclin@@
niger@@
tural
wid@@
guit@@
rememb@@
upri@@
abstr@@
colum@@
dney
gabri@@
itunes
round@@
predec@@
tour@@
absolu@@
califor@@
dential
entreprene@@
metro@@
bili@@
journ@@
3g
forbi@@
coron@@
imple@@
lowers
multin@@
rd
1945
3.5
conces@@
raced
singly
terrori@@
commission@@
periph@@
recogn@@
saf@@
securi@@
trade@@
profession@@
righ@@
treat@@
6000
minim@@
challen@@
incorpor@@
transfer@@
pation
stren@@
13.@@
biscu@@
scul@@
20000
6.00
istics
criteri@@
ein@@
enh@@
natives
colu@@
dragon@@
dela@@
ett
theore@@
chor@@
goddam@@
pop@@
utter@@
deriva@@
erial
1970
7.00
canadi@@
imed
ortho@@
1984
ception
mant
450
coco@@
thier
matthe@@
ulti@@
imer
minal
rha@@
tempor@@
titu@@
une
effor@@
elf
mits
fian@@
percen@@
purcha@@
spen@@
titudes
trum
derly
esh
girl@@
hosti@@
paragra@@
1975
elihood
tably
certain@@
eased
repe@@
tention
cinc@@
erals
minent
myster@@
smil@@
xic@@
1972
cyn@@
ddie
llo
neck@@
syri@@
edith
strous
1978
doctr@@
endang@@
rious
sacrific@@
suppo@@
acker
idea@@
caly@@
laugh@@
zzo
amate@@
12.@@
1981
4400
ext
fig@@
tem
1973
carni@@
emper@@
kev@@
membran@@
raz@@
skir@@
cians
flix
mm-@@
congress@@
dred
vah
leagues
robb@@
dently
hopel@@
insec@@
ques@@
1960
arious
excell@@
poly
cracy
effici@@
promis@@
beha@@
lson
mple
rupt
satis@@
agen@@
repli@@
immen@@
inev@@
kic@@
magnific@@
mai@@
muni@@
psychiat@@
roe
apri@@
cain
hao
shima
outra@@
rog@@
rogen
forgi@@
malay@@
anton@@
eath
eter@@
rants
vels
australi@@
risk@@
sug@@
arre@@
atives
hori@@
juni@@
langu@@
lib@@
pipel@@
retar@@
ror
iry
pakistan@@
sophisti@@
amoun@@
hormon@@
loun@@
homa
rors
strea@@
esis
flexi@@
portfoli@@
sche
cambo@@
hope@@
public@@
£
athle@@
essa
manufac@@
toge@@
1967
desig@@
nao@@
europe@@
reau
acquaint@@
dispo@@
mechan@@
ateral
eding
figu@@
spel@@
techni@@
advanta@@
choo@@
indepen@@
chemic@@
crit@@
aar@@
achment
becca
monia
negl@@
1983
icu@@
canv@@
vacu@@
1971
awe@@
leban@@
lieu@@
primar@@
rum@@
enterpri@@
gossi@@
interrup@@
pump@@
rehabil@@
skele@@
1974
airs
compen@@
compro@@
euro-@@
souven@@
prov@@
shepher@@
feli@@
sels
1969
ciple
hist@@
resur@@
jacu@@
commod@@
datory
amend@@
hygi@@
isle
withdra@@
jurisdic@@
ob
philoso@@
assess@@
curri@@
esty
scape
sday
subpo@@

absur@@
strength@@
tress
aired
astr@@
budd@@
isra@@
1949
cauti@@
onics
singa@@
succ@@
rece@@
ribb@@
8000
administra@@
cent@@
prolifer@@
tili@@
750
calen@@
derness
lina
twel@@
whel@@
yach@@
scon@@
ult
wable
warded
artic@@
fortun@@
splen@@
trage@@
witnes@@
ambassa@@
bracel@@
harb@@
miss@@
ond
perfu@@
propo@@
suffici@@
adol@@
droid
histor@@
rad
1976
imm@@
policy@@
cur
erson
hono@@
lighted
tournam@@
liers
russi@@
surr@@
thorough@@
afgh@@
answer@@
estee@@
hou
scot@@
bral
dah
fuku@@
musc@@
inju@@
narco@@
necess@@
ame
ballo@@
health@@
immi@@
170
ghu@@
gravit@@
market@@
pheno@@
eyebro@@
mally
treas@@
join@@
femin@@
240
busin@@
orts
convin@@
scholar@@
when@@
selves
1200
large-@@
biop@@
grav@@
ois
poe@@
renov@@
sture
ual
220
agan
juana
massac@@
spective
duces
tana
does@@
restri@@
gage
holic
investig@@
william@@
chri@@
lew@@
pist
communi@@
grace@@
iming
mare
reta@@
dication
ior@@
obs
obsc@@
proli@@
bris
inson
awk@@
proxim@@
slow@@
gentle@@
lett
betw@@
climb@@
dinal
feed@@
kla@@
morrow
tence
tah
vehic@@
atures
bouts
impres@@
7000
champi@@
cot@@
gration
millen@@
mors
architec@@
jere@@
reser@@
ury
！
else@@
mech@@
politan
preli@@
venezu@@
represen@@
morse
pei
teries
prepar@@
proper@@
godd@@
thirds
dup@@
engag@@
kore@@
reven@@
barbar@@
repor@@
expla@@
sives
twen@@
alas@@
hagen
intellec@@
jee@@
vid
whirl@@
orable
reason@@
heter@@
marri@@
sovereign@@
urity
bm@@
ege
mance
bery
onable
orphan@@
pregn@@
tox@@
^
commit@@
gare@@
resul@@
2500
citi@@
enthusias@@
insan@@
vised
asth@@
leader@@
tuary
commend
psychi@@
thly
messen@@
okay@@
tues@@
ign
mete@@
quaran@@
tremen@@
ambul@@
buddhi@@
cae@@
dign@@
hundre@@
inia
mberg
samu@@
calci@@
inhabit@@
ylor
.m.
acles
venge@@
alcoho@@
aluation
iden@@
metaboli@@
peu@@
offer@@
tsun@@
lion@@
ived
longed
nette
principl@@
ranean
crete
enna
glimp@@
sored
barbec@@
bordin@@
francis@@
rism
tradi@@
ghters
ird
orthodo@@
salem
tibe@@
abri@@
champ@@
shot@@
cee
rists
plau@@
reservo@@
brazili@@
fugi@@
glomer@@
infil@@
pecu@@
trous@@
dented
liver@@
perman@@
restruc@@
achs
alie
ardi@@
desk@@
turers
umbre@@
ire@@
zens
adren@@
clai@@
consci@@
disclo@@
eged
embarra@@
nicho@@
velo@@
hemor@@
pha
thous@@
atlan@@
beit
defic@@
phan@@
.....
fossi@@
newsp@@
leans
lori@@
sugges@@
ynn
athan
cial
tane@@
glob@@
inet
politici@@
range@@
luxu@@
smart@@
wholes@@
abun@@
hman
performan@@
stitu@@
exec@@
regulat@@
soever
toma@@
yal
nels
exper@@
hatt@@
ig
live@@
opini@@
bilities
hone
minary
symbo@@
198@@
attor@@
dations
explan@@
guing
taiwan@@
anol
dren
ebook
icide
imb@@
jective
stard
avail@@
reve@@
scis@@
controver@@
hammad
medics
sily
success@@
taway
dote
mails
respir@@
-fi
camb@@
deman@@
hamed
launder@@
approxi@@
scumb@@
toyo@@
®
dev
nigg@@
pied
restaur@@
spot@@
tobac@@
dispu@@
jeho@@
lity
suspen@@
autono@@
baske@@
lywood
rubb@@
7-inch
acciden@@
catastro@@
facul@@
studi@@
accur@@
balcon@@
puer@@
earthqua@@
millenni@@
relax@@
dies@@
itably
relation@@
wednes@@
austr@@
challeng@@
accompani@@
expend@@
methodo@@
pore
sacrif@@
sudden@@
frame@@
merce@@
yogur@@
kok
occa@@
frustr@@
homel@@
narra@@
obvi@@
onica
reme@@
marath@@
pment
dimen@@
guish
merchandi@@
mester
poor@@
smal@@
commodi@@
·
further@@
horizon@@
liby@@
stero@@
sweethe@@
yester@@
gosp@@
parliamen@@
alo
ceme@@
lloy@@
nether@@
aster@@
courtes@@
etti
innova@@
kindergar@@
madi@@
ouri@@
pointments
police@@
soc@@
soldi@@
mass@@
bure@@
luck@@
opportuni@@
symphon@@
kness
signific@@
viet@@
evolu@@
lites
mals
ones@@
pover@@
bankrup@@
sterity
configur@@
iss@@
summon@@
ateful
braz@@
rom@@
lingual
missi@@
acci@@
degre@@
beyon@@
dez@@
goti@@
atmo@@
centur@@
forec@@
mach
penta@@
spheric
gaso@@
meaning@@
tg@@
ctu@@
haps
infec@@
orities
reness
sacri@@
desir@@
excit@@
franchi@@
harm@@
immedi@@
lotte
provin@@
rote
belgi@@
defea@@
enery
gott@@
kj@@
mandar@@
virg@@
coms
mples
pred@@
barak
cept
elds
sma
rome@@
diamon@@
focu@@
stev@@
vla@@
decision-@@
roosev@@
straight@@
è@@
borrow@@
jeal@@
optimis@@
pts
rey@@
sler
warri@@
chong@@
geries
measu@@
reha@@
scream@@
.......
anniver@@
belo@@
deploy@@
disappear@@
scap@@
vements
bankrupt@@
cly@@
distur@@
especi@@
lution
satel@@
support@@
contain@@
missil@@
occurren@@
rema@@
enjo@@
herit@@
prep@@
wels
abled
irri@@
swis@@
immu@@
parac@@
ssful
sues
threat@@
abs@@
ahu
dictat@@
adrenal@@
applic@@
cants
christop@@
cker@@
cuis@@
immun@@
organiza@@
sica
syndro@@
dures
iest
llery
muse@@
bizar@@
chanc@@
hs@@
sics
danc@@
sandwich@@
cathedr@@
ession
hospit@@
precinc@@
coali@@
exqu@@
fabul@@
frien@@
ppi
tten
anthro@@
discu@@
egyp@@
exag@@
therapeu@@
traff@@
alab@@
certific@@
maril@@
ryo@@
vous
difficul@@
alumin@@
chemi@@
hom@@
iland
onous
prison@@
tono@@
gae
parliam@@
progra@@
soverei@@
trajec@@
terror@@
courty@@
easi@@
eliza@@
egy@@
ssin
bother@@
ousy
chell
clum@@
indivi@@
lucin@@
sedly
xity
surpri@@
cholester@@
mily
philo@@
representa@@
vampi@@
acquisi@@
fare@@
movi@@
hallo@@
stances
televi@@
costu@@
deut@@
mptions
thresho@@
vladi@@
anity
distric@@
drive@@
accessor@@
hio
honest@@
targe@@
activi@@
extr@@
mosco@@
sophi@@
tril@@
gigan@@
ignor@@
renmin@@
roop
vola@@
xe
encryp@@
gees
loe
slipp@@
sylvania
transparen@@
afghani@@
autu@@
credi@@
relea@@
accel@@
chancell@@
ddings
done@@
icked
rements
warm@@
retail@@
assho@@
commer@@
copen@@
magnit@@
◎
consult@@
gedly
leum
dino@@
envir@@
cil
heaven@@
madri@@
teria
diam@@
effic@@
entre@@
ese-@@
malia
phe
ssels
stest
primi@@
resig@@
°
eral
qad@@
viet
‐
alid
jp@@
shal
aban@@
diffic@@
ecraft
eury@@
portu@@
magaz@@
monit@@
musli@@
phia
shakes@@
teh@@
amuse@@
monary
occur@@
partic@@
shampo@@
ò
along@@
astronau@@
controversi@@
culum
rup
cafe@@
curio@@
executi@@
previ@@
shenz@@
sota
thur
cryst@@
energ@@
paradi@@
benjam@@
compon@@
devel@@
engine@@
equilibri@@
lincol@@
thanks@@
battali@@
enlighten@@
nove@@
passen@@
schizoph@@
seu@@
alg@@
arthri@@
bagh@@
cess
eleph@@
merchan@@
undoub@@
appear@@
michi@@
psych@@
2-inch
aes@@
comra@@
pyon@@
guine@@
prosper@@
regar@@
voca@@
yone
..@@
estab@@
territ@@
testam@@
authen@@
referendu@@
sugg@@
unfortun@@
chole@@
kita
spiring
stantly
abed
cigare@@
detro@@
itance
prostitu@@
sebas@@
hugh@@
nowa@@
willing@@
consecu@@
nific@@
ssell
€
：
™
）
ü@@
à
′
ö@@
ó
½
á@@
¬
￡
＂
－
í@@
ó@@
ň@@
ñ
•
、
》
〇@@
}
©
¼
í
ï
¾
à@@
á
♪
{
ä@@
è
″
ﬂ@@
¤
Ø
ö
ū@@
《
〞
ç
ü
Ё@@
Ⅲ
ﬁ@@
（
×
±
θ@@
―
Ⅱ
〝
㎡
＄
Ø@@
ë
ú@@
β@@
℃
≥
〃
事@@
修@@
在@@
我@@
´
º@@
ç@@
ê
不@@
列@@
尔@@
斯
是
韦@@
﹩
¢
¨
º
Ö
â@@
ì
ï@@
ā
ā@@
ǒ@@
ǔ
˚
„
℉
Ⅹ@@
─
▪
上@@
任@@
何@@
后@@
哈@@
基@@
实@@
尔
情
改
改@@
文
文@@
明
此@@
照@@
础@@
维@@
英@@
要@@
证@@
请@@
这@@
需@@
顾@@
괜@@
보@@
아
요
지@@
찮@@
하@@
해
＇
．
￥
¥
ª@@
²
³
ã@@
ä
å@@
ê@@
ë@@
î@@
ô
ô@@
ø
ú
ě
ō@@
ū
ǔ@@
΄
μ@@
‖
⁄
Ⅳ
Ⅴ@@
Ⅶ
↘
≤
⑶
◊
〉
【
こ@@
ち@@
に@@
は
ん@@
一@@
九@@
了
了@@
些@@
假@@
兴
分
十@@
原@@
发@@
同@@
圣@@
地
场
处@@
对@@
展@@
已@@
巴@@
广@@
度@@
建@@
很@@
拉@@
斯@@
无@@
朝@@
梅@@
步
海@@
湾@@
点@@
特@@
的@@
经@@
胜@@
艾@@
议
译@@
起
达
都@@
里@@
面@@
高@@
걱@@
겠@@
고@@
구
금
기@@
네@@
눈@@
다@@
도
롬@@
리
마@@
만
만@@
면
못@@
복@@
부@@
상@@
시@@
심@@
아@@
않@@
야@@
어
와@@
우@@
으@@
이
이@@
있@@
정@@
천@@
친@@
테
한@@
＃
